[UNK]	0
[CLS]	0
[EOS]	0
▁ˈ	-0
▁d	-1
▁k	-2
ˈa	-3
▁t	-4
ɾɯ	-5
ɯɾɯ	-6
▁p	-7
ɸɯɾɯ	-8
▁s	-9
▁m	-10
ən	-11
˧˧	-12
an	-13
▁b	-14
▁l	-15
st	-16
eɪ	-17
▁a	-18
ˈi	-19
▁j	-20
nt	-21
˨ˀ	-22
˨ˀ˩	-23
▁n	-24
▁ˈð	-25
nd	-26
at	-27
a̠	-28
aɪ	-29
it	-30
eː	-31
in	-32
▁h	-33
▁ˈt	-34
˨ˀ˩ʔ	-35
▁e	-36
ˈu	-37
ˈɛ	-38
as	-39
ak	-40
▁v	-41
▁ˈɪ	-42
▁f	-43
˩˨	-44
▁ˈðɛ	-45
iː	-46
˧˩˨	-47
▁ˈw	-48
▁de	-49
▁ˈæ	-50
al	-51
▁ˈʔ	-52
əˈ	-53
▁i	-54
˧˨	-55
t͡	-56
oʊ	-57
on	-58
aɾ	-59
en	-60
▁ˈf	-61
ʌ̹	-62
▁ˈh	-63
▁ˈm	-64
▁ˈk	-65
▁ˈs	-66
ik	-67
d͡	-68
ɔɹ	-69
ər	-70
ɪŋ	-71
▁ˈb	-72
əm	-73
am	-74
˦˥	-75
iə	-76
os	-77
ɤ̆	-78
aŋ	-79
▁ˌ	-80
ŋ͡	-81
ŋ͡m	-82
oː	-83
ˈe	-84
ju	-85
▁ˈp	-86
▁ˈd	-87
˦˨	-88
▁ɛ	-89
əɫ	-90
▁t͡	-91
im	-92
is	-93
▁ˈtu	-94
˨˦	-95
ɑ̃	-96
˩˧	-97
o̞	-98
▁z	-99
ət	-100
eɾ	-101
es	-102
▁la	-103
ts	-104
▁th	-105
ɪn	-106
▁ˈə	-107
ar	-108
▁ˈɡ	-109
ok	-110
un	-111
ɔ̃	-112
▁ˈɛ	-113
aj	-114
om	-115
ɐ̯	-116
ˈan	-117
▁ˈn	-118
▁ˈeɪ	-119
oɯ	-120
ɑː	-121
aʊ	-122
▁w	-123
▁ˈɫ	-124
ah	-125
ɪˈ	-126
▁ɲ	-127
▁r	-128
oɾ	-129
ˈar	-130
ˈaŋ	-131
d͡ʒ	-132
äː	-133
▁c	-134
jɛ	-135
si	-136
ɕi	-137
ta	-138
kt	-139
▁ɡ	-140
▁o	-141
▁ˈəf	-142
ɯə	-143
te	-144
▁ˈv	-145
ˈo	-146
ad	-147
id	-148
ŋ˧˧	-149
ɐ̃	-150
kan	-151
aː	-152
sj	-153
ɛl	-154
ɛt	-155
▁ˈɪn	-156
ti	-157
ɪk	-158
▁d͡	-159
▁ʂ	-160
aw	-161
ɔr	-162
▁x	-163
▁ʈ	-164
ʃən	-165
əs	-166
ɹi	-167
▁di	-168
▁ˈju	-169
ɪs	-170
ka	-171
tu	-172
e̞	-173
ɲa	-174
əl	-175
to	-176
ɛn	-177
d͡ʑ	-178
ɪt	-179
ˈal	-180
ɪd	-181
ɡa	-182
ˈeː	-183
iz	-184
us	-185
ɛʁ	-186
k˦˥	-187
ɔn	-188
er	-189
mp	-190
▁d͡ʒ	-191
▁ku	-192
t͡ʃ	-193
▁əˈ	-194
n̪	-195
▁ʔ	-196
ɛ̝	-197
uk	-198
ɪç	-199
uː	-200
▁ˈaɪ	-201
oŋ͡m	-202
▁ɔ	-203
ɛɾ	-204
▁kɔ	-205
il	-206
ɕh	-207
▁ˈwɪ	-208
ɛs	-209
▁də	-210
▁ˈɪs	-211
▁sə	-212
ɾa	-213
▁ke	-214
æt	-215
ɯn	-216
˧ˀ	-217
˧ˀ˥	-218
ɑn	-219
ˈam	-220
▁ˈʔa	-221
▁ˈʃ	-222
ks	-223
da	-224
▁ʁ	-225
a˧˧	-226
▁kə	-227
▁ŋ	-228
▁tˈi	-229
ha̠	-230
ni	-231
▁ˈɹ	-232
ɛnt	-233
de	-234
ənt	-235
ut	-236
sa	-237
ol	-238
ent	-239
͡p	-240
oj	-241
ɫi	-242
ɔv	-243
ji	-244
▁t͡ʃ	-245
la	-246
▁g	-247
æn	-248
əŋ	-249
ɑɹ	-250
▁un	-251
▁se	-252
ɾe	-253
ja	-254
jʌ̹	-255
ˈɛr	-256
▁ˈʔʊ	-257
ɛk	-258
iəŋ	-259
▁da	-260
ɛst	-261
wa	-262
▁dˈi	-263
um	-264
▁dɨ	-265
ɛm	-266
ɾi	-267
t̪	-268
l̪	-269
w̃	-270
ɐ̃w̃	-271
d̪	-272
▁pr	-273
ɛː	-274
ˈaː	-275
▁t͡ɕ	-276
▁ˈj	-277
ap	-278
jo	-279
j̃	-280
að	-281
▁ˈɪt	-282
▁pɔ	-283
a̠n	-284
▁ˈst	-285
sjon	-286
▁pɾ	-287
▁al	-288
▁pu	-289
sh	-290
dʒ	-291
eɪt	-292
▁bər	-293
ma	-294
ˈat	-295
▁u	-296
͡ɪ	-297
ˌe	-298
ɛɫ	-299
ai	-300
əb	-301
ɤj	-302
▁in	-303
ki	-304
ˈt	-305
ɕit	-306
ak˦˥	-307
di	-308
▁ʒ	-309
▁le	-310
ɪst	-311
le	-312
▁ʐ	-313
ɔŋ͡m	-314
ot	-315
ɛr	-316
sp	-317
▁na	-318
▁su	-319
▁diː	-320
▁paɾ	-321
iv	-322
▁ˈaʊ	-323
▁mən	-324
t͡ɕ	-325
▁vu	-326
▁ˈu	-327
▁dˈe	-328
ɾɐ	-329
▁ˈɔ	-330
ʃt	-331
na	-332
se	-333
▁ˈɡi	-334
ip	-335
eːn	-336
joɯ	-337
ku	-338
ɑt	-339
͡ʊ	-340
ăj	-341
ɪz	-342
▁ˈɑn	-343
ɯk	-344
ɔl	-345
▁en	-346
eɪv	-347
▁tər	-348
ini	-349
▁ˈɛɹ	-350
ɝz	-351
▁ˈbi	-352
ɛɹ	-353
▁el	-354
ˈap	-355
ɤ̆ŋ	-356
▁pa	-357
ŋɡ	-358
et	-359
aɪ̯	-360
at͡	-361
ˈah	-362
▁kw	-363
ɹɑ	-364
▁du	-365
▁kon	-366
▁ɹ	-367
▁dɔ	-368
no	-369
▁dˌ	-370
▁ja	-371
▁məm	-372
or	-373
▁ˈθ	-374
ʊŋ	-375
ŋan	-376
ɛj	-377
əˌ	-378
ɛnd	-379
▁kom	-380
ɯŋ	-381
eɴ	-382
du	-383
əst	-384
ɔz	-385
ẽj̃	-386
▁dɛʁ	-387
ɡi	-388
▁dˈɛ	-389
ɯm	-390
▁st	-391
▁ɑ̃	-392
el	-393
▁sh	-394
ək	-395
i˧˧	-396
ata	-397
▁sˈa	-398
ˈet	-399
op	-400
ˈɪ	-401
ra	-402
ˈoː	-403
▁ʃ	-404
em	-405
▁kõ	-406
ið	-407
ɛd	-408
▁ju	-409
▁s̪	-410
akɯ	-411
▁il	-412
ˈak	-413
of	-414
iəw	-415
▁dɪˈ	-416
ɛ̃	-417
ga	-418
ok͡p	-419
▁məŋ	-420
ɯɭ	-421
ɪɹ	-422
▁si	-423
ʂɨ	-424
ˈp	-425
it͡	-426
ʊd	-427
aɾɯ	-428
ɲɛ	-429
ba	-430
aɪt	-431
ɾ̪	-432
ɪɫ	-433
▁ˈdʒ	-434
▁tu	-435
and	-436
suː	-437
▁ko	-438
sk	-439
ˈm	-440
▁ɕ	-441
▁ˌɪn	-442
ˈari	-443
ft	-444
vɝ	-445
ʌ̹n	-446
▁lə	-447
▁kɛ	-448
ŋk	-449
aŋ˧˧	-450
ɔt	-451
▁ˈz	-452
▁mu	-453
ˈasi	-454
▁ˈwi	-455
iɾ	-456
▁ki	-457
bi	-458
ˈiː	-459
k̚	-460
jɔ̃	-461
▁ˈɔɹ	-462
▁ka	-463
ɪm	-464
ɯəŋ	-465
▁bəˈ	-466
ɛkt	-467
nt͡	-468
yː	-469
▁pər	-470
in˧˧	-471
ɪv	-472
ɔɾ	-473
sɯ	-474
ato	-475
ɔk	-476
ul	-477
ənd	-478
asɯ	-479
▁gəˈ	-480
ɤ̆j	-481
ɔ˧˧	-482
▁ɦ	-483
ɯɾ	-484
▁kuə	-485
ntuk	-486
▁ˈæz	-487
a̠ŋ	-488
▁bˈa	-489
ɔʁ	-490
▁ɪn	-491
ɐs	-492
dən	-493
▁ma	-494
oto	-495
ˈs	-496
▁an	-497
je	-498
ɛp	-499
ɤ̆w	-500
▁pʁ	-501
ˈk	-502
t͡ʂ	-503
ɰβ	-504
▁ˈtʃ	-505
bl	-506
▁t̪	-507
▁sp	-508
ˈara	-509
we	-510
▁me	-511
▁ɣ	-512
ɛɡ	-513
ˌt	-514
ɔm	-515
up	-516
nd͡	-517
k˨ˀ˩	-518
▁n̪	-519
▁ɹɪˈ	-520
▁nu	-521
▁ap	-522
ha	-523
▁ˈan	-524
ud	-525
iŋ	-526
tʃ	-527
▁ˈɔɫ	-528
▁pl	-529
▁ˈɛs	-530
ek	-531
sta	-532
▁ˈen	-533
▁sɛ	-534
▁pɹ	-535
ɰi	-536
t͡s	-537
ito	-538
eɪk	-539
ˈv	-540
▁the	-541
iːt	-542
▁ˈtɹ	-543
▁mˈa	-544
dʑ	-545
ika	-546
in˦˨	-547
▁baŋ	-548
əp	-549
▁ˈl	-550
ɦa̠	-551
▁ˈak	-552
yʁ	-553
mən	-554
œ̃	-555
▁as	-556
ɪnt	-557
ˈɛl	-558
▁ũ	-559
▁kən	-560
ðɝ	-561
▁ˈg	-562
▁ʋ	-563
▁pˈa	-564
▁ˈæn	-565
▁ˈpɹ	-566
ur	-567
dak	-568
ˈur	-569
nə	-570
▁los	-571
▁dɛl	-572
itu	-573
▁una	-574
ɪ̯	-575
əɾ	-576
▁ad	-577
tsɯ	-578
aːs	-579
▁ɛl	-580
eɪn	-581
▁ˈwɝ	-582
ăŋ˧˧	-583
▁ˈpɫ	-584
wa̠	-585
▁bɪˈ	-586
lɪç	-587
ez	-588
ib	-589
▁kɔ̃	-590
ax	-591
▁ˈæt	-592
ke	-593
▁ˈhw	-594
ˈɔr	-595
ɑɫ	-596
ɪdʒ	-597
æk	-598
ɛːɐ̯	-599
ʌɪ̯	-600
mi	-601
ʌ̹ŋ	-602
en˧˧	-603
ˈia	-604
▁ɹi	-605
▁kəm	-606
ia	-607
▁ˈoʊ	-608
▁bˈi	-609
aɪd	-610
ha̠ɭ	-611
ɯəj	-612
p˨ˀ˩	-613
▁vɨ	-614
▁nɔ	-615
eːs	-616
ɫd	-617
▁lˈa	-618
▁y	-619
▁per	-620
ɪçt	-621
▁mɔ	-622
▁av	-623
▁puʁ	-624
ˈul	-625
ə̃	-626
tɨ	-627
▁kl	-628
ima	-629
っte	-630
bˈa	-631
▁te	-632
əd	-633
▁dɯə	-634
▁ˈhæ	-635
ɹɑm	-636
▁ɲɛ	-637
ɡo̞	-638
▁to	-639
ono	-640
ite	-641
ˈuː	-642
ø̞	-643
ɕhi	-644
ada	-645
▁œ̃	-646
▁ˈɡɹ	-647
p˦˥	-648
ant	-649
nɨ	-650
▁jɤj	-651
uʃ	-652
▁tɯ	-653
ana	-654
œʁ	-655
əns	-656
ente	-657
▁ˈa	-658
ăŋ	-659
ɡə	-660
▁ˈɪf	-661
uv	-662
k͈	-663
▁no	-664
ita	-665
ɑp	-666
ɐʃ	-667
mɑ̃	-668
aʊt	-669
tə	-670
ri	-671
aɪm	-672
ˈf	-673
eɪd	-674
pl	-675
oɴ	-676
ʃənz	-677
▁re	-678
tən	-679
mb	-680
w˧˧	-681
▁ɪˈ	-682
əti	-683
▁es	-684
▁tˈɛ	-685
nən	-686
ʊk	-687
ɤ̆m	-688
iək	-689
çi	-690
ˈaːr	-691
͡ɪn	-692
ɛv	-693
uŋ	-694
əɫi	-695
▁ɕɛ	-696
▁ɾ	-697
▁ɛst	-698
ɪʃ	-699
ɔp	-700
▁zɛt	-701
▁ɐ	-702
ˈama	-703
me	-704
mənt	-705
▁bi	-706
jon	-707
ɪp	-708
▁ˈal	-709
▁ĩ	-710
okɯ	-711
ɥi	-712
ˈas	-713
▁ˈdu	-714
▁poɾ	-715
▁del	-716
oz	-717
ɑɹt	-718
▁at	-719
▁paʁ	-720
ɝd	-721
oʊz	-722
eɪs	-723
aka	-724
ɡa̠	-725
▁d̪	-726
▁aw	-727
ˈaɲa	-728
uɾ	-729
▁ˈkɫ	-730
ăj˧˧	-731
ˈɛs	-732
ph	-733
▁əˈb	-734
əɡ	-735
ina	-736
▁sa	-737
ɪɡ	-738
əiːt	-739
ˈz	-740
ida̠	-741
▁ɲɤ̆	-742
o̞ŋ	-743
▁las	-744
▁ph	-745
əbəɫ	-746
uk͡p	-747
aɪk	-748
▁est	-749
iːl	-750
▁a̠	-751
ɑz	-752
ist	-753
▁ˈhi	-754
ˌw	-755
od	-756
ɔø	-757
ˈian	-758
▁ˈsp	-759
aɪn	-760
uŋ͡m	-761
▁ɪst	-762
▁ziː	-763
th	-764
uf	-765
s̪	-766
ɯɯ	-767
bˈu	-768
ɛɡɔ	-769
▁ʂɯ	-770
tʁ	-771
▁mə	-772
shʌ̹	-773
re	-774
are	-775
ʊɹ	-776
▁yn	-777
ene	-778
esɯ	-779
▁mi	-780
ʂɛ	-781
tɾ	-782
▁mər	-783
▁peɾ	-784
də	-785
̃ː	-786
ä̃ː	-787
mu	-788
▁ɪk	-789
▁ɲɯŋ	-790
ˈil	-791
aɪz	-792
▁je	-793
az	-794
ẽː	-795
jʌ̹n	-796
ɔs	-797
▁ɛ̃	-798
ɕite	-799
▁ti	-800
ɤ˧˩˨	-801
ˈita	-802
▁hw	-803
ăj˧˨	-804
ˈadi	-805
a̠m	-806
▁mˌ	-807
▁tr	-808
ɔɹt	-809
t͡ɕh	-810
▁ɲɯ	-811
▁sˈu	-812
▁tɐ	-813
ɛ˧˩˨	-814
ɦa̠n	-815
ɪtʃ	-816
▁d͡ʑ	-817
aɾe	-818
ɾɯɭ	-819
ɔɫ	-820
▁ˈɹi	-821
ajs	-822
▁it	-823
ɛɹi	-824
aːɡə	-825
eɪz	-826
ɔɕ	-827
▁sˈɛ	-828
ˈaan	-829
▁os	-830
▁ˈəp	-831
▁iʃ	-832
ɾt	-833
iˈ	-834
kw	-835
ɛːɐ	-836
▁viː	-837
▁səˈ	-838
ɐm	-839
ɪg	-840
mo	-841
äːɾ	-842
▁kˌ	-843
▁dy	-844
if	-845
aw˧˧	-846
d͡ʑi	-847
ɑ̃s	-848
fɝ	-849
ij	-850
oːn	-851
▁tw	-852
▁mɛ	-853
ɔb	-854
▁mˈu	-855
nd͡ʑ	-856
aŋ˧˨	-857
▁int	-858
▁taj	-859
▁ʁe	-860
oʊst	-861
eɪm	-862
ænd	-863
bən	-864
iβ	-865
jʌ̹ŋ	-866
▁ẽj̃	-867
an˦˨	-868
ɝˌ	-869
d͡z	-870
aɪnd	-871
▁dis	-872
ˈts	-873
mpan	-874
sən	-875
eɪɫ	-876
▁dən	-877
ko	-878
ɔd	-879
ɑnt	-880
▁ˈɾ	-881
ˈn	-882
▁məl	-883
▁tʁ	-884
▁lo	-885
va	-886
ɔk͡p	-887
▁mɪt	-888
it͡ʃ	-889
ano	-890
nɯn	-891
ˈə	-892
ɦɛ̝	-893
pa	-894
sɨ	-895
ʌɾ̪	-896
▁kˈa	-897
att͡	-898
▁ˈti	-899
ˌk	-900
aŋ˦˨	-901
yːɐ̯	-902
▁ẽ	-903
əh	-904
▁kar	-905
▁ˈbɹ	-906
▁sˈi	-907
▁bl	-908
a˧˨	-909
sja	-910
əv	-911
ɪʃən	-912
waj	-913
iɾɯ	-914
t͈	-915
▁keː	-916
▁dɑ̃	-917
▁tɔ	-918
oj˧˧	-919
ˌd	-920
ɕoɯ	-921
a̠ɭ	-922
ðo	-923
ɔŋ	-924
▁lˈɛ	-925
ɪnd	-926
ˈd	-927
ow	-928
iðað	-929
ɛll	-930
▁tˈe	-931
ˈit	-932
iəs	-933
▁pəm	-934
ɕita	-935
▁ˈsɝ	-936
t̚	-937
▁bˈu	-938
ɛb	-939
ˈom	-940
av	-941
æm	-942
ɛɾn	-943
p̚	-944
in˩˧	-945
jɐ	-946
ɝn	-947
d͡ʒa	-948
ov	-949
ækt	-950
kɯ	-951
▁səl	-952
æɫ	-953
ətʃ	-954
▁bˌ	-955
▁sɔ̃	-956
ʊɾ	-957
bɯ	-958
ɔraŋ	-959
▁ʒə	-960
▁pas	-961
ˈua	-962
▁kɯ	-963
▁syʁ	-964
▁t͡s	-965
hat	-966
ind	-967
n̪eː	-968
▁ˈmi	-969
▁ˈop	-970
▁ˈnu	-971
▁səm	-972
nɛ	-973
▁ak	-974
▁ˈkw	-975
aɾa	-976
▁l̪	-977
ento	-978
▁ˈæɫ	-979
ntu	-980
▁seɾ	-981
ir	-982
o˧˧	-983
▁ci	-984
ɔnt͡	-985
sha̠	-986
iːm	-987
ed	-988
ăk˦˥	-989
ej	-990
omo	-991
m˧˧	-992
ˈol	-993
ɔst	-994
▁pəŋ	-995
ff	-996
aɾi	-997
ɾo	-998
ɡɹ	-999
ama	-1000
ɨm	-1001
n̪d̪	-1002
ɸɯ	-1003
ˈami	-1004
i͡	-1005
ˌf	-1006
ˌs	-1007
ˈuɡa	-1008
▁lam	-1009
bu	-1010
əˈn	-1011
ˈɑː	-1012
ɛz	-1013
▁ɛs	-1014
t͡ɕ͈	-1015
ˈik	-1016
ɡu	-1017
ps	-1018
at͡ɕ	-1019
ːʌ	-1020
ẽtu	-1021
but	-1022
ɪkəɫ	-1023
ˈum	-1024
ɾu	-1025
ale	-1026
oki	-1027
▁kam	-1028
dah	-1029
ei	-1030
ɪŋk	-1031
so	-1032
ɐj	-1033
ˈi͡	-1034
jɛ̃	-1035
▁eːs	-1036
çito	-1037
ɤ̆k	-1038
han	-1039
ab	-1040
▁ˈkɹ	-1041
iːɾ	-1042
ˈst	-1043
t͡ɕi	-1044
ðu	-1045
ɡa͡ɪ	-1046
っt	-1047
▁pʂ	-1048
̯x	-1049
ˈɾ	-1050
▁ˈhu	-1051
▁li	-1052
eʁ	-1053
ˈl	-1054
iko	-1055
æst	-1056
ɔva	-1057
▁ˈfɹ	-1058
▁ˈsi	-1059
soʊ	-1060
itʃ	-1061
▁sək	-1062
ˈɛn	-1063
▁das	-1064
kai	-1065
ˈsp	-1066
▁zɪç	-1067
ˈana	-1068
ɔj	-1069
pən	-1070
ɔɡ	-1071
ʐɨ	-1072
▁man	-1073
da̠	-1074
ɛŋ	-1075
aɴ	-1076
ʒi	-1077
əˈɫ	-1078
oʊɫ	-1079
▁mas	-1080
koto	-1081
ʌɭ	-1082
▁laj	-1083
eːk	-1084
pɾ	-1085
▁ˈpɝ	-1086
▁hɤ	-1087
aɪ̯n	-1088
ˈin	-1089
▁pɾo	-1090
aj˧˧	-1091
aʁ	-1092
lu	-1093
▁pˈu	-1094
▁sw	-1095
aðo	-1096
ando	-1097
n̪ɐ	-1098
▁pən	-1099
zi	-1100
ˈer	-1101
ʐɛ	-1102
▁vˌ	-1103
ɐɾ	-1104
▁ũɐ	-1105
▁sɨ	-1106
aɪɫ	-1107
maɾɯ	-1108
all	-1109
ˈɛna	-1110
▁thu	-1111
ɪl	-1112
əz	-1113
ˈika	-1114
oɾi	-1115
tɕi	-1116
ʌm	-1117
ɤj˧˨	-1118
wiəŋ	-1119
ɨx	-1120
▁ji	-1121
eːm	-1122
ɛf	-1123
ɛç	-1124
▁ˈsk	-1125
ɛʃ	-1126
▁puɾ	-1127
aŋ˩˧	-1128
ɝˈ	-1129
▁bo	-1130
am˧˧	-1131
▁kʌ̹	-1132
ˈati	-1133
▁ka̠	-1134
oːd	-1135
▁fu	-1136
▁am	-1137
i˧˨	-1138
oʊt	-1139
ɨʃ	-1140
gəˈ	-1141
▁kiː	-1142
ˈpɫ	-1143
aɡ	-1144
ˈasa	-1145
ˈon	-1146
▁ˈts	-1147
ăw˧˧	-1148
▁den	-1149
ere	-1150
jə	-1151
▁məɲ	-1152
▁ɪç	-1153
▁ply	-1154
˧˥	-1155
bil	-1156
sjɔ̃	-1157
əɫz	-1158
jen	-1159
ɑːn	-1160
▁po	-1161
ɛ˧˧	-1162
▁tɾ	-1163
əˈm	-1164
▁jak	-1165
oko	-1166
ˈel	-1167
▁ar	-1168
ˈoːɾ	-1169
ˈb	-1170
ɯɾo̞	-1171
ɪkt	-1172
ɯk˦˥	-1173
▁jaw	-1174
ˈuk	-1175
nd͡ʒ	-1176
ɑk	-1177
▁sk	-1178
ˌz	-1179
tur	-1180
▁ˈɔf	-1181
ɛks	-1182
ɡən	-1183
▁hɪs	-1184
zah	-1185
ɑ̃d	-1186
▁ˈʃt	-1187
ʊnd	-1188
▁lu	-1189
ndʒ	-1190
▁səp	-1191
ɡe̞	-1192
ˈis	-1193
waʁ	-1194
aʊn	-1195
bɐ	-1196
ðe	-1197
oʊn	-1198
▁mo	-1199
θɪŋ	-1200
aːn	-1201
ete	-1202
▁əˈp	-1203
͡ɪk	-1204
at˦˥	-1205
▁kh	-1206
ˈada	-1207
oːk	-1208
su	-1209
sɯɾɯ	-1210
▁vjɛ	-1211
itɕi	-1212
ˌɫ	-1213
▁ʌ̹	-1214
oːɐ̯	-1215
geɴ	-1216
▁ɡr	-1217
ˈa͡ɪ	-1218
ˈapa	-1219
jit͡	-1220
gən	-1221
ɑm	-1222
▁sˌ	-1223
desɯ	-1224
ˈiŋ	-1225
ˌb	-1226
ɪŋz	-1227
aɪv	-1228
keː	-1229
▁ˈɛv	-1230
mɐ	-1231
ɑ̃t	-1232
eç	-1233
ino	-1234
ɕiɴ	-1235
kji	-1236
▁ˈbɫ	-1237
əɦ	-1238
ʃu	-1239
ʎʎ	-1240
ipəɫ	-1241
▁ow	-1242
ːɯ	-1243
ɛnt͡	-1244
do	-1245
ə̃n̪	-1246
iɡ	-1247
▁ˈdɹ	-1248
jos	-1249
ˈali	-1250
ɕik	-1251
▁ɸ	-1252
bih	-1253
ɔf	-1254
əˈt	-1255
oʊɪŋ	-1256
▁haː	-1257
▁do	-1258
o̞n	-1259
ənz	-1260
▁ʔɨ	-1261
ɲi	-1262
▁ɔt	-1263
eːɐ̯	-1264
▁im	-1265
▁bɦ	-1266
nəs	-1267
ˈuan	-1268
akt	-1269
ɛns	-1270
▁ɦɛː	-1271
ante	-1272
ate	-1273
yːb	-1274
jun	-1275
▁kəp	-1276
▁äː	-1277
▁pʂɨ	-1278
do̞	-1279
▁mẽː	-1280
▁shu	-1281
ɐ̃du	-1282
nik	-1283
ɛmp	-1284
▁baw	-1285
▁ˈɔn	-1286
til	-1287
▁ɛn	-1288
õː	-1289
▁hɝ	-1290
▁ən	-1291
ɰβa	-1292
omi	-1293
▁nɔn	-1294
▁nə	-1295
ˈir	-1296
eɾa	-1297
str	-1298
iɫ	-1299
jal	-1300
▁ˈfɝ	-1301
ˌm	-1302
▁ma̠	-1303
nt͡ʃ	-1304
əf	-1305
ˈɛm	-1306
ˈapi	-1307
ɔɹm	-1308
▁ˈol	-1309
ˈɫ	-1310
▁kɔm	-1311
ɪti	-1312
kə	-1313
▁nɯə	-1314
ɔɹd	-1315
ne	-1316
lt	-1317
an˧˧	-1318
t͡ʃi	-1319
ɤj˨˦	-1320
▁doj	-1321
▁ta	-1322
kɔ	-1323
ɛɲ	-1324
▁ha̠	-1325
▁so	-1326
▁ɑː	-1327
pt	-1328
ˈɛka	-1329
ih	-1330
▁tut	-1331
▁ʐɛ	-1332
est	-1333
▁ˈʃi	-1334
▁ek	-1335
aɾim	-1336
▁faj	-1337
ɪf	-1338
ˈant	-1339
▁noj	-1340
als	-1341
ann	-1342
zən	-1343
▁ç	-1344
ɾiː	-1345
ðað	-1346
go	-1347
▁ˈvɪ	-1348
▁pɾe	-1349
lˈi	-1350
▁ˈθɹ	-1351
art	-1352
ˈus	-1353
õj̃	-1354
itsɯ	-1355
d̪ɦ	-1356
æs	-1357
ˈaja	-1358
ʊm	-1359
ɲak	-1360
at͡ʃ	-1361
ˈiːt	-1362
ˈala	-1363
ɤ˧˧	-1364
əj	-1365
▁za	-1366
▁cu	-1367
ət̪	-1368
ˈut	-1369
be	-1370
▁t͡ʂ	-1371
ˈand	-1372
ʌd̪	-1373
uh	-1374
▁nɛ	-1375
ɔrm	-1376
oʊm	-1377
atsɯ	-1378
▁ʎ	-1379
ʌ̹ɭ	-1380
iɾe	-1381
aɪs	-1382
za	-1383
▁it̚	-1384
▁wa	-1385
▁mat	-1386
▁wi	-1387
▁koː	-1388
mpat	-1389
▁ɔ̃	-1390
nta	-1391
t̪h	-1392
iɴ	-1393
lo	-1394
▁kr	-1395
ɹˈaː	-1396
bɯɴ	-1397
olo	-1398
bəɫ	-1399
pe	-1400
aʊnd	-1401
uɡ	-1402
ɑɹk	-1403
▁tiə	-1404
▁tak	-1405
▁ˌɪm	-1406
nok	-1407
ʁi	-1408
bat	-1409
▁t͈	-1410
iəm	-1411
vi	-1412
sˈɛ	-1413
▁ʁɨ	-1414
▁pə	-1415
▁kˈu	-1416
ərˈi	-1417
ˈok	-1418
ɔnt	-1419
ɯtsɯ	-1420
ʁɛ	-1421
ˈeɪt	-1422
ʌ̹m	-1423
fəɫ	-1424
▁imp	-1425
▁tˈu	-1426
ˈsi	-1427
ɑɾ	-1428
ali	-1429
ɾas	-1430
▁hˌ	-1431
pi	-1432
kh	-1433
ʌl̪	-1434
ɨl̪	-1435
ˌθɪŋ	-1436
wi	-1437
dɨ	-1438
ɑs	-1439
ʁe	-1440
▁mă	-1441
ˈen	-1442
n̩	-1443
▁tɛ̝	-1444
øː	-1445
▁kj	-1446
bo̞	-1447
▁sət	-1448
ˈot	-1449
▁ab	-1450
▁aj	-1451
ɨj	-1452
ˈos	-1453
▁kal	-1454
ve	-1455
▁kəl	-1456
ɾes	-1457
man	-1458
dʑi	-1459
ʊŋən	-1460
ndo	-1461
bɝ	-1462
▁tɾa	-1463
ro	-1464
ˈʃ	-1465
ˈiɲa	-1466
▁ˌk	-1467
▁ˈəs	-1468
hoɯ	-1469
▁kət	-1470
dɐ	-1471
▁ˈiv	-1472
lik	-1473
aɪɝ	-1474
▁dan	-1475
▁kan	-1476
sji	-1477
ˈoɡ	-1478
wɔ	-1479
ose	-1480
dʑoɯ	-1481
oɾa	-1482
ða	-1483
ɾo̞	-1484
oʊk	-1485
ish	-1486
ɪks	-1487
nɨx	-1488
alt	-1489
▁esp	-1490
ˈata	-1491
▁pɛʁ	-1492
æd	-1493
aw˧˨	-1494
vɛɾ	-1495
▁pˌ	-1496
▁po̞	-1497
ɛts	-1498
aɾt	-1499
ɐn	-1500
▁be	-1501
pu	-1502
ʌn	-1503
aða	-1504
ɔɹs	-1505
▁ʂaŋ	-1506
kj	-1507
akˈu	-1508
ɛɫp	-1509
po	-1510
əmz	-1511
əˈv	-1512
▁ˈi	-1513
ɕim	-1514
son	-1515
▁bɨ	-1516
▁din	-1517
xt	-1518
lɛ	-1519
uʁ	-1520
ɛkst	-1521
▁ˈkæ	-1522
aki	-1523
wan	-1524
ɑɹd	-1525
ɛlt	-1526
▁ˈpɾ	-1527
▁sɛt	-1528
dai	-1529
▁kol	-1530
▁ho	-1531
▁ta̠	-1532
▁ˈbɑ	-1533
t͡ɕɛ	-1534
▁sal	-1535
ˈh	-1536
▁res	-1537
adʑ	-1538
▁ˈfɫ	-1539
▁vi	-1540
ge	-1541
mɨ	-1542
ˈeːl	-1543
▁ɔp	-1544
keɪ	-1545
▁ɕh	-1546
n̪äː	-1547
adu	-1548
ʌʋ	-1549
ati	-1550
bj	-1551
▁mo̞	-1552
▁nɛl	-1553
▁kəɾ	-1554
ːɾ	-1555
▁ɔr	-1556
tam	-1557
ɔtʁ	-1558
ɪɫd	-1559
▁jɯə	-1560
əl̪	-1561
stɹ	-1562
otɕi	-1563
▁aɾ	-1564
ˌʃ	-1565
ɡw	-1566
▁tˌ	-1567
▁ˈap	-1568
ˈeːr	-1569
jin	-1570
tɐ	-1571
▁təl	-1572
mas	-1573
lji	-1574
li	-1575
s͈	-1576
aɪf	-1577
fik	-1578
iðo	-1579
t̪ː	-1580
ẽtɨ	-1581
it˦˥	-1582
▁ˈeː	-1583
ɨn	-1584
▁ne	-1585
▁ʈi	-1586
uːɾ	-1587
əw	-1588
ɾa̠	-1589
▁pwe	-1590
ilˈi	-1591
ɛni	-1592
æns	-1593
ăŋ˩˧	-1594
dʒi	-1595
ăŋ˧˨	-1596
▁nat	-1597
▁dez	-1598
ʃəɫ	-1599
ja̠	-1600
yl	-1601
ɑd	-1602
ales	-1603
ɪɹi	-1604
ĭoːn	-1605
▁kˈo	-1606
▁str	-1607
▁əˈɫ	-1608
▁nwe	-1609
▁ˈom	-1610
▁ˈkɑ	-1611
kən	-1612
ɪ̃	-1613
amo	-1614
▁cɤ̆	-1615
▁bɔ	-1616
j˨˦	-1617
ɐ̃j̃	-1618
▁ŋiə	-1619
t͡ʂɨ	-1620
ɯmn	-1621
▁mũ	-1622
ɪs̪	-1623
heː	-1624
joŋ	-1625
▁wˈa	-1626
▁baj	-1627
ɔɪ	-1628
ənts	-1629
ɕɯɯ	-1630
nˌt	-1631
ast	-1632
▁op	-1633
▁foɾ	-1634
▁səb	-1635
fj	-1636
▁iʃt	-1637
▁kap	-1638
ˈoor	-1639
▁ˈæs	-1640
▁on	-1641
nis	-1642
amp	-1643
kaɾ	-1644
ˈalu	-1645
ˈa͡ʊ	-1646
pɝ	-1647
ɲu	-1648
▁ˈɛn	-1649
tse	-1650
oʊɫd	-1651
ɝi	-1652
▁ˈɛɫ	-1653
▁daj	-1654
ena	-1655
oɾe	-1656
d͡ʑɛ	-1657
▁ˈjɛ	-1658
bə	-1659
ˈɛt	-1660
▁fin	-1661
ʁa	-1662
▁əˈk	-1663
ˈisi	-1664
iːɐ̯	-1665
▁akt	-1666
aj˨˦	-1667
ɾɑː	-1668
tiv	-1669
βa	-1670
je̞	-1671
▁əˈm	-1672
pr	-1673
ftɝ	-1674
▁ˈof	-1675
▁kəs	-1676
ˈaru	-1677
̪ɐ	-1678
ɫoʊ	-1679
▁pɔt	-1680
▁pa̠	-1681
sei	-1682
eːɾɐ	-1683
sɛ	-1684
▁pe	-1685
min	-1686
mono	-1687
aʊnt	-1688
u˧˧	-1689
aːl	-1690
fɔ	-1691
ˈmeɪ	-1692
▁nas	-1693
koɯ	-1694
ns	-1695
əɫɝ	-1696
▁fo	-1697
ɛ̝ŋ	-1698
▁zoː	-1699
jɛj	-1700
▁par	-1701
ɨv	-1702
ˈad	-1703
▁kɤ̆	-1704
▁ɕhi	-1705
ˌɛr	-1706
▁sit	-1707
ɝˈa	-1708
eɪdʒ	-1709
ɑl	-1710
ikɐ	-1711
▁jaj	-1712
▁pɝ	-1713
ˈkɫ	-1714
ɛɫf	-1715
gjoɯ	-1716
ˌp	-1717
oːɡ	-1718
əŋ˩˧	-1719
ˈʔ	-1720
▁bu	-1721
ev	-1722
▁fi	-1723
▁mak	-1724
▁aβ	-1725
br	-1726
ɪts	-1727
nde	-1728
▁us	-1729
▁ko̞	-1730
a͡ɪ	-1731
jɛr	-1732
ɐt̪	-1733
juz	-1734
hak	-1735
its	-1736
lə	-1737
ɑːm	-1738
▁ˈgɾ	-1739
▁toð	-1740
▁biə	-1741
wiə	-1742
iki	-1743
▁duʃ	-1744
▁hoj	-1745
kl	-1746
iːf	-1747
k̚k͈	-1748
jɛʁ	-1749
▁ent	-1750
itt͡	-1751
▁ʊ	-1752
əkt	-1753
ˈw	-1754
▁ɪɡ	-1755
adʒi	-1756
stə	-1757
▁ˌɹ	-1758
imo	-1759
oʊd	-1760
ɣo	-1761
ɕa	-1762
▁ele	-1763
ɑːɾ̪	-1764
▁käː	-1765
▁tɤ̆	-1766
▁br	-1767
ɤj˧˧	-1768
▁gʁ	-1769
unˈa	-1770
jas	-1771
ɕima	-1772
▁sus	-1773
jäː	-1774
ɑːɾ	-1775
▁ben	-1776
ˈiri	-1777
ˈɾa	-1778
▁ˈæd	-1779
sɐ	-1780
▁vɛn	-1781
teɾ	-1782
ɔnd	-1783
▁ʐɤ̆	-1784
ɪɹz	-1785
▁ˈɛm	-1786
ʃi	-1787
ˈod	-1788
oh	-1789
ɐ̯ə	-1790
onəs	-1791
eses	-1792
aːbɐ	-1793
əˌɫ	-1794
mato	-1795
▁ˈkœ	-1796
▁cɯə	-1797
iːjə	-1798
gə	-1799
ˈeɪ	-1800
▁jʌ̹	-1801
▁pø	-1802
fɔrm	-1803
▁ʔa	-1804
▁son	-1805
▁tɛ	-1806
▁hwa	-1807
βwa̠	-1808
ɲit͡	-1809
ɡr	-1810
o˩˧	-1811
ants	-1812
ɕo	-1813
ɐɾɐ	-1814
▁af	-1815
ˈɛnt	-1816
▁um	-1817
ɔvjɛ	-1818
oɾes	-1819
ɯŋ˨˦	-1820
ðɨ	-1821
βe	-1822
▁ɸw	-1823
ɪmm	-1824
▁sew	-1825
▁id	-1826
əˈd	-1827
ɾɐ̃	-1828
ks͈	-1829
▁ˈsm	-1830
▁et	-1831
tai	-1832
iku	-1833
ɪgən	-1834
ekt	-1835
nɔɕ	-1836
ɑb	-1837
õj̃ʃ	-1838
ˈun	-1839
▁dɛ	-1840
▁ˈik	-1841
▁ˈθæ	-1842
əndɝ	-1843
ʈː	-1844
ɛsp	-1845
ŋ˩˧	-1846
aliz	-1847
▁əˈɡ	-1848
at͡s	-1849
▁lw	-1850
ɔx	-1851
▁pəɲ	-1852
▁jɛ	-1853
uɭ	-1854
gakɯ	-1855
▁ɛʁ	-1856
ʒən	-1857
iːn	-1858
ˌɛl	-1859
ons	-1860
ətɪv	-1861
fis	-1862
pat	-1863
kɐ	-1864
▁ind	-1865
▁mɔ̃	-1866
rav	-1867
amji	-1868
ɛ̃ː	-1869
jis	-1870
▁bən	-1871
doɯ	-1872
ɨɾ̪	-1873
mə	-1874
pɔɹt	-1875
ont	-1876
ɔɾt	-1877
atɕi	-1878
▁ʝ	-1879
saɴ	-1880
▁ɔb	-1881
fɔɹ	-1882
enən	-1883
ʃe	-1884
▁xw	-1885
ust	-1886
kɔz	-1887
ʌ̹ɡ	-1888
ɪɾ	-1889
ʊt	-1890
▁səs	-1891
▁sin	-1892
ɛvɝ	-1893
taɾ	-1894
▁sɑ̃	-1895
▁tɯŋ	-1896
tha̠	-1897
▁a̠n	-1898
ˈɛk	-1899
shɯ	-1900
▁tɹ	-1901
uz	-1902
iːd	-1903
ˈui	-1904
▁nax	-1905
▁sɔ	-1906
ˈəl	-1907
▁sup	-1908
▁dˌi	-1909
▁maj	-1910
ˌɛ	-1911
ɔno	-1912
zə	-1913
▁pəl	-1914
ɯɾi	-1915
ɕ͈	-1916
tus	-1917
əvɝ	-1918
n̪iː	-1919
▁fɛʁ	-1920
ɹe	-1921
das	-1922
▁eks	-1923
ese	-1924
uj	-1925
ăj˨˦	-1926
vɛɫ	-1927
▁maɾ	-1928
▁ˈʃp	-1929
ɪns	-1930
▁əˈt	-1931
ˈpɹ	-1932
nɨm	-1933
ətiz	-1934
▁nɔx	-1935
▁ˈʊm	-1936
af	-1937
ɡwa̠	-1938
sas	-1939
ton	-1940
▁pos	-1941
▁fɛ	-1942
ˈab	-1943
jent	-1944
ɡɔ	-1945
▁lˈi	-1946
nda̠	-1947
▁fʁ	-1948
pun	-1949
▁kaɾ	-1950
▁dal	-1951
mun	-1952
ze	-1953
▁thɯ	-1954
äːl̪	-1955
▁fam	-1956
▁pəɾ	-1957
▁fˌ	-1958
ɪtəɫ	-1959
ʃɝ	-1960
gad	-1961
▁jɯ	-1962
pər	-1963
ɛɾt	-1964
▁ɐ̃	-1965
▁bar	-1966
▁jɤ̆	-1967
▁he	-1968
▁tˌe	-1969
▁aʁ	-1970
▁kas	-1971
t̪äː	-1972
▁ɔːɾ	-1973
ɛðɝ	-1974
▁wˈɪ	-1975
əˈz	-1976
əmp	-1977
aˈ	-1978
ăm˧˧	-1979
ɛdʒ	-1980
▁bˌe	-1981
stən	-1982
ʌ̹p̚	-1983
▁əˈd	-1984
▁ˈæm	-1985
ʒe	-1986
lah	-1987
▁nɔv	-1988
ɹɑb	-1989
▁jɛd	-1990
keɴ	-1991
ˈamu	-1992
amos	-1993
▁tim	-1994
ct	-1995
▁pɔd	-1996
eɪst	-1997
▁dă	-1998
ʌɖ	-1999
ˌv	-2000
ɳɖ	-2001
ʊs	-2002
æp	-2003
▁bˈɪ	-2004
əˈb	-2005
▁fas	-2006
zd	-2007
▁dɛj	-2008
kha̠	-2009
hana	-2010
aseɴ	-2011
▁tɨ	-2012
ɲik	-2013
aks	-2014
d͡ʒi	-2015
ɪmp	-2016
ʃtɐ	-2017
wat	-2018
int	-2019
p͈	-2020
ɭɭ	-2021
əˌn	-2022
t͈a̠	-2023
ĩː	-2024
st͡	-2025
▁ɔd	-2026
▁aɪˈ	-2027
▁ba	-2028
ɤŋ˧˧	-2029
▁lˈu	-2030
ɨɾ	-2031
ine	-2032
pɐ	-2033
ɑːl̪	-2034
ɲo	-2035
ativ	-2036
ikas	-2037
▁sẽ	-2038
nak	-2039
eɾɯ	-2040
kəm	-2041
jaw	-2042
gak	-2043
feɾ	-2044
▁taw	-2045
ɾan	-2046
ɯno	-2047
▁pɔl	-2048
uɫ	-2049
ˌh	-2050
utʃ	-2051
▁bəb	-2052
ˈə͡ʊ	-2053
ˈɛri	-2054
inɯn	-2055
▁pju	-2056
aːɐ̯	-2057
▁hɛ̝	-2058
ɛm˧˧	-2059
▁sos	-2060
jan	-2061
dˈe	-2062
ɲɐ	-2063
ɔɹi	-2064
ɨs	-2065
ktu	-2066
ɾae	-2067
o̞k̚	-2068
jʃ	-2069
zɐ	-2070
vɛnt	-2071
▁vid	-2072
▁naj	-2073
aŋk	-2074
ɣu	-2075
ʊx	-2076
ˈɹ	-2077
▁ot	-2078
▁ɛks	-2079
ɛtɝ	-2080
uk̚	-2081
▁lɔ	-2082
ɪl̪	-2083
▁kɹi	-2084
t̪eː	-2085
▁zv	-2086
tʃi	-2087
ɝˈeɪ	-2088
oʊp	-2089
nɔ	-2090
▁ʈɯə	-2091
ami	-2092
▁ɝˈa	-2093
əts	-2094
▁bə	-2095
ˈaːt	-2096
▁prɔ	-2097
▁pʁɔ	-2098
eːb	-2099
ens	-2100
▁bəl	-2101
▁sol	-2102
ɔɪnt	-2103
t͡sa	-2104
nos	-2105
wʌ̹n	-2106
alis	-2107
kaɴ	-2108
oʊnt	-2109
ˈg	-2110
t͡ʂɛ	-2111
ntɹ	-2112
atu	-2113
▁bw	-2114
▁ˈfɾ	-2115
▁ʁez	-2116
▁sul	-2117
βle	-2118
▁ˈiz	-2119
ɡar	-2120
▁mal	-2121
daŋ	-2122
▁ˈo	-2123
ˈatu	-2124
▁dr	-2125
▁thw	-2126
▁na̠	-2127
stɾ	-2128
ɑˈts	-2129
ɔvan	-2130
ɛpt	-2131
nɛj	-2132
▁ˌin	-2133
▁des	-2134
la͡ɪ	-2135
ntaŋ	-2136
ɪt̪	-2137
▁kɔl	-2138
ɑɫə	-2139
ʊn	-2140
ub	-2141
eno	-2142
˨˩	-2143
ərs	-2144
▁o̞	-2145
▁dla	-2146
▁oɾ	-2147
▁lɛs	-2148
▁ˌd	-2149
vɪs	-2150
ænt	-2151
ɨk	-2152
ə̃m	-2153
▁ok	-2154
▁sy	-2155
▁dˌe	-2156
tik	-2157
ɹən	-2158
▁ˈat	-2159
ik̚	-2160
ˌɡɹ	-2161
ˈɾi	-2162
▁iʃp	-2163
nin	-2164
ap˦˥	-2165
ane	-2166
ʌ̹b	-2167
▁foj	-2168
ɔvɛ	-2169
ˈɛrn	-2170
oːm	-2171
βo	-2172
▁liə	-2173
amb	-2174
mɯ	-2175
eːl̪	-2176
▁min	-2177
▁ni	-2178
▁ˈas	-2179
▁teɾ	-2180
nˌz	-2181
ɨt͡ʂ	-2182
ɰβaz	-2183
eɪts	-2184
▁sɔb	-2185
jeɾ	-2186
ɛɾs	-2187
ɛŋ˧˧	-2188
zu	-2189
aʒ	-2190
əˈs	-2191
nim	-2192
▁ɡˌ	-2193
xe	-2194
▁dw	-2195
anˌd	-2196
ado	-2197
ɑːd̪	-2198
▁rˌ	-2199
▁pes	-2200
əˌf	-2201
pɹ	-2202
▁tø̞	-2203
ʌɪ̯j	-2204
ə˧˧	-2205
▁rɔ	-2206
kʌɭ	-2207
ɯke	-2208
ˈoːk	-2209
t͡ʃa	-2210
▁əˈw	-2211
ɪgə	-2212
iða	-2213
ɡan	-2214
▁ɖ	-2215
fɛ	-2216
ˈɑ	-2217
ɑɹdʒ	-2218
nɛɡɔ	-2219
˨˩˦	-2220
▁sɛʁ	-2221
▁fl	-2222
っta	-2223
▁pw	-2224
ɹˈə	-2225
oka	-2226
eneɾ	-2227
ˌn	-2228
ɾjoɯ	-2229
ɐ̯ən	-2230
fa	-2231
kˌ	-2232
eːən	-2233
▁ant	-2234
jɯɯ	-2235
ăm	-2236
fɛkt	-2237
æf	-2238
▁ˌs	-2239
βeɾ	-2240
▁səh	-2241
ɦa̠m	-2242
iːən	-2243
▁ˈɑɹ	-2244
ˈaːl	-2245
▁ew	-2246
əni	-2247
ans	-2248
▁ɛtʁ	-2249
▁t̪h	-2250
ɔ˧˩˨	-2251
iɭ	-2252
▁iɾ	-2253
t˦˥	-2254
▁ʦ	-2255
ike	-2256
enɐ̯	-2257
ɯni	-2258
▁ə	-2259
hoɴ	-2260
ɪpt	-2261
ore	-2262
wal	-2263
it̚	-2264
ɛw	-2265
et˦˥	-2266
▁alɛ	-2267
i̯	-2268
iɯ	-2269
ɯmi	-2270
▁thi	-2271
▁tɛk	-2272
ˌwən	-2273
▁fa	-2274
ˈtɹ	-2275
▁kɛl	-2276
▁ɡɹ	-2277
gɯ	-2278
▁em	-2279
bar	-2280
ɕokɯ	-2281
isip	-2282
▁hɔ	-2283
ˌʃt	-2284
enəm	-2285
kjoɯ	-2286
▁kaw	-2287
u˨˦	-2288
▁pel	-2289
pan	-2290
saɾe	-2291
▁hˈe	-2292
ste	-2293
fi	-2294
alɛ	-2295
adʑi	-2296
eki	-2297
kr	-2298
iːɾt	-2299
▁lɤ	-2300
suːm	-2301
eːʀ	-2302
toɯ	-2303
eːd	-2304
▁duː	-2305
▁men	-2306
▁alt	-2307
▁pj	-2308
▁tan	-2309
ɑns	-2310
d͡ʒu	-2311
ˈuh	-2312
▁ˈbæ	-2313
▁bˈ	-2314
▁viz	-2315
ome	-2316
ɑːɾɐ	-2317
ẽsj	-2318
ɾai	-2319
▁jit	-2320
ɪˈn	-2321
▁ˈæk	-2322
upˈa	-2323
▁ase	-2324
ˈeːɐ	-2325
ers	-2326
▁kɯɾ	-2327
gat	-2328
▁fɔʁ	-2329
joɾ	-2330
▁mɛm	-2331
əˌt	-2332
▁kaʁ	-2333
aðos	-2334
noɯ	-2335
▁ˈdi	-2336
əmɑ̃	-2337
▁măk	-2338
ter	-2339
ob	-2340
jaɾ	-2341
ˌg	-2342
jiz	-2343
▁ˈɑp	-2344
▁pˌe	-2345
▁vo	-2346
ʊɫ	-2347
▁suɐ	-2348
▁ˈva	-2349
▁mar	-2350
▁sɔl	-2351
əbɫ	-2352
ja̠ŋ	-2353
ˈmɪt	-2354
▁ts	-2355
▁zap	-2356
k͈e̞	-2357
kup	-2358
▁ˈia	-2359
▁om	-2360
iə˧˧	-2361
▁ima	-2362
uw	-2363
▁kat	-2364
ːen	-2365
▁div	-2366
▁əˈs	-2367
ad͡ʒ	-2368
sai	-2369
eɪvɝ	-2370
▁əb	-2371
▁ɦoː	-2372
ɹəɫ	-2373
▁ʔen	-2374
jʌ̹ɭ	-2375
▁ˌap	-2376
aɪ̯t	-2377
▁aˈ	-2378
▁ʔan	-2379
oɕi	-2380
æʃən	-2381
▁lœʁ	-2382
▁va	-2383
▁nˌ	-2384
əs̪	-2385
▁kɔn	-2386
əsɪz	-2387
one	-2388
jɔn	-2389
▁tɐ̃	-2390
ith	-2391
ˈstɹ	-2392
tʃɝ	-2393
ˈdeɪ	-2394
zo	-2395
ʊnt	-2396
ɛnte	-2397
oj˧˨	-2398
oːp	-2399
▁ˈvi	-2400
eɪks	-2401
gi	-2402
ɰβat	-2403
jəɫɝ	-2404
▁nos	-2405
▁dim	-2406
ˈuːn	-2407
βɾe	-2408
ide	-2409
ʊkɪŋ	-2410
bɦ	-2411
emos	-2412
vjɛ	-2413
aɪɪŋ	-2414
▁hˈi	-2415
▁sta	-2416
eɾo	-2417
▁nɔ̃	-2418
▁rˈɛ	-2419
mat	-2420
gas	-2421
ɛnti	-2422
▁i˨˦	-2423
uð	-2424
▁fɔ	-2425
jakɯ	-2426
ˈɪn	-2427
æb	-2428
▁ut	-2429
▁mˈo	-2430
ɛsto	-2431
▁ˌm	-2432
t͡sɛ	-2433
foɾ	-2434
▁to̞	-2435
oni	-2436
eb	-2437
ˌst	-2438
əɫt	-2439
aɪts	-2440
has	-2441
▁kõt	-2442
▁ŋe	-2443
ha̠ŋ	-2444
unt	-2445
oɡ	-2446
æks	-2447
tɛʁ	-2448
nɛt	-2449
sip	-2450
ˈamp	-2451
ɾɯn	-2452
des	-2453
ˈaːn	-2454
▁lit	-2455
ɫz	-2456
ɛɫθ	-2457
toɕi	-2458
▁tɑ̃	-2459
dø̞	-2460
awa	-2461
iks	-2462
bˈaŋ	-2463
▁pʂɛ	-2464
ˈuɲa	-2465
sə	-2466
ɹˈeː	-2467
ɛŋk	-2468
▁fr	-2469
ɑnd	-2470
ɕhin	-2471
▁beɾ	-2472
▁ˈɝ	-2473
ɲɛj	-2474
▁sam	-2475
eːɡ	-2476
ætʃ	-2477
▁pi	-2478
ɦø̞	-2479
oːv	-2480
▁waŋ	-2481
▁ɥi	-2482
▁ˈkl	-2483
əw˧˧	-2484
▁tʁɛ	-2485
▁lˌ	-2486
▁rek	-2487
ɭʎ	-2488
▁bˈɛ	-2489
aʊs	-2490
ˈkeɪ	-2491
▁əˈv	-2492
ðeɾ	-2493
ɪfɝ	-2494
▁tip	-2495
ɣaɾ	-2496
▁rɔz	-2497
▁diə	-2498
at͡ʂ	-2499
aɪzd	-2500
ɯɴ	-2501
jit	-2502
l̪ɐ	-2503
adɐ	-2504
itaɾ	-2505
ɪeː	-2506
pː	-2507
aft	-2508
over	-2509
aɪmz	-2510
▁ˈiŋ	-2511
▁ɲiə	-2512
▁zn	-2513
ɔw	-2514
ɛmb	-2515
nda	-2516
jut	-2517
ˈuŋ	-2518
▁mjɛ	-2519
ɪkɫi	-2520
▁dɪs	-2521
▁kɐɾ	-2522
▁miz	-2523
j̃tu	-2524
▁tẽ	-2525
▁ɛŋ	-2526
▁ʔe	-2527
ande	-2528
▁lok	-2529
▁val	-2530
▁pro	-2531
▁kɐ	-2532
▁ist	-2533
▁kul	-2534
ɛdi	-2535
ɝm	-2536
idu	-2537
jemp	-2538
sto	-2539
▁eːk	-2540
ɕt͡ɕ	-2541
aːr	-2542
skji	-2543
ˈɔrt	-2544
kjɛ	-2545
▁wˌ	-2546
▁mɔʐ	-2547
ˈud	-2548
ʎʎi	-2549
▁əd	-2550
nth	-2551
ˈini	-2552
ɡʌ̹	-2553
ake	-2554
▁pˈɛ	-2555
və	-2556
sti	-2557
əˈɡ	-2558
▁tɨm	-2559
j˧˩˨	-2560
ˌeɪt	-2561
kata	-2562
▁nɛ̝	-2563
ŋɡi	-2564
ɔrt	-2565
▁dɛp	-2566
▁mwi	-2567
▁ver	-2568
▁ɡw	-2569
▁ɛd	-2570
▁daw	-2571
▁pˈo	-2572
əˌk	-2573
gan	-2574
ɡɯɭ	-2575
▁ɪs̪	-2576
▁tˈo	-2577
äːt̪	-2578
laeç	-2579
ɝtʃ	-2580
▁kɾ	-2581
▁pol	-2582
jʊɹ	-2583
βl	-2584
▁ve	-2585
eːʃ	-2586
not	-2587
əŋk	-2588
ʏɾ	-2589
d͡ʑu	-2590
əŋ˧˧	-2591
i˧˩˨	-2592
fɔɾ	-2593
▁ɛm	-2594
ojoɯ	-2595
tif	-2596
zɪŋ	-2597
lam	-2598
▁ɪks	-2599
▁jam	-2600
a˧˩˨	-2601
ːt	-2602
ime	-2603
bah	-2604
iəsə	-2605
lən	-2606
▁oβ	-2607
nts	-2608
▁að	-2609
ush	-2610
▁səd	-2611
sˈi	-2612
ajɔ̃	-2613
▁lɯə	-2614
ʌ̹k̚	-2615
▁faz	-2616
▁dir	-2617
nɔ̃	-2618
ˈawa	-2619
nu	-2620
▁ʝa	-2621
den	-2622
▁ɔf	-2623
ɔvɨ	-2624
ˈaɡ	-2625
aɾˈb	-2626
tok	-2627
▁xɔ	-2628
tan	-2629
bʁ	-2630
ˌʔ	-2631
ɛtɪŋ	-2632
sjɔn	-2633
ɔvɨx	-2634
ˈkɹ	-2635
ɯ˧ˀ˥	-2636
klɪç	-2637
ɔɹn	-2638
ʃə	-2639
vo	-2640
▁dʒ	-2641
ɪc	-2642
ɾaɾ	-2643
▁mˈɛ	-2644
ɲjʌ̹	-2645
ɑnˌt	-2646
sɛs	-2647
ʋäː	-2648
gun	-2649
▁ty	-2650
▁pˈi	-2651
ŋks	-2652
▁nəɡ	-2653
sɔn	-2654
▁fil	-2655
▁bˈo	-2656
jø	-2657
ɯɰβa	-2658
imi	-2659
▁jiə	-2660
had	-2661
▁fʂɨ	-2662
▁aɫ	-2663
uːt	-2664
▁kˈɛ	-2665
ɨz	-2666
▁hwă	-2667
aɾju	-2668
jɯ	-2669
yɾ	-2670
ˈɪt	-2671
ʊŋs	-2672
ˈeːn	-2673
ʃʃ	-2674
jɛnt	-2675
oːt	-2676
iət	-2677
ujɛ	-2678
ɤ˧˨	-2679
ifik	-2680
æmp	-2681
pːʌ	-2682
▁ʼ	-2683
ɾaeç	-2684
wi˧˧	-2685
gɾ	-2686
▁bɤ̆	-2687
ʊɾx	-2688
ɛːt	-2689
▁emp	-2690
͡ɪr	-2691
ham	-2692
rɔ	-2693
ʌk	-2694
ɛlɐ	-2695
dek	-2696
▁inf	-2697
ɝˈt	-2698
▁kʁ	-2699
ɛndə	-2700
▁pat	-2701
▁aʒ	-2702
ʌd̪ɯ	-2703
äːj	-2704
▁ʔɯ	-2705
▁bɛ	-2706
əbɫi	-2707
soɯ	-2708
fɔʁ	-2709
ˌɾ	-2710
▁eˈ	-2711
ˈual	-2712
haɴ	-2713
▁ˈis	-2714
ɹoʊ	-2715
ˌl	-2716
▁ˌp	-2717
ɔna	-2718
eɪɫz	-2719
inz	-2720
ɛtʁ	-2721
ram	-2722
▁kɾe	-2723
nit	-2724
ɑːk	-2725
ɨɡ	-2726
vən	-2727
▁jɤ	-2728
iːk	-2729
▁sɛ̃	-2730
jat	-2731
vd	-2732
jil	-2733
daɴ	-2734
▁ɡˌe	-2735
▁mex	-2736
▁otɾ	-2737
ɹɑbɫ	-2738
ɯw˧˧	-2739
zɯ	-2740
oŋ	-2741
ize	-2742
fən	-2743
dɛ̝	-2744
ʌɡ	-2745
alm	-2746
ɪ̃n̪	-2747
ɦa̠ɭ	-2748
▁ˈsw	-2749
imas	-2750
iʃ	-2751
dap	-2752
ɨr	-2753
ˈdʒ	-2754
ẽs	-2755
nas	-2756
imp	-2757
vis	-2758
▁mˈi	-2759
ʊts	-2760
▁liv	-2761
▁dun	-2762
ẽtʃi	-2763
w˨˦	-2764
ha̠n	-2765
▁no̞	-2766
dem	-2767
▁ˌɑp	-2768
ˈjun	-2769
▁fɯə	-2770
ɹˈe	-2771
▁pɐ	-2772
stsh	-2773
oor	-2774
fl	-2775
▁k͈	-2776
ˈaŋk	-2777
ˈti	-2778
toɾ	-2779
tuʃ	-2780
eɪb	-2781
θaʊt	-2782
l̪eː	-2783
▁ez	-2784
▁eː	-2785
gai	-2786
əʃ	-2787
▁kɛ̝	-2788
kap	-2789
idz	-2790
wɝd	-2791
an˩˧	-2792
ʌ̹ɾ	-2793
d̪ɯ	-2794
βil	-2795
poz	-2796
ɕɛ	-2797
jim	-2798
ats	-2799
▁mil	-2800
▁ʒa	-2801
ætə	-2802
ekɯ	-2803
ɯkɯ	-2804
suːɾ	-2805
ðos	-2806
▁uz	-2807
ikɯ	-2808
▁æk	-2809
ɡi͡	-2810
oj˨˦	-2811
eɪtɝ	-2812
bɨ	-2813
ba̠	-2814
▁pjɛ	-2815
▁kuʁ	-2816
▁ŋu	-2817
ːa	-2818
ishɯ	-2819
ɛft	-2820
▁ʎe	-2821
ɔ̃k	-2822
eːl	-2823
ɛndz	-2824
ɦäː	-2825
ɲt͡ɕ	-2826
▁ev	-2827
ɫɪŋ	-2828
▁maʁ	-2829
▁ˈkɝ	-2830
ʊks	-2831
was	-2832
ˌts	-2833
ɔtɝ	-2834
iːlə	-2835
▁kim	-2836
▁mun	-2837
ʎa	-2838
▁mɐ	-2839
tɕik	-2840
▁mji	-2841
▁baɡ	-2842
▁jˈa	-2843
▁def	-2844
sjo	-2845
ɔnɛ	-2846
ˈaŋs	-2847
ʒuʁ	-2848
▁með	-2849
▁tɛr	-2850
▁ʔʌ	-2851
▁sɯ	-2852
tos	-2853
▁ˈɫɑ	-2854
▁dat	-2855
▁uno	-2856
▁çi	-2857
ˈont	-2858
ɪɹiə	-2859
pʁ	-2860
dz	-2861
ʎu	-2862
ʊɹɪŋ	-2863
▁ˈtɾ	-2864
vz	-2865
vu	-2866
ɕhim	-2867
hai	-2868
▁aɡ	-2869
▁dit	-2870
▁ʃt	-2871
w˧˨	-2872
▁ẽtɾ	-2873
ʈɐ	-2874
▁ɔs	-2875
ˈaha	-2876
ˈi͡e	-2877
ade	-2878
▁kəb	-2879
▁wɪˈ	-2880
isɯ	-2881
▁zo	-2882
kɪŋ	-2883
ten	-2884
i͡un	-2885
ˈɾia	-2886
pon	-2887
bẽj̃	-2888
wɛ̃	-2889
▁jaŋ	-2890
▁kər	-2891
▁mɨ	-2892
o̞ɡ	-2893
ori	-2894
ˌu	-2895
oːs	-2896
aʊɝ	-2897
ä̃ːm	-2898
▁kɾi	-2899
enta	-2900
iti	-2901
ˈaɡa	-2902
əˈp	-2903
ɑ̃dʁ	-2904
çar	-2905
ɔft	-2906
ɕika	-2907
▁fal	-2908
isk	-2909
▁vɔl	-2910
ĭoː	-2911
ʌ̹t̚	-2912
stɾa	-2913
ɛçt	-2914
ŋɡʌɭ	-2915
rɨ	-2916
kit	-2917
ɪʃə	-2918
tim	-2919
ɛkts	-2920
mpl	-2921
ari	-2922
tər	-2923
ɡen	-2924
ˈani	-2925
▁pal	-2926
ps͈	-2927
ɯɭɭ	-2928
ˈee	-2929
eːr	-2930
wɨ	-2931
nom	-2932
▁sil	-2933
▁esk	-2934
ˈuːr	-2935
j˧˧	-2936
▁bal	-2937
ˈiːr	-2938
pɯ	-2939
tɨʃ	-2940
taɴ	-2941
βax	-2942
ˈju	-2943
imn	-2944
ɑːt	-2945
ɑr	-2946
▁haj	-2947
ẽd	-2948
ðoɾ	-2949
ɛt˦˥	-2950
▁zd	-2951
▁ol	-2952
oɾt	-2953
nde̞	-2954
hˌ	-2955
▁art	-2956
▁ˌop	-2957
ndən	-2958
ɲɲ	-2959
diə	-2960
jene	-2961
▁ɾe	-2962
▁s̪ɐ	-2963
skjɛ	-2964
nɪs	-2965
▁mˌa	-2966
ːn	-2967
▁lan	-2968
ʌt̪ː	-2969
nt͡s	-2970
▁dɔn	-2971
▁otʁ	-2972
toki	-2973
amm	-2974
t͡ʃh	-2975
ˈiə	-2976
▁hoʊ	-2977
a̠k̚	-2978
pˌe	-2979
çiɴ	-2980
ˈɛra	-2981
ˈahu	-2982
▁ˈha	-2983
ʊkt	-2984
▁dem	-2985
lɪçə	-2986
oːɾ	-2987
▁pɔz	-2988
ɡl	-2989
pɫ	-2990
ɪft	-2991
ɛ̝k̚	-2992
ˈiap	-2993
kɔm	-2994
kuɫ	-2995
ɛbˌs	-2996
thɯ	-2997
▁iɭ	-2998
ase	-2999
ɹen	-3000
sid	-3001
ha̠ɾ	-3002
▁ˈɡɫ	-3003
▁kɔr	-3004
ɾos	-3005
▁ru	-3006
alid	-3007
ɯɾɯɭ	-3008
oːl	-3009
pəni	-3010
toi	-3011
▁meʒ	-3012
▁and	-3013
ess	-3014
ŋkin	-3015
ˈudi	-3016
onal	-3017
▁lɛ	-3018
paɾ	-3019
kõ	-3020
ˈsɛs	-3021
amɨ	-3022
▁əˈf	-3023
ˈmb	-3024
she̞	-3025
▁ʁɑ̃	-3026
teɴ	-3027
ˈʃʊɹ	-3028
xo	-3029
ˈð	-3030
▁ʔɪn	-3031
ɐn̪ɐ	-3032
ʒẽj̃	-3033
▁met	-3034
▁mɔj	-3035
dis	-3036
sjal	-3037
▁fat	-3038
tuː	-3039
ˈpɛɹ	-3040
ias	-3041
non	-3042
tap	-3043
ɔnɨ	-3044
eɪɪŋ	-3045
ɦɛ̝ŋ	-3046
▁mɪç	-3047
jɛn	-3048
ru	-3049
ɛmbɝ	-3050
▁sm	-3051
▁jɯŋ	-3052
ɯɡ	-3053
ɔʁt	-3054
alle	-3055
▁osi	-3056
ktʃu	-3057
▁ɡɔ	-3058
ort	-3059
▁eŋk	-3060
▁bəɡ	-3061
aɪɫd	-3062
aːk	-3063
ɛsso	-3064
ˈæ	-3065
ˈtɪn	-3066
ˈitu	-3067
ətɫi	-3068
vji	-3069
▁ɔʁ	-3070
nəðɝ	-3071
▁xwe	-3072
▁sɨɣ	-3073
▁swa	-3074
ʂɨm	-3075
▁tət	-3076
dik	-3077
saɾ	-3078
wʌ̹	-3079
ver	-3080
nama	-3081
ʎo	-3082
▁koɾ	-3083
pɾe	-3084
ˈaku	-3085
▁ˈam	-3086
dək	-3087
yt	-3088
sho̞	-3089
dɝ	-3090
▁äːp	-3091
enˌf	-3092
s̪eː	-3093
▁dam	-3094
▁gɾ	-3095
▁ɡɾ	-3096
ɣa	-3097
▁nˈi	-3098
ɾɐʃ	-3099
do̞ŋ	-3100
ɾiβ	-3101
ani	-3102
▁sĩ	-3103
▁pɔv	-3104
ɾɐs	-3105
jɛl	-3106
ˈteɪ	-3107
▁mom	-3108
▁wɛb	-3109
ɳɐ	-3110
õj̃s	-3111
▁ˈɑ	-3112
▁ˌɪˈ	-3113
k͡p	-3114
ʏn	-3115
▁amb	-3116
ɪzɪt	-3117
äːd̪	-3118
ɾɯm	-3119
ond	-3120
▁dˈa	-3121
ɛɦ	-3122
▁nuʃ	-3123
idʑ	-3124
ũː	-3125
ˈɪk	-3126
ets	-3127
▁səɡ	-3128
atˈa	-3129
okoɯ	-3130
idɪŋ	-3131
jɝ	-3132
ɪfɪk	-3133
▁sɛr	-3134
aʊz	-3135
ɯtɕi	-3136
shu	-3137
▁fw	-3138
aːbə	-3139
ərl	-3140
▁tra	-3141
fjɛ	-3142
▁əp	-3143
▁kɯə	-3144
heɴ	-3145
ʈh	-3146
a̠nɡ	-3147
zaɪn	-3148
ɪps	-3149
ɛsu	-3150
ɛvi	-3151
kakɯ	-3152
ədʒ	-3153
stal	-3154
ɕha̠	-3155
▁ʒuʁ	-3156
▁wˈe	-3157
▁ɾəɦ	-3158
ida	-3159
▁ɡo	-3160
aɪ̯l	-3161
vɛ	-3162
ɕin	-3163
sakɯ	-3164
zai	-3165
ulaɾ	-3166
▁mwa	-3167
fɾ	-3168
imz	-3169
node	-3170
ɲos	-3171
ʏk	-3172
▁baz	-3173
ɹɑdʒ	-3174
ˈek	-3175
▁ce	-3176
ma̠	-3177
rat	-3178
ɫu	-3179
▁zɛ	-3180
val	-3181
ɐmɐ	-3182
etsɯ	-3183
kaz	-3184
▁sər	-3185
ənθ	-3186
ˈoto	-3187
d͡zɔ	-3188
ile	-3189
bjɛ	-3190
ɔɪd	-3191
in˧˨	-3192
t̪ɐ	-3193
ðɝz	-3194
▁kəd	-3195
jak	-3196
gaɾ	-3197
vɐ	-3198
dan	-3199
▁pɹi	-3200
ˈulu	-3201
phum	-3202
▁mɑː	-3203
ɪsts	-3204
▁vwa	-3205
ɔra	-3206
ox	-3207
▁ˈar	-3208
ple	-3209
▁χ	-3210
ˌwɛɹ	-3211
stəm	-3212
wah	-3213
ĩdɐ	-3214
▁ˈɔø	-3215
▁ɔɫ	-3216
ibu	-3217
vɝs	-3218
▁kɐ̃	-3219
ðuʃ	-3220
▁up	-3221
ɛtto	-3222
tas	-3223
ʂa	-3224
sl	-3225
mẽ	-3226
nina	-3227
kɾ	-3228
ʒɐ	-3229
oɴna	-3230
▁əˈn	-3231
em˧˧	-3232
ˈɛkt	-3233
▁tɛʁ	-3234
vɨ	-3235
▁ˈkɔ	-3236
bːen	-3237
βes	-3238
▁sfɔ	-3239
turɛ	-3240
▁sar	-3241
ɪnz	-3242
klu	-3243
bɔ	-3244
tˈe	-3245
uŋk	-3246
▁baɾ	-3247
t̪iː	-3248
mae	-3249
kɔ̃	-3250
▁dep	-3251
▁pɾu	-3252
naka	-3253
əɦĩː	-3254
▁dɤ̆	-3255
▁hˈu	-3256
eɪp	-3257
seɴ	-3258
ˈial	-3259
blik	-3260
▁ŋi	-3261
enti	-3262
▁ˈum	-3263
anti	-3264
k͈a̠	-3265
▁lɯk	-3266
▁tʃ	-3267
ɪd͡ʒ	-3268
ɪvɪŋ	-3269
ɛθ	-3270
▁ɡˈɛ	-3271
ip̚	-3272
sje	-3273
tɕoɯ	-3274
ɾə	-3275
stɛm	-3276
eg	-3277
aŋɡ	-3278
ˈɡ	-3279
▁kɑ̃	-3280
u˧˨	-3281
kul	-3282
▁ɛk	-3283
äːɦ	-3284
▁sej	-3285
ɛllo	-3286
ˈmal	-3287
▁pot	-3288
▁viv	-3289
▁mɯ	-3290
ɹaː	-3291
nto	-3292
aɪɝd	-3293
eɾi	-3294
tura	-3295
jik	-3296
▁dʁ	-3297
əmbɝ	-3298
ɾjʌ̹	-3299
blɛm	-3300
▁ˌt	-3301
udɪŋ	-3302
ɡi͡e	-3303
▁tit	-3304
▁ˌɛs	-3305
eɪf	-3306
ijäː	-3307
ɔff	-3308
ɛsta	-3309
mos	-3310
t͡sɨ	-3311
mini	-3312
k͈o̞	-3313
ˈiːk	-3314
▁sen	-3315
emən	-3316
ame	-3317
aっte	-3318
̪äː	-3319
ˌe˧˧	-3320
tst	-3321
ɝəɫ	-3322
▁lat	-3323
jone	-3324
ædʒ	-3325
▁mis	-3326
▁ʃe	-3327
oɾis	-3328
ɾik	-3329
▁sˈo	-3330
ərn	-3331
t͡ʃe	-3332
▁aʝ	-3333
▁je̞	-3334
▁daː	-3335
▁iz	-3336
▁diz	-3337
▁eki	-3338
aɲ	-3339
▁ˈe	-3340
▁lav	-3341
ka͡ɪ	-3342
ɔll	-3343
fo	-3344
əd͡ʒ	-3345
▁bes	-3346
zeɴ	-3347
▁ɛg	-3348
ɫəs	-3349
ˈsɪd	-3350
ˈʃt	-3351
d͡ʒo	-3352
▁bɾa	-3353
ɛŋ˧˨	-3354
ɡa̠n	-3355
vɛʁ	-3356
l̪iː	-3357
▁gə	-3358
▁lup	-3359
ʃtɨ	-3360
▁ˈsɫ	-3361
▁ten	-3362
kot	-3363
▁ɪm	-3364
erv	-3365
bˈeː	-3366
kɯn	-3367
ht	-3368
ˈiːn	-3369
▁haŋ	-3370
mjɛ	-3371
▁pap	-3372
ɑːj	-3373
▁jo	-3374
ænz	-3375
ejs	-3376
zoɯ	-3377
▁ʁap	-3378
aðu	-3379
ŋɡu	-3380
ətɪŋ	-3381
▁rik	-3382
ˈakt	-3383
▁dif	-3384
uˈar	-3385
ʌɳ	-3386
▁ˈɹæ	-3387
kɛ	-3388
anɛ	-3389
▁lib	-3390
▁aks	-3391
▁ete	-3392
▁pɔp	-3393
▁ˈuː	-3394
▁fsp	-3395
ɪkən	-3396
ədi	-3397
ˈɛɡ	-3398
æɫju	-3399
▁ɡˈo	-3400
ɫɛkt	-3401
oi	-3402
era	-3403
eni	-3404
▁mɛd	-3405
əˌm	-3406
inu	-3407
sere	-3408
ðes	-3409
aɪb	-3410
ʃp	-3411
▁sl	-3412
ʂt͡ʂ	-3413
▁ob	-3414
▁ʒy	-3415
▁ĩf	-3416
ðɐ	-3417
▁tɨl	-3418
mal	-3419
▁dos	-3420
▁isu	-3421
▁vj	-3422
▁moː	-3423
tiɾ	-3424
▁lin	-3425
▁ˈoː	-3426
jam	-3427
▁ˌon	-3428
ɕ͈i	-3429
▁ɕi	-3430
ˈaːɡ	-3431
ɔvɛj	-3432
▁tin	-3433
ntr	-3434
pet	-3435
gaɴ	-3436
ẽdu	-3437
▁kuj	-3438
stʁ	-3439
▁ˈun	-3440
▁sɥ	-3441
ual	-3442
ɛɾz	-3443
▁ɡˈa	-3444
ɪdi	-3445
bun	-3446
▁e̞	-3447
̃n̪	-3448
▁siɣ	-3449
ɝt	-3450
jir	-3451
▁ˈad	-3452
▁bɪt	-3453
▁poː	-3454
ˌi	-3455
▁fɔr	-3456
itɪŋ	-3457
æv	-3458
eːg	-3459
ɹɑpɝ	-3460
ˈwin	-3461
æɡ	-3462
▁fɾ	-3463
▁ˈaj	-3464
▁ˌɛn	-3465
ɫiv	-3466
βis	-3467
▁ʒɛ	-3468
eːɾ	-3469
asz	-3470
d͡zɛ	-3471
ɯŋ˧˨	-3472
▁ˈin	-3473
iːs	-3474
▁pul	-3475
▁nˈa	-3476
eɪmz	-3477
ˈɛli	-3478
▁bɐ	-3479
▁tɛl	-3480
▁sɥi	-3481
dɯ	-3482
ɑːs	-3483
oɾo	-3484
ˌo	-3485
▁bɔ̃	-3486
▁var	-3487
ɝɪŋ	-3488
ʒɛ	-3489
əpəɫ	-3490
▁zak	-3491
fə	-3492
ɪˈz	-3493
dup	-3494
ˌkɹ	-3495
▁bat	-3496
ˈank	-3497
siz	-3498
orm	-3499
tɾu	-3500
gata	-3501
t̪ːɯ	-3502
ɹiz	-3503
dəkt	-3504
ɔɪs	-3505
▁ɔn	-3506
ɡoʊ	-3507
əks	-3508
land	-3509
itad	-3510
ッkɯ	-3511
ʁən	-3512
iɾo	-3513
œl	-3514
▁sɝ	-3515
dat	-3516
əmɝ	-3517
mˈa	-3518
ard	-3519
▁dø	-3520
sist	-3521
ˌɛt	-3522
sjas	-3523
jus	-3524
βo̞	-3525
imj	-3526
▁stu	-3527
nəf	-3528
▁hɯ	-3529
˧˧s	-3530
ɔøʧ	-3531
▁imb	-3532
▁bək	-3533
▁õ	-3534
▁dɔx	-3535
the̞	-3536
▁aɣ	-3537
▁ɡɦ	-3538
wən	-3539
xeɾ	-3540
eːkh	-3541
▁ɡl	-3542
ək˦˥	-3543
▁hˈɪ	-3544
ubˈu	-3545
gʁ	-3546
▁kuɾ	-3547
ˈtɝn	-3548
æts	-3549
bal	-3550
ɴde	-3551
vwaʁ	-3552
ʎi	-3553
▁sj	-3554
gl	-3555
ˈeɹe	-3556
▁mɔl	-3557
ˈaːk	-3558
▁tʌ̹	-3559
▁shɯ	-3560
▁ɡˈu	-3561
tomo	-3562
omb	-3563
▁ˌh	-3564
äːs̪	-3565
▁ẽt	-3566
▁jɡ	-3567
▁bˌa	-3568
▁bʁ	-3569
ɕɐ	-3570
▁bɛɲ	-3571
▁sat	-3572
▁juʂ	-3573
pst	-3574
▁ɲˈa	-3575
jən	-3576
ɹɛkt	-3577
▁muz	-3578
aðas	-3579
ˌdeɪ	-3580
sɨj	-3581
d͡ʒə	-3582
ɝˌst	-3583
▁diʁ	-3584
inən	-3585
idi	-3586
kɔʁ	-3587
ɛʒ	-3588
ɑːp	-3589
ɫɪ	-3590
▁d̪ɦ	-3591
iŋk	-3592
ɑːʋ	-3593
ˈɛŋ	-3594
tom	-3595
▁wan	-3596
▁ax	-3597
haj	-3598
osɯ	-3599
i͡ə	-3600
▁ˌal	-3601
▁rɛ	-3602
▁ix	-3603
olˈo	-3604
ɝv	-3605
jar	-3606
▁ˈɛk	-3607
▁vit	-3608
ŋɡa̠	-3609
▁kx	-3610
▁mɛʁ	-3611
▁hăj	-3612
rɛ	-3613
ndə	-3614
ɯkː	-3615
yn	-3616
rɯ	-3617
kɛt	-3618
▁ˈon	-3619
▁zˈo	-3620
ɪnə	-3621
jɛm	-3622
ẽsjɐ	-3623
ao	-3624
ˌwɝ	-3625
ðen	-3626
buh	-3627
hata	-3628
oso	-3629
▁ris	-3630
ɪsk	-3631
mt	-3632
inas	-3633
deki	-3634
▁pan	-3635
ˈup	-3636
▁or	-3637
jji	-3638
▁fe	-3639
ɡɐ	-3640
gah	-3641
oku	-3642
usah	-3643
waɾ	-3644
ma̠n	-3645
▁dăk	-3646
fɹ	-3647
ntah	-3648
udən	-3649
iw	-3650
▁ˈla	-3651
▁kaʐ	-3652
anus	-3653
alji	-3654
▁ʈɤ	-3655
sɨx	-3656
nɯ	-3657
▁ɰi	-3658
atik	-3659
ɹˈoː	-3660
ɛln	-3661
▁i˧˧	-3662
▁pɾɐ	-3663
vɝi	-3664
▁ɤ̆m	-3665
▁ʁeʒ	-3666
▁rˈa	-3667
▁kor	-3668
▁ɛgz	-3669
▁ʔʊn	-3670
ɪll	-3671
▁maŋ	-3672
ɐ̃tu	-3673
oza	-3674
▁san	-3675
ɡũ	-3676
͡ɪl	-3677
▁hˈa	-3678
ˌɛm	-3679
ɛ̝ɡ	-3680
ərt	-3681
d͡ʑɐ	-3682
hah	-3683
ʋɑː	-3684
▁vol	-3685
ˈjʊɹ	-3686
ɛtv	-3687
▁bɤj	-3688
akaɾ	-3689
aʊd	-3690
ɯk̚	-3691
saɪd	-3692
ʒis	-3693
kɔl	-3694
uɾm	-3695
ɪnn	-3696
▁kil	-3697
ho	-3698
ʝi	-3699
▁tɛm	-3700
aɪp	-3701
kɔv	-3702
ɪsən	-3703
▁nap	-3704
dʁ	-3705
tet	-3706
bo	-3707
ojʃ	-3708
ɛt͡ʂ	-3709
eːs̪	-3710
ɪld	-3711
▁num	-3712
ban	-3713
lat	-3714
kuf	-3715
ɕiki	-3716
▁mɛ̃	-3717
▁ɲi	-3718
jɛkt	-3719
peɾ	-3720
awɨ	-3721
zokɯ	-3722
▁fik	-3723
w˧ˀ˥	-3724
▁ɹiˈ	-3725
▁ˈɪm	-3726
ˈɪd	-3727
▁kaj	-3728
baŋ	-3729
ɝnd	-3730
ɹɛs	-3731
ẽsja	-3732
ərd	-3733
ɑmp	-3734
▁saj	-3735
ɪŋɡ	-3736
ɕhø̞	-3737
laŋ	-3738
▁liβ	-3739
ɕijo	-3740
ˈeːʀ	-3741
ɫəˈ	-3742
əˈfɛ	-3743
sik	-3744
▁ɹˌ	-3745
ˈɾan	-3746
▁rel	-3747
▁fun	-3748
▁ɔtp	-3749
▁kɝ	-3750
ɣos	-3751
nan	-3752
kei	-3753
▁pre	-3754
uːr	-3755
əiːl	-3756
kin	-3757
amj	-3758
sis	-3759
kur	-3760
ətən	-3761
ɪstɝ	-3762
▁ʋɨ	-3763
ie	-3764
tiz	-3765
▁bj	-3766
▁lɤ̆	-3767
ðas	-3768
▁hˈɛ	-3769
▁mad	-3770
l̪äː	-3771
ˈaːm	-3772
▁rˈi	-3773
jœʁ	-3774
eɪnz	-3775
▁lɔʁ	-3776
▁etɛ	-3777
bs	-3778
▁pɨ	-3779
▁jaː	-3780
stan	-3781
βen	-3782
ɪntɝ	-3783
nam	-3784
ˈaat	-3785
ɛɾv	-3786
itik	-3787
kˈa	-3788
ɡjʌ̹	-3789
awɔ	-3790
xa	-3791
ɜː	-3792
▁ɾäː	-3793
▁bah	-3794
ɛɾk	-3795
▁kwa	-3796
ɔɹts	-3797
ˌan	-3798
ɛʃəɫ	-3799
aʊ̯	-3800
ˈuti	-3801
ɝnɪŋ	-3802
ɔøt	-3803
bab	-3804
ッto	-3805
əpʁ	-3806
ɛɕ	-3807
izas	-3808
▁mɔd	-3809
▁dom	-3810
ɑɾən	-3811
tr	-3812
ˈaŋɡ	-3813
paʁ	-3814
ɛʁn	-3815
▁dip	-3816
▁of	-3817
▁kum	-3818
sts	-3819
ˈmas	-3820
▁lɥi	-3821
▁ø	-3822
▁pɔs	-3823
utt͡	-3824
ˈdi	-3825
tem	-3826
ɪˈv	-3827
▁ɛ̝	-3828
axən	-3829
ˈoba	-3830
ˈion	-3831
atiβ	-3832
tsɯɯ	-3833
ːʌɪ̯	-3834
▁vɛʁ	-3835
okai	-3836
▁py	-3837
ezə	-3838
ɯkːɯ	-3839
ɑts	-3840
nten	-3841
▁ĩp	-3842
d͡ʒd	-3843
ɛsɐ	-3844
▁kos	-3845
ɑtʃ	-3846
əŋ˦˨	-3847
aen	-3848
▁mɑ̃	-3849
ɹə	-3850
ive	-3851
ult	-3852
ɡus	-3853
ɯɾʌ̹	-3854
▁ʈaj	-3855
deɕi	-3856
boɯ	-3857
▁fũ	-3858
ɡo̞ŋ	-3859
oʊs	-3860
na̠	-3861
vɛl	-3862
ɲɛm	-3863
ʊɾts	-3864
əmɪŋ	-3865
kat	-3866
asˈi	-3867
ɪɫz	-3868
eo	-3869
pas	-3870
ə̃ɳ	-3871
▁tem	-3872
ˈɪc	-3873
iðos	-3874
vɑ̃	-3875
▁sek	-3876
▁hɔj	-3877
nad	-3878
anno	-3879
▁ɐjʃ	-3880
ɔlt	-3881
▁rˈu	-3882
▁ˈɛf	-3883
ɯkoɯ	-3884
eːʈ	-3885
dɯɭ	-3886
mpu	-3887
▁ɑ̃f	-3888
inaɾ	-3889
▁ˈtw	-3890
▁ˈʃl	-3891
ment	-3892
dɛnt	-3893
▁ʁep	-3894
mẽtɨ	-3895
▁ruv	-3896
▁dok	-3897
▁lɤj	-3898
▁lak	-3899
▁vɛ	-3900
rk	-3901
əndʒ	-3902
▁ˈfi	-3903
asa	-3904
▁dik	-3905
onom	-3906
ɪb	-3907
▁pɔr	-3908
t͈o̞	-3909
ɪŋən	-3910
kjɯɯ	-3911
uːɐ	-3912
ɐ̯ʊŋ	-3913
seɾ	-3914
ˈtɪɫ	-3915
ɑːɡa	-3916
ɑɹm	-3917
▁s͈	-3918
wɔv	-3919
▁atɛ	-3920
▁deʒ	-3921
xen	-3922
ẽtuʃ	-3923
ˈim	-3924
ɔɾd	-3925
▁sɪk	-3926
nd͡z	-3927
ərh	-3928
øz	-3929
ɹɪŋ	-3930
ɛkn	-3931
adus	-3932
tel	-3933
▁bak	-3934
kiː	-3935
ntɝˌ	-3936
▁lim	-3937
suk	-3938
ɾim	-3939
ɕhiɭ	-3940
▁ʒi	-3941
okaɴ	-3942
▁bɛl	-3943
t͡ɕa	-3944
əɪst	-3945
uto	-3946
uːn	-3947
fjat	-3948
͡ɪt	-3949
ˈerk	-3950
las	-3951
▁vɔ	-3952
ˌede	-3953
mit	-3954
▁bət	-3955
▁məˈ	-3956
ido̞	-3957
kun	-3958
eːz	-3959
▁tˈ	-3960
▁poz	-3961
ăp˦˥	-3962
ɛndo	-3963
▁ʐɨ	-3964
maˈ	-3965
turɨ	-3966
▁med	-3967
fɔɾm	-3968
▁sɨɾ	-3969
▁mɛt	-3970
▁ˌɔɹ	-3971
tɐs	-3972
raf	-3973
▁bud	-3974
niɴ	-3975
baɡ	-3976
aɪnz	-3977
kom	-3978
▁ɡəb	-3979
og	-3980
adˈi	-3981
jah	-3982
əˈf	-3983
eɪnt	-3984
ɹˈiː	-3985
wu	-3986
pˈe	-3987
əmˈu	-3988
ˈtɪv	-3989
pə	-3990
ɡɯn	-3991
ɑːɡ	-3992
▁ʃɑ̃	-3993
▁ter	-3994
vid	-3995
▁ul	-3996
▁twa	-3997
▁nam	-3998
▁vˈɪ	-3999
stɾo	-4000
θɪn	-4001
im˧˧	-4002
ojo	-4003
ɾjo	-4004
aro	-4005
ɔɹz	-4006
▁ˌa	-4007
ɔro	-4008
▁pek	-4009
tuɾa	-4010
maɾ	-4011
▁ale	-4012
ɛp˦˥	-4013
ero	-4014
▁zˈ	-4015
▁kəh	-4016
▁mes	-4017
ɾus	-4018
ʊɾdə	-4019
▁ˈmœ	-4020
ae	-4021
▁zam	-4022
ɔrd	-4023
ʂɨx	-4024
▁vil	-4025
p˧˧	-4026
ˌdʒ	-4027
œv	-4028
ˈɛvɝ	-4029
▁ʂɯə	-4030
yd	-4031
▁daɾ	-4032
ɦiː	-4033
▁lˈe	-4034
ʒəw	-4035
ʃɪp	-4036
ɛnʃ	-4037
o̞m	-4038
▁ˈç	-4039
▁ˈbr	-4040
ăm˨˦	-4041
əm˨˦	-4042
gam	-4043
▁ɛsp	-4044
fɪkt	-4045
▁dab	-4046
ɹˈ	-4047
ʁɔ̃	-4048
▁ciə	-4049
eːv	-4050
əd̪	-4051
▁ɣɔj	-4052
ɹˌ	-4053
▁sim	-4054
ɪʒən	-4055
ðɐʃ	-4056
lant	-4057
ɛvəɫ	-4058
nti	-4059
ætɝ	-4060
e̞i	-4061
teʁ	-4062
▁ˈpu	-4063
ˈusi	-4064
ˈba	-4065
jum	-4066
lɑ	-4067
aːt	-4068
▁ˈɾa	-4069
▁ɦiː	-4070
oːf	-4071
▁jəɦ	-4072
da̠n	-4073
ʁiʁ	-4074
mbər	-4075
▁pɔm	-4076
ədən	-4077
ɡas	-4078
ɑks	-4079
dˈap	-4080
ɪvən	-4081
und	-4082
ɛnz	-4083
▁isk	-4084
▁pəs	-4085
dɯn	-4086
bile	-4087
▁æd	-4088
▁dev	-4089
ole	-4090
ɕlji	-4091
ˈina	-4092
ɡo	-4093
ɥe	-4094
̪ɯ	-4095
ʊl	-4096
▁ʁət	-4097
ɐ̯ɐ̯	-4098
ona	-4099
▁mʊs	-4100
bli	-4101
nte	-4102
▁pɛ̝	-4103
▁fɤ̆	-4104
buk	-4105
men	-4106
▁ˈdɾ	-4107
siv	-4108
▁tɛʂ	-4109
əmb	-4110
ikos	-4111
pha̠	-4112
▁ha	-4113
ɕhe̞	-4114
paɲ	-4115
d̪ɐ	-4116
ˈbaɽ	-4117
ˈɛda	-4118
pɾi	-4119
ɛɾst	-4120
▁bɾ	-4121
ndi	-4122
▁ˌak	-4123
ɾɐj	-4124
▁paw	-4125
nl	-4126
jəm	-4127
ɫɪʃ	-4128
▁bus	-4129
ɹu	-4130
pɔʁt	-4131
▁uk	-4132
▁jɯk	-4133
▁mem	-4134
avaj	-4135
▁seɣ	-4136
ˈɫeɪ	-4137
oli	-4138
bəl	-4139
▁tɛn	-4140
j˧˨	-4141
ɥɛl	-4142
lɛp	-4143
in̪	-4144
idˈi	-4145
kane	-4146
▁ɹiv	-4147
▁fwe	-4148
ɔɹˈs	-4149
pɔ	-4150
ẽta	-4151
eːt	-4152
ŋg	-4153
eɪɝ	-4154
idiə	-4155
▁sn	-4156
jist	-4157
▁eβ	-4158
▁ˈke	-4159
t͡ʃk	-4160
ɯne	-4161
əsi	-4162
▁asp	-4163
plik	-4164
▁nav	-4165
itas	-4166
▁ˈɫɔ	-4167
▁ʝo	-4168
ˈor	-4169
▁zav	-4170
βw	-4171
ner	-4172
ăm˧˨	-4173
ˈerd	-4174
▁ˈkɾ	-4175
jutə	-4176
ɛlji	-4177
arˈi	-4178
eso	-4179
▁bis	-4180
iɕ	-4181
viəs	-4182
▁pik	-4183
ftar	-4184
▁mɛ̝	-4185
kiɾi	-4186
ʂɐ	-4187
əɫd	-4188
ɖɯ	-4189
yk	-4190
ɲɛʂ	-4191
▁ɑ̃s	-4192
ɐjɾɐ	-4193
kak	-4194
▁we	-4195
ʎɔɾ	-4196
▁hˈo	-4197
əˌs	-4198
▁moj	-4199
▁aki	-4200
ˌas	-4201
ʊst	-4202
əʋ	-4203
ˈpi	-4204
▁skw	-4205
ɪzəm	-4206
▁tam	-4207
deha	-4208
ɣan	-4209
ɡn	-4210
ɛllt	-4211
wɤ̆ŋ	-4212
ikaˈ	-4213
▁pʌ	-4214
ɨp	-4215
βaɾ	-4216
uŋɡ	-4217
▁ˈmʏ	-4218
ˈoːn	-4219
çə	-4220
▁fər	-4221
▁pun	-4222
▁kjɛ	-4223
▁pad	-4224
kɔn	-4225
▁pen	-4226
▁oʊ	-4227
jɐʃ	-4228
deɴ	-4229
▁ish	-4230
dus	-4231
y̯	-4232
ɛtu	-4233
ket	-4234
atœʁ	-4235
▁ʈɯk	-4236
▁ˌɛm	-4237
aɪdz	-4238
▁ese	-4239
tow	-4240
demo	-4241
ʐa	-4242
ɐjtu	-4243
ɕt	-4244
▁bɔn	-4245
gaj	-4246
▁xu	-4247
▁dɛn	-4248
ɪtən	-4249
ʊp	-4250
▁tom	-4251
▁bas	-4252
ɣɾ	-4253
▁ʑ	-4254
▁ˈki	-4255
alˈi	-4256
▁sf	-4257
aɪˈ	-4258
œy̯	-4259
aːɾɐ	-4260
βoɾ	-4261
kɯni	-4262
ɛɹɪŋ	-4263
aɽ	-4264
ɪdz	-4265
ɯɾɯn	-4266
▁ɔm	-4267
dɪk	-4268
ẽti	-4269
dɯɾ	-4270
ɫənd	-4271
ʁt	-4272
▁ʒɑ̃	-4273
▁bol	-4274
▁mew	-4275
▁ɪˈm	-4276
▁ban	-4277
sum	-4278
ɔøtə	-4279
▁maʝ	-4280
izɯ	-4281
▁sɐ	-4282
ɹeɪt	-4283
▁fɔɾ	-4284
▁ˈɡɝ	-4285
ital	-4286
▁pla	-4287
▁ʔʌʋ	-4288
ˈsɛɫ	-4289
ofes	-4290
ljiv	-4291
ɑːb	-4292
▁zm	-4293
rˈi	-4294
stat	-4295
jasɯ	-4296
iph	-4297
ajn	-4298
▁bɪs	-4299
ɪgɐ̯	-4300
mä̃ː	-4301
ɡɪn	-4302
▁diɐ	-4303
ˈɛb	-4304
ŋkat	-4305
ĩdu	-4306
ɛnəf	-4307
▁lɔ̃	-4308
ˈən	-4309
ʃa	-4310
▁not	-4311
▁kuɲ	-4312
pɾɛç	-4313
▁hø̞	-4314
sam	-4315
ˈtɪk	-4316
▁kʁe	-4317
eɾes	-4318
isa	-4319
ɾeɾɯ	-4320
ʎos	-4321
βlik	-4322
▁ras	-4323
▁p͈	-4324
▁far	-4325
oːb	-4326
▁xi	-4327
▁ʁə	-4328
pho̞	-4329
▁mus	-4330
ɲɲi	-4331
▁dwa	-4332
▁xa	-4333
aɾjo	-4334
oʊzd	-4335
▁tː	-4336
tˌe	-4337
▁diʃ	-4338
▁ɣă	-4339
ɹækt	-4340
▁tˈa	-4341
▁tar	-4342
jamo	-4343
anto	-4344
▁lɑ̃	-4345
kiŋ	-4346
ɕhu	-4347
ˈeːb	-4348
▁fiə	-4349
kaɾa	-4350
iːr	-4351
▁ɔɾ	-4352
tʃo	-4353
ɹəns	-4354
ɔltə	-4355
▁ʁəs	-4356
▁pop	-4357
tˈɛ	-4358
ʈːʌ	-4359
ɔpr	-4360
▁ˌɛl	-4361
ˈɐ	-4362
kir	-4363
aʊθ	-4364
▁awt	-4365
ˈtuː	-4366
▁ˌɔr	-4367
uve	-4368
▁kjo	-4369
▁emb	-4370
▁ɐs	-4371
▁hɛ	-4372
▁eɾ	-4373
ɛʃən	-4374
っtak	-4375
ˈop	-4376
gəˈb	-4377
▁eta	-4378
ska	-4379
ɡɯm	-4380
▁pɾa	-4381
ɪtɝ	-4382
▁tek	-4383
▁mɔm	-4384
▁nɔt	-4385
▁ɤ̆j	-4386
glɪç	-4387
lan	-4388
ˈeːm	-4389
ˈtɛɫ	-4390
ˌsɛs	-4391
ŋɡal	-4392
▁det	-4393
▁məd	-4394
ɕikɯ	-4395
▁ʌ̹m	-4396
ɛɾd	-4397
▁ˈʃv	-4398
ɡˈi͡	-4399
ɨja	-4400
▁set	-4401
▁iv	-4402
ipər	-4403
abl	-4404
▁vz	-4405
a̠mn	-4406
▁fwa	-4407
ʈi	-4408
ˈɣ	-4409
ˌal	-4410
əɫts	-4411
jɑː	-4412
juː	-4413
ɛnts	-4414
ˈila	-4415
ˈuru	-4416
ɐ̃tɨ	-4417
anˌt	-4418
oʊˌt	-4419
izmo	-4420
▁vaj	-4421
ɛr˧˧	-4422
▁mʌ	-4423
sus	-4424
▁ˈbl	-4425
ðaðɨ	-4426
▁ˈbɝ	-4427
seki	-4428
ɡje̞	-4429
▁lˈo	-4430
oɾim	-4431
▁har	-4432
iʁ	-4433
▁is	-4434
▁sik	-4435
▁bɪn	-4436
axt	-4437
ʌɪ̯k	-4438
▁mam	-4439
əˌv	-4440
ˈjuz	-4441
n̪oː	-4442
ðus	-4443
mɛ	-4444
äːiː	-4445
aɾɯb	-4446
ivu	-4447
▁ˌæp	-4448
mon	-4449
▁ʃak	-4450
▁ɦʊ	-4451
eːj	-4452
stav	-4453
▁ami	-4454
▁ˈɛt	-4455
ulta	-4456
ili	-4457
ˈamə	-4458
spɛʃ	-4459
ənsi	-4460
▁ke̞	-4461
▁ide	-4462
pos	-4463
eɾas	-4464
▁aka	-4465
ola	-4466
oɾ̪ɯ	-4467
ẽt͡ʃ	-4468
▁pɛɾ	-4469
ɾete	-4470
▁ʋʌ	-4471
tak	-4472
yz	-4473
▁maw	-4474
ejɾu	-4475
ˈfyː	-4476
▁ʔak	-4477
▁mʊ	-4478
kuɾ	-4479
▁rad	-4480
ɛsts	-4481
▁bəd	-4482
▁gu	-4483
˧˧l	-4484
ðukt	-4485
ɕakɯ	-4486
▁ˌu	-4487
ˈota	-4488
ɯme	-4489
iβle	-4490
eɾaɾ	-4491
mad	-4492
ˈɪl	-4493
▁mɔɡ	-4494
ɪkə	-4495
ˈɛd	-4496
emo	-4497
jɛrf	-4498
aɾis	-4499
▁bɛs	-4500
ˌa	-4501
pɛnd	-4502
▁dek	-4503
▁dʑ	-4504
▁dəp	-4505
ʃuz	-4506
ənɪŋ	-4507
stfa	-4508
ˈvɑɫ	-4509
ʋʌɾ̪	-4510
▁avɛ	-4511
͡ʊd	-4512
niha	-4513
▁ˈʃn	-4514
ɾin	-4515
ɔg	-4516
iza	-4517
ɔɲ	-4518
mˈas	-4519
▁ib	-4520
▁ʁes	-4521
ys	-4522
▁wˈ	-4523
▁ˌf	-4524
nət	-4525
▁duɾ	-4526
fekt	-4527
▁dœ̃	-4528
▁ʂɤ	-4529
▁ɛsi	-4530
ʃɝz	-4531
ɨt	-4532
ətɪd	-4533
uˈ	-4534
▁vɛr	-4535
o˧˩˨	-4536
ɛnde	-4537
nɝ	-4538
utʃo	-4539
▁tɯə	-4540
▁ˈsn	-4541
snis	-4542
gaɕ	-4543
tɑ̃	-4544
͡ʊt	-4545
▁ɔk	-4546
βles	-4547
ɛsk	-4548
met	-4549
d͡ʒe	-4550
lʊŋ	-4551
ʎʎo	-4552
ˈoid	-4553
iːb	-4554
▁ˈhɑ	-4555
▁aðe	-4556
ɪlt	-4557
ɾis	-4558
mpre	-4559
kas	-4560
dato	-4561
ɪŋks	-4562
ˈx	-4563
▁go	-4564
▁dɔm	-4565
ɡun	-4566
it˧˧	-4567
ylt	-4568
ˈimp	-4569
ɛɫt	-4570
əˌp	-4571
ɸɯkɯ	-4572
▁dəm	-4573
imos	-4574
▁ɛt	-4575
fe	-4576
▁mˈɪ	-4577
ɡum	-4578
jaɴ	-4579
æps	-4580
▁tə	-4581
ˈaŋi	-4582
t̪ːʌ	-4583
oʊɫz	-4584
ˌat	-4585
▁sɛɾ	-4586
mn	-4587
uːp	-4588
ˈart	-4589
ɪʃt	-4590
vɔl	-4591
ɛt͡s	-4592
▁ˌaf	-4593
▁sˌu	-4594
moɴ	-4595
ɔː	-4596
▁bɯə	-4597
stit	-4598
ikh	-4599
anod	-4600
ʎɐ	-4601
lɐs	-4602
dur	-4603
ɐ̃s	-4604
˨˩˨	-4605
esa	-4606
▁sœl	-4607
ɡin	-4608
ʐɔ	-4609
ɔøən	-4610
əmɝz	-4611
ɡɑɹd	-4612
ɛtst	-4613
ɑɫoʊ	-4614
▁ave	-4615
▁eso	-4616
ɹɔs	-4617
▁mɤ̆	-4618
ɔts	-4619
ˈelə	-4620
▁dɔv	-4621
nolo	-4622
▁ɡdɨ	-4623
ɛla	-4624
gal	-4625
gəb	-4626
▁aˈβ	-4627
ɪtə	-4628
▁ˈaw	-4629
fs	-4630
ʊʃ	-4631
hkan	-4632
▁kaz	-4633
▁aws	-4634
kx	-4635
iːp	-4636
tsˈe	-4637
▁ˈvɝ	-4638
▁ˈfl	-4639
ˌwɝk	-4640
käːɾ	-4641
▁apɾ	-4642
ɾäː	-4643
βaxo	-4644
▁ɛlɐ	-4645
▁tal	-4646
dake	-4647
unik	-4648
▁bəɽ	-4649
▁owt	-4650
▁ɣɯ	-4651
eːp	-4652
▁vɨɾ	-4653
oːr	-4654
st͡ʃ	-4655
n̪t̪	-4656
▁ˈnə	-4657
▁pʁe	-4658
ŋɡw	-4659
ivo	-4660
▁meɾ	-4661
əˌɡ	-4662
▁ˈɛd	-4663
gəˈn	-4664
ɡˈu	-4665
ɪkˈk	-4666
ʃtu	-4667
▁lɔk	-4668
ẽt	-4669
taw	-4670
▁tˈɪ	-4671
zɝ	-4672
tut	-4673
ɔvɨm	-4674
ell	-4675
æʃ	-4676
ɔpoz	-4677
▁ˌən	-4678
ɑɹts	-4679
soto	-4680
att	-4681
▁sof	-4682
alp	-4683
thɯn	-4684
ʂɛj	-4685
iɫɪŋ	-4686
aðoɾ	-4687
a̠ɭʎ	-4688
▁ˈit	-4689
ʒənz	-4690
ɔøə	-4691
ivi	-4692
ʂka	-4693
▁vl	-4694
ˈow	-4695
▁ɾ̪	-4696
ɪtʃu	-4697
ɑtən	-4698
t͡ʃə	-4699
tho̞	-4700
din	-4701
▁bõ	-4702
thɛ̝	-4703
ɪɡˈn	-4704
n̪ɑː	-4705
bur	-4706
ɨsi	-4707
▁inv	-4708
▁ẽkõ	-4709
▁asĩ	-4710
ɕhʌ̹	-4711
▁ɔɡ	-4712
enəs	-4713
jɑ̃	-4714
ɝdʒi	-4715
taðu	-4716
▁ˈæp	-4717
▁lap	-4718
kɔɹd	-4719
ˌweɪ	-4720
ɕmɨ	-4721
ˈip	-4722
▁ʒe	-4723
aɪvz	-4724
▁pək	-4725
ˈuːs	-4726
iðu	-4727
stra	-4728
ənəɫ	-4729
iɯk	-4730
ɾia	-4731
▁koj	-4732
▁ˈah	-4733
▁som	-4734
ʒin	-4735
ɦʌ̹m	-4736
▁n̪ɐ	-4737
ɛɾts	-4738
▁bəz	-4739
ˈfɔɹ	-4740
▁pow	-4741
▁uʐɨ	-4742
ˈonə	-4743
ɲɲo	-4744
æθ	-4745
baɴ	-4746
dər	-4747
ɹɔŋ	-4748
arjo	-4749
▁vr	-4750
bas	-4751
kt̪	-4752
əðɝ	-4753
bˈo	-4754
tes	-4755
▁fel	-4756
təm	-4757
▁buk	-4758
lˈɛ	-4759
oɐs	-4760
▁ið	-4761
▁abɨ	-4762
ɔdɥi	-4763
ɔkɪŋ	-4764
ɨɻ	-4765
ˈatə	-4766
▁pak	-4767
dɯɾi	-4768
mete	-4769
ˌɹ	-4770
mph	-4771
▁ʃoz	-4772
tuɾ	-4773
ˈeːk	-4774
▁kli	-4775
js	-4776
ntak	-4777
▁tɔ̃	-4778
veːn	-4779
bˈe	-4780
fəɫi	-4781
iɾjo	-4782
▁ins	-4783
▁prˌ	-4784
▁ˈɛl	-4785
▁hɪˈ	-4786
it̪	-4787
▁căŋ	-4788
pˌ	-4789
zis	-4790
ɪŋs	-4791
▁bəs	-4792
▁jeː	-4793
ˈɛo	-4794
fat	-4795
kəɾ	-4796
naɴ	-4797
kˈi	-4798
ˈeɪd	-4799
fˈe	-4800
nat	-4801
uvd	-4802
baj	-4803
sɯɯ	-4804
id͡ʑ	-4805
aha	-4806
aːnd	-4807
əmˌt	-4808
▁ra	-4809
uːz	-4810
hˈa	-4811
ˈɪɡə	-4812
▁ɪˈf	-4813
ɡər	-4814
▁due	-4815
▁nˈo	-4816
iss	-4817
t͡ʃo	-4818
▁fɔ̃	-4819
▁kre	-4820
omp	-4821
stik	-4822
əm˧˧	-4823
ɾeː	-4824
siɾ	-4825
▁ro	-4826
ɔt͡s	-4827
ɹeɪ	-4828
▁sju	-4829
ɛmɨ	-4830
ɳeːn	-4831
dul	-4832
ɛste	-4833
ɫaɪ	-4834
e̞sh	-4835
▁ɐn	-4836
ʁik	-4837
ɛss	-4838
▁ʔap	-4839
ɛt͡	-4840
ˈər	-4841
▁sap	-4842
takɯ	-4843
laˈ	-4844
ɾɛ̝	-4845
ʈiː	-4846
daɾ	-4847
▁ˈta	-4848
▁ri	-4849
oton	-4850
aʊns	-4851
ɔbɨ	-4852
ɛɡul	-4853
əzən	-4854
imɐ	-4855
ˈɪst	-4856
▁ɔps	-4857
e̞n	-4858
opt	-4859
kət	-4860
▁pɛv	-4861
▁rˈo	-4862
sten	-4863
▁pɹˌ	-4864
ˈoɡa	-4865
ɑmən	-4866
ˈvi	-4867
▁iəw	-4868
▁did	-4869
βjeɾ	-4870
zam	-4871
o˧ˀ˥	-4872
ɑɹti	-4873
▁app	-4874
onos	-4875
bˌ	-4876
ɛsz	-4877
ˈfɔl	-4878
▁ˈɛr	-4879
ba̠ŋ	-4880
ˈalə	-4881
▁nad	-4882
ɐ̃sɐ	-4883
▁kin	-4884
▁ʋeː	-4885
▁mɲɛ	-4886
ẽtʃ	-4887
alkj	-4888
▁pwɔ	-4889
ˈtʃ	-4890
erk	-4891
ət͡ʃ	-4892
aɪ̯m	-4893
ʂɔ̃	-4894
ʈeː	-4895
▁ly	-4896
▁ʁəl	-4897
toiɯ	-4898
elo	-4899
▁fiz	-4900
enai	-4901
aːɾ	-4902
atə	-4903
əmi	-4904
ndz	-4905
▁ɾi	-4906
▁sia	-4907
▁ed	-4908
ʈːɯ	-4909
idɪd	-4910
adɨ	-4911
les	-4912
▁taɾ	-4913
ɨʋ	-4914
▁ɛsɐ	-4915
ɑkt	-4916
ɾɯno	-4917
▁pʁi	-4918
weɾ	-4919
amɑ̃	-4920
▁lɛ̃	-4921
aɾse	-4922
ɪçts	-4923
nɪŋ	-4924
mo̞	-4925
▁ane	-4926
ɐjɾu	-4927
▁tfɔ	-4928
͡ɪd	-4929
juʃ	-4930
xɔ	-4931
ɕɲɛ	-4932
stɔ	-4933
alzo	-4934
ɑːna	-4935
ænət	-4936
kɨ	-4937
aɪɝz	-4938
▁ciw	-4939
aっt	-4940
ˈɛp	-4941
ɔʒ	-4942
ajɛ	-4943
▁aːn	-4944
zəɫt	-4945
tokɯ	-4946
ŋɡeː	-4947
▁ˈɑf	-4948
▁fak	-4949
ɾei	-4950
ɰβaɾ	-4951
▁all	-4952
▁kõp	-4953
▁sub	-4954
sɛj	-4955
iːde	-4956
alə	-4957
ŋah	-4958
kwa	-4959
▁gaʁ	-4960
ɲiz	-4961
iðas	-4962
dɛ	-4963
təmz	-4964
ɹz	-4965
ɕit͡	-4966
ə˧˨	-4967
hi	-4968
ˈima	-4969
tʁe	-4970
▁pɔɕ	-4971
▁dəv	-4972
ntɾ	-4973
▁tuʁ	-4974
ahas	-4975
naɾi	-4976
ʎas	-4977
ɪʋ	-4978
unɯn	-4979
aɾba	-4980
ɡʌ̹n	-4981
peʁ	-4982
ɹɪk	-4983
ɨʃt	-4984
oks	-4985
ɡɔd	-4986
▁aff	-4987
beɾ	-4988
▁ʂw	-4989
ŋka	-4990
▁jˌe	-4991
oke	-4992
▁ur	-4993
jəˈɫ	-4994
it͡ɕ	-4995
nɛ̝	-4996
ɔ˦˨	-4997
ˈuːə	-4998
ɛmpo	-4999
▁ʁək	-5000
▁ɯ	-5001
khɛ̝	-5002
ɑːɭ	-5003
ɔɹθ	-5004
ˈnik	-5005
▁bɨw	-5006
ɡiŋ	-5007
rit	-5008
d͡za	-5009
ɡɾ	-5010
aɕi	-5011
▁ˈus	-5012
Xt	-5013
ɪvz	-5014
ʒia	-5015
asu	-5016
anɨ	-5017
ziʁ	-5018
▁ɑ	-5019
enˈ	-5020
▁kɯk	-5021
ɛbbe	-5022
imu	-5023
oʊnz	-5024
▁ɐp	-5025
end	-5026
▁kɔʁ	-5027
ɯɾɛ̝	-5028
▁rap	-5029
▁pɾĩ	-5030
ɪdn	-5031
▁ˈil	-5032
▁ʃwa	-5033
toko	-5034
ikol	-5035
▁dyn	-5036
ziw	-5037
▁kʌ	-5038
▁kˈi	-5039
▁ŋɤ̆	-5040
gaɕi	-5041
zn	-5042
▁oj	-5043
▁ˌan	-5044
ɪɫt	-5045
ɾ̪ɯ	-5046
am˩˧	-5047
ˌʃl	-5048
▁veɾ	-5049
▁ˌv	-5050
sat	-5051
▁riz	-5052
niʁ	-5053
▁õdɨ	-5054
ɡɝ	-5055
▁tuɾ	-5056
▁apʁ	-5057
əndz	-5058
ɛɾnə	-5059
ɡət	-5060
da̠ŋ	-5061
eɪdi	-5062
de̞	-5063
nid	-5064
pːʌɖ	-5065
▁mɐ̃	-5066
əiː	-5067
eɾɛs	-5068
▁uɾi	-5069
▁jɛʂ	-5070
ʋiː	-5071
ɔɪn	-5072
▁for	-5073
▁kab	-5074
ithɯ	-5075
▁ɾɐ	-5076
▁jɛj	-5077
ɪ̃ŋɡ	-5078
jiɲ	-5079
ɤ˨˦	-5080
ˈind	-5081
▁nar	-5082
▁kur	-5083
kˈan	-5084
ud͡ʑ	-5085
ɝiz	-5086
ɾaɴ	-5087
tsɯk	-5088
sˌ	-5089
əˌɡɹ	-5090
e̞jo	-5091
ɦeː	-5092
tat	-5093
nijo	-5094
t̚k͈	-5095
iva	-5096
▁les	-5097
nika	-5098
▁dɛv	-5099
una	-5100
▁sum	-5101
▁sid	-5102
əsˈi	-5103
ændz	-5104
ˈβ	-5105
t͡ʃu	-5106
lae	-5107
θaʊ	-5108
tiʁ	-5109
▁aː	-5110
▁căj	-5111
teim	-5112
▁ˌɛk	-5113
ɪɹɪŋ	-5114
goza	-5115
▁ˈka	-5116
eɾe	-5117
uɾt	-5118
▁kɑː	-5119
ikul	-5120
▁ʐiə	-5121
əsən	-5122
▁mod	-5123
akaɴ	-5124
sej	-5125
itɪd	-5126
mɛt	-5127
▁ruʐ	-5128
▁siɾ	-5129
▁wɤ̆	-5130
hə	-5131
ɨɡʌɭ	-5132
ʊl̪	-5133
mbaŋ	-5134
eze	-5135
βos	-5136
akɯn	-5137
baʎu	-5138
▁tot	-5139
udz	-5140
▁dˈo	-5141
uvɪŋ	-5142
ɪɹɫi	-5143
▁muð	-5144
mid	-5145
ɔfɛ	-5146
ntɝ	-5147
zil	-5148
çən	-5149
ɲju	-5150
▁ʈaŋ	-5151
▁ɫoʊ	-5152
ɛfən	-5153
uŋke	-5154
om˧˧	-5155
ŋ̩	-5156
eɪpɝ	-5157
ntən	-5158
käː	-5159
▁voː	-5160
▁aʒu	-5161
zɔnd	-5162
▁vɛʃ	-5163
ˈuar	-5164
ɯnɯn	-5165
fɝt	-5166
ɪʃəɫ	-5167
▁xaw	-5168
̪eː	-5169
▁uɾ	-5170
s̪äː	-5171
ɔt͡ʂ	-5172
βan	-5173
pɾɨz	-5174
lem	-5175
oɯke	-5176
ətəɫ	-5177
ɛlu	-5178
aɪˌs	-5179
ɪsm	-5180
ði	-5181
nado	-5182
ˌak	-5183
ˌju	-5184
went	-5185
ə̃ŋɡ	-5186
▁dow	-5187
▁zr	-5188
ntə	-5189
▁put	-5190
ˈɛf	-5191
ʐɨst	-5192
▁dɔ̃	-5193
tɾuʃ	-5194
ævəɫ	-5195
ɔɫz	-5196
iɝ	-5197
taʒ	-5198
ɔɫt	-5199
kspɝ	-5200
ɛɫɪŋ	-5201
vɪŋ	-5202
▁mɛj	-5203
▁pub	-5204
ˈvaɪ	-5205
asil	-5206
iəz	-5207
toɾi	-5208
zɔ̃	-5209
▁kad	-5210
ɛlli	-5211
st̪	-5212
ɭɭa̠	-5213
ɔks	-5214
▁dˈu	-5215
ɔlən	-5216
▁əl	-5217
ɛkˈn	-5218
ɪd̪	-5219
hod	-5220
▁ĩt	-5221
ɪsp	-5222
ɯɾo	-5223
ndo̞	-5224
ˌʃɪp	-5225
ɲika	-5226
kɕ͈	-5227
œɾ	-5228
dʑij	-5229
ɛnn	-5230
▁sea	-5231
ɾiɐ	-5232
ɛi̯	-5233
▁ep	-5234
ndər	-5235
ɛɹz	-5236
▁bˈə	-5237
ɛsti	-5238
▁fav	-5239
▁sua	-5240
▁ʒeɾ	-5241
ɯə˧˧	-5242
inɪŋ	-5243
▁ˈɫæ	-5244
▁ˈpi	-5245
▁te̞	-5246
▁ɪˈɫ	-5247
dʑɯɯ	-5248
ɨɖ	-5249
▁xe	-5250
▁ɹˌe	-5251
▁aɲo	-5252
ɑɹz	-5253
▁lej	-5254
ekim	-5255
▁ɕr	-5256
ɪˈt	-5257
aɪɫz	-5258
ɑmə	-5259
izən	-5260
▁ˌdʒ	-5261
ăk	-5262
fall	-5263
ɹˈəu	-5264
ˈilm	-5265
alən	-5266
œn	-5267
bəˈ	-5268
ɛɾm	-5269
vaɪ̯	-5270
skə	-5271
eld	-5272
t͡so	-5273
ɔɪz	-5274
eɪɫi	-5275
ɛa	-5276
βas	-5277
ɝdz	-5278
tsən	-5279
ˈɛw	-5280
əɽ	-5281
oɾja	-5282
aːm	-5283
tiŋ	-5284
ˈɛst	-5285
▁ɝˈ	-5286
gʊŋ	-5287
▁ɡar	-5288
θɝ	-5289
▁sel	-5290
d̪iː	-5291
oʊv	-5292
ˈoad	-5293
stri	-5294
ɑɹˈt	-5295
▁kɛɾ	-5296
kuʁ	-5297
ass	-5298
ɾɪçt	-5299
tit	-5300
▁ʊs̪	-5301
▁ram	-5302
ɡuk̚	-5303
▁ˌad	-5304
ɛˌ	-5305
ɪvəɫ	-5306
uts	-5307
ˈuhi	-5308
̃m	-5309
▁päː	-5310
▁sɛl	-5311
ɐl	-5312
oɯɕi	-5313
ɽən	-5314
▁aŋɡ	-5315
kˈɛ	-5316
ˌpɫ	-5317
▁pət	-5318
▁mon	-5319
ktə	-5320
▁mik	-5321
otom	-5322
zid	-5323
ɣɾa	-5324
▁sut	-5325
▁vy	-5326
niɕi	-5327
eɾos	-5328
ɪtɪŋ	-5329
ˈeɪn	-5330
sibl	-5331
▁wˌe	-5332
▁ud	-5333
ˈvɪk	-5334
ɛs˧˧	-5335
▁wis	-5336
ɛmik	-5337
iɾo̞	-5338
▁ank	-5339
aɾɣo	-5340
ɛra	-5341
aɾan	-5342
▁ɲɛz	-5343
itos	-5344
hʌ̹	-5345
▁ˈaŋ	-5346
çiki	-5347
lɔp	-5348
haɕi	-5349
ˈede	-5350
っtem	-5351
▁ɡəj	-5352
▁ɛɾa	-5353
▁fp	-5354
m̩	-5355
ɛpɹ	-5356
ɤ˧ˀ˥	-5357
▁ˈtɑ	-5358
ɡɯ	-5359
ɛɾg	-5360
vɛɾt	-5361
iəɫ	-5362
he	-5363
ʌ̹ŋɡ	-5364
enɐs	-5365
ˈarə	-5366
ʊŋk	-5367
▁tɛj	-5368
ɫv	-5369
əɪn	-5370
mei	-5371
▁kɹ	-5372
ɑˈt	-5373
▁ˈɑb	-5374
ɝdʒ	-5375
tuk	-5376
nɐ̯	-5377
iβa	-5378
it͡s	-5379
▁vak	-5380
rv	-5381
▁hɯə	-5382
ɪɫm	-5383
haɾi	-5384
▁daˈ	-5385
ɕis	-5386
fɔn	-5387
▁fˈi	-5388
ina̠	-5389
▁tʁo	-5390
gɛnt	-5391
kam	-5392
▁ɤ̆ŋ	-5393
tin	-5394
ːɯm	-5395
jud	-5396
bˌe	-5397
ha̠m	-5398
ˌaː	-5399
ʌs	-5400
let	-5401
▁ezi	-5402
uʂ	-5403
ɛʁʃ	-5404
▁tɾe	-5405
ɕhuɭ	-5406
▁ont	-5407
ɛlla	-5408
ɪɹiz	-5409
iɣ	-5410
æmz	-5411
bləm	-5412
tad	-5413
ɛmɑ̃	-5414
▁sak	-5415
▁ɛw	-5416
ʃtɾ	-5417
ˈium	-5418
ˈomp	-5419
▁ɸwu	-5420
▁năŋ	-5421
▁suo	-5422
vj	-5423
gana	-5424
thʌ̹	-5425
hu	-5426
ɨɾ̪ɯ	-5427
▁teŋ	-5428
be̞	-5429
▁ɣɔ	-5430
atti	-5431
▁pʌɖ	-5432
ris	-5433
æŋk	-5434
eɾeb	-5435
ɛsi	-5436
▁pɛr	-5437
ɯɾe̞	-5438
▁pɑː	-5439
▁ʁɨʃ	-5440
stiŋ	-5441
˧˧b	-5442
▁cˌ	-5443
▁ək	-5444
ʐɛɲa	-5445
pːɯ	-5446
ffən	-5447
izo	-5448
stas	-5449
ʊxən	-5450
ẽb	-5451
ərˈa	-5452
ənθs	-5453
ɾav	-5454
▁zab	-5455
ɡz	-5456
tuf	-5457
ɝmən	-5458
▁nũ	-5459
jaŋ	-5460
pənd	-5461
▁vji	-5462
▁kʊ	-5463
ˈans	-5464
▁nut	-5465
▁mət	-5466
ɔŋɡ	-5467
ɛksp	-5468
ˌbʊk	-5469
ɛɾʃ	-5470
ɑ̃se	-5471
ipt	-5472
jəɫ	-5473
▁zw	-5474
ˌsp	-5475
ˈsk	-5476
ɔdu	-5477
kti	-5478
ɔri	-5479
äːn̪	-5480
æstɝ	-5481
ups	-5482
ɾao	-5483
▁saw	-5484
ɝnz	-5485
bak	-5486
steɾ	-5487
ken	-5488
▁ɑl	-5489
ʊdən	-5490
ksəɫ	-5491
▁ʁu	-5492
▁pɐɾ	-5493
ッpɯ	-5494
taɲ	-5495
əˌd	-5496
ɐnu	-5497
ɕɯ	-5498
ʝekt	-5499
sɝ	-5500
naɾ	-5501
ɥit	-5502
ɖɐ	-5503
hˈe	-5504
lˈa	-5505
kjɛm	-5506
▁meː	-5507
ɫəm	-5508
βu	-5509
▁ɹe	-5510
▁nɤ̆	-5511
▁ˈsɔ	-5512
van	-5513
aɾon	-5514
▁bɛn	-5515
ɹɑp	-5516
mak	-5517
ɾaes	-5518
ˈɪɡ	-5519
ɛllə	-5520
bˈɑː	-5521
idˈu	-5522
miː	-5523
dd͡ʒ	-5524
eɪnd	-5525
ɕho̞	-5526
ɑtə	-5527
ɔvji	-5528
ɦɐ	-5529
ant͡	-5530
ɔnɔm	-5531
▁me̞	-5532
ʌɾ̪ɯ	-5533
ɔɹiz	-5534
beɴ	-5535
stro	-5536
ure	-5537
▁ʁəv	-5538
pen	-5539
ɑnst	-5540
ktoɾ	-5541
▁ɡɐ	-5542
sen	-5543
▁lɛd	-5544
phjo	-5545
ʈːɾ	-5546
ˈni	-5547
par	-5548
ətɝ	-5549
tana	-5550
ord	-5551
səm	-5552
əˌb	-5553
sim	-5554
ˈio	-5555
ikɐs	-5556
ɦɔ	-5557
a̠ɭɭ	-5558
yʁe	-5559
kete	-5560
▁ʈɯ	-5561
eːns	-5562
rj	-5563
ɛntɝ	-5564
▁puɭ	-5565
mis	-5566
▁pɯ	-5567
っto	-5568
ents	-5569
ɡɰi	-5570
khe̞	-5571
dam	-5572
stfɔ	-5573
▁isi	-5574
tiβo	-5575
ɛrj	-5576
lab	-5577
▁beː	-5578
ˈons	-5579
ɝəs	-5580
nao	-5581
ijeː	-5582
▁ɔkr	-5583
っtek	-5584
tʃiv	-5585
▁kɔp	-5586
ɭd͡ʑ	-5587
▁ˌɪt	-5588
ogaɴ	-5589
oro	-5590
ˈseɪ	-5591
bo̞n	-5592
ɛdɪt	-5593
▁ɣe	-5594
pɾes	-5595
▁zax	-5596
▁dib	-5597
▁lĩ	-5598
▁ˌɹi	-5599
ˈeːt	-5600
▁ɾa̠	-5601
iːfə	-5602
▁vɨs	-5603
▁aʃ	-5604
ẽsɐ	-5605
▁sɐ̃	-5606
ẽtus	-5607
oːl̪	-5608
ˈax	-5609
stru	-5610
▁ˈax	-5611
͈a̠	-5612
anˌf	-5613
▁zɔl	-5614
▁ˌɪ	-5615
ɔlɔɡ	-5616
▁xɔj	-5617
ʌkːʌ	-5618
imin	-5619
ɪθ	-5620
we˧˧	-5621
▁kɯm	-5622
eɪni	-5623
ə̃mb	-5624
▁ɐnu	-5625
hˈar	-5626
jɔ̃z	-5627
▁rɔb	-5628
eːɾ̪	-5629
▁ɔʒi	-5630
▁aɡɔ	-5631
diəz	-5632
▁tʂɛ	-5633
anos	-5634
hɐ	-5635
▁nɛj	-5636
ɕhɛ̝	-5637
ɔɾtɨ	-5638
▁ɸɯ	-5639
▁pʌ̹	-5640
ə˩˧	-5641
s̪iː	-5642
ɔŋɝ	-5643
ink	-5644
vər	-5645
orn	-5646
ˈɛa	-5647
pɛʁ	-5648
▁sɔm	-5649
tˈs	-5650
ˈhal	-5651
t͈ø̞	-5652
ˈomi	-5653
▁iðe	-5654
wˈe	-5655
▁ˌik	-5656
sono	-5657
ˈalo	-5658
ˈɔrə	-5659
arj	-5660
tn	-5661
vɔɾ	-5662
ɕina	-5663
▁kõf	-5664
sið	-5665
poɾ	-5666
▁spe	-5667
▁tus	-5668
▁isp	-5669
ɣɐ	-5670
▁zar	-5671
▁oɾi	-5672
s̪ɐ	-5673
▁wa̠	-5674
ɔdɨ	-5675
▁iŋ	-5676
häː	-5677
aŋən	-5678
ansp	-5679
▁põ	-5680
ɑdi	-5681
ɛrv	-5682
bra	-5683
itʃɝ	-5684
əɫti	-5685
ɑdʒ	-5686
▁apo	-5687
ɔvɔ̃	-5688
atˈi	-5689
▁ɡəl	-5690
odot	-5691
waˈ	-5692
▁eɾa	-5693
▁ŋɡ	-5694
məns	-5695
ˈuku	-5696
ʂɛɡɔ	-5697
▁ɥ	-5698
▁kuː	-5699
aɪəɫ	-5700
alˈa	-5701
▁bax	-5702
ɔvaw	-5703
ɛŋθ	-5704
t͈ɛ̝	-5705
ejɾa	-5706
jokɯ	-5707
▁ˌn	-5708
əʈ	-5709
ədz	-5710
ɛrɨ	-5711
inɐ	-5712
▁wəb	-5713
ɛlle	-5714
oʊˌk	-5715
▁dav	-5716
▁sən	-5717
koɴ	-5718
▁tap	-5719
ʋeː	-5720
▁fej	-5721
aβ	-5722
ʌmɨɻ	-5723
emb	-5724
ɾop	-5725
▁ˈfɑ	-5726
asn̩	-5727
pɑɹt	-5728
iβo	-5729
wes	-5730
uni	-5731
▁t̪ʌ	-5732
▁vw	-5733
eneʁ	-5734
əbdʒ	-5735
▁paɡ	-5736
ˈveɪ	-5737
xə	-5738
ndaŋ	-5739
aðɐ	-5740
▁eff	-5741
ɛnta	-5742
ɔrj	-5743
uɫi	-5744
▁noɾ	-5745
▁sʌ	-5746
ænɪŋ	-5747
▁rit	-5748
eːks	-5749
ɔɹk	-5750
inɡ	-5751
ˌaʊt	-5752
ʃəs	-5753
▁ˌpɹ	-5754
uːs	-5755
ʊmən	-5756
mj	-5757
dʌ̹n	-5758
ajo	-5759
ɔmmt	-5760
ʏç	-5761
▁fab	-5762
rˈaː	-5763
ire	-5764
səd	-5765
ajʃ	-5766
ˈaar	-5767
ɔgɾ	-5768
iəˌɫ	-5769
jast	-5770
▁dəs	-5771
▁pji	-5772
▁fɐm	-5773
sona	-5774
▁exe	-5775
oɕit	-5776
in̪ɐ	-5777
zɛts	-5778
ikt	-5779
▁sop	-5780
iˈsi	-5781
pɔr	-5782
ʝjʌ̹	-5783
teki	-5784
▁d͡z	-5785
eð	-5786
▁dɔl	-5787
▁aut	-5788
A:	-5789
▁ʃaʁ	-5790
aɲa	-5791
▁dja	-5792
▁ʁəm	-5793
vew	-5794
ːɑː	-5795
waje	-5796
ɪgʊŋ	-5797
ʎaɾ	-5798
ky	-5799
l̪ɑː	-5800
ɐs̪	-5801
ɛka	-5802
ˈβes	-5803
▁dʑi	-5804
orno	-5805
t͡ʃt	-5806
▁mɛn	-5807
muɭ	-5808
dˌe	-5809
▁rip	-5810
▁deβ	-5811
ɛʁs	-5812
ˌeː	-5813
vɔɾt	-5814
ɝɪdʒ	-5815
▁vɔj	-5816
ɛtʃi	-5817
ŋi	-5818
əmən	-5819
ɛɾa	-5820
itoɾ	-5821
▁dew	-5822
ix	-5823
onok	-5824
põ	-5825
▁ɡˈi	-5826
ʃtɐʃ	-5827
øn	-5828
ɡɔt	-5829
ˈɛlf	-5830
ɑːg	-5831
ɛvən	-5832
▁s̪ʊ	-5833
▁zas	-5834
▁ˌam	-5835
koː	-5836
vɔ	-5837
hon	-5838
ɔɾjɐ	-5839
▁ɡi͡	-5840
ˈeːs	-5841
waɫ	-5842
keʁ	-5843
emus	-5844
kjim	-5845
eɪɝz	-5846
ɾoɴ	-5847
▁uva	-5848
▁mœ	-5849
ɾʌ̹	-5850
ɔ̃s	-5851
ntas	-5852
▁fɝˈ	-5853
ɛps	-5854
eˈɾ	-5855
iːg	-5856
▁suɾ	-5857
ʒmɑ̃	-5858
▁dɪç	-5859
ˈla	-5860
▁wil	-5861
jɛɡɔ	-5862
▁ɕoɯ	-5863
noɾ	-5864
ɑv	-5865
əpi	-5866
▁dak	-5867
ezid	-5868
▁ʔɑː	-5869
ɑntɹ	-5870
sos	-5871
itam	-5872
o̞ɯn	-5873
ikam	-5874
p̚k͈	-5875
ɛna	-5876
ʒu	-5877
ʎʎa	-5878
gami	-5879
ikus	-5880
t̪əɾ	-5881
ʂɛɲa	-5882
sar	-5883
▁mum	-5884
ˈuli	-5885
uːl̪	-5886
ætɪk	-5887
▁ja̠	-5888
ʊss	-5889
▁bul	-5890
tsa	-5891
ʏnst	-5892
atam	-5893
ʃuəɫ	-5894
▁jăj	-5895
kjix	-5896
▁vʁ	-5897
ˈtən	-5898
▁bɐ̃	-5899
ɕii	-5900
ŋkap	-5901
ɛrno	-5902
ɕiɾe	-5903
dukt	-5904
▁sɛn	-5905
vaɪs	-5906
ɛɹd	-5907
nɐ	-5908
ɐmus	-5909
ˈɪs	-5910
jɛra	-5911
▁eð	-5912
ˈub	-5913
ɾiɾ	-5914
▁but	-5915
ənst	-5916
▁ˈzʏ	-5917
ʈəɾ	-5918
det	-5919
ɔvɔ	-5920
ɔla	-5921
▁ʁɛ	-5922
ert	-5923
aɾja	-5924
tsi	-5925
ndø̞	-5926
▁ɔl	-5927
ʐu	-5928
bʌ̹	-5929
▁poð	-5930
▁ik	-5931
vol	-5932
eːdɐ	-5933
fas	-5934
ɻɯ	-5935
ɐ̃sj	-5936
ˈuŋi	-5937
jutɝ	-5938
ɛɫd	-5939
▁ˈɪz	-5940
tore	-5941
ɪvɫi	-5942
uːk	-5943
ibl	-5944
tɛ̃	-5945
ˈaks	-5946
ɔnɨx	-5947
▁ˈid	-5948
▁ɾo̞	-5949
aɾes	-5950
r̩	-5951
judʒ	-5952
ĭon	-5953
▁dex	-5954
ndɯ	-5955
a̠ɰi	-5956
ɛzəd	-5957
ɹætə	-5958
etti	-5959
▁rak	-5960
ɑmɪk	-5961
ism	-5962
amɛ	-5963
▁pon	-5964
ˈθ	-5965
ɝmz	-5966
˧˧t	-5967
▁mɐn	-5968
əvd	-5969
oʊts	-5970
áː	-5971
▁ɔɕ	-5972
▁ʒø	-5973
▁pus	-5974
ɭɭo̞	-5975
ɐ̃ti	-5976
▁ɐm	-5977
tʃəs	-5978
▁cɯ	-5979
ote	-5980
▁dot	-5981
▁xwa	-5982
zjœʁ	-5983
▁van	-5984
ʃin	-5985
ɛtɨ	-5986
▁iɣ	-5987
▁pɛɦ	-5988
▁ʁəʃ	-5989
tih	-5990
ɑːl	-5991
inaɫ	-5992
▁ʈu	-5993
ʃənd	-5994
oɾð	-5995
pɑn	-5996
▁ŋɯə	-5997
rut	-5998
▁ɰ	-5999
j˩˧	-6000
▁uɲ	-6001
▁lji	-6002
pɛ	-6003
əntʃ	-6004
ʃis	-6005
▁apl	-6006
ænˈt	-6007
▁ɦɐj	-6008
̪iː	-6009
ksi	-6010
▁kɛm	-6011
▁ɛra	-6012
ˈʃiː	-6013
▁sɛk	-6014
ala	-6015
▁ɯm	-6016
▁pɔj	-6017
gaç	-6018
▁seɲ	-6019
bin	-6020
aja	-6021
▁lun	-6022
▁tən	-6023
tup	-6024
kç	-6025
ˈsum	-6026
▁mað	-6027
▁ˌð	-6028
▁fan	-6029
▁pɥ	-6030
æŋ	-6031
▁nʌ̹	-6032
ɛdɪŋ	-6033
▁dov	-6034
▁faŋ	-6035
aɾɯɴ	-6036
upɝ	-6037
gaʁ	-6038
ndeɾ	-6039
▁han	-6040
kor	-6041
▁ɦɐ	-6042
iˈɑɹ	-6043
gaki	-6044
nɝz	-6045
kax	-6046
feʁ	-6047
▁daŋ	-6048
▁paɲ	-6049
▁kot	-6050
bər	-6051
▁kit	-6052
ɛl˧˧	-6053
ɑlən	-6054
ɾaf	-6055
ɔ̃d	-6056
nʊŋ	-6057
ɐt̪ɐ	-6058
isaɾ	-6059
els	-6060
eɾn	-6061
etɛɾ	-6062
haɾ	-6063
idɝz	-6064
iˈeɪ	-6065
▁ɐn̪	-6066
ˈaf	-6067
umz	-6068
iːɖ	-6069
ɛzɔ̃	-6070
ẽtaɾ	-6071
▁tum	-6072
oja	-6073
rɔp	-6074
ex	-6075
ɡaɾ	-6076
▁mj	-6077
ɛʒɝ	-6078
▁ˈwɑ	-6079
ezi	-6080
fjɛt	-6081
▁kt	-6082
ntɾa	-6083
▁əm	-6084
ɾɯto	-6085
▁bˈe	-6086
ˌɛs	-6087
ɔʃ	-6088
a̠ɡ	-6089
▁ʂak	-6090
item	-6091
ʐɛɲɛ	-6092
dɾ	-6093
tavɐ	-6094
▁vø	-6095
œf	-6096
▁diɡ	-6097
▁ple	-6098
ɑps	-6099
▁ˈim	-6100
ɲja̠	-6101
ˈupa	-6102
aðuʃ	-6103
▁ʐɯə	-6104
▁er	-6105
ɝˈaɪ	-6106
ajoɯ	-6107
ɝˌs	-6108
▁ˈaf	-6109
ŋkan	-6110
ʏɾdə	-6111
kad	-6112
inj	-6113
ɫip	-6114
ɛkən	-6115
ikm	-6116
ɪçɐ̯	-6117
aɾas	-6118
▁ʁəp	-6119
dʑɯɴ	-6120
wam	-6121
alnɛ	-6122
▁ø̞	-6123
ɝs	-6124
eːt̪	-6125
mɛnt	-6126
ˌtən	-6127
ɑpt	-6128
▁tul	-6129
yst	-6130
pəs	-6131
ʃl	-6132
ʔɪsp	-6133
anˈa	-6134
itai	-6135
mur	-6136
əpt	-6137
▁arr	-6138
ndɛ̝	-6139
ẽtɨʃ	-6140
ɹənt	-6141
ˈaɪ	-6142
ndɐ	-6143
▁ɪˈn	-6144
ɾesa	-6145
kum	-6146
inod	-6147
▁ɹˈe	-6148
ɡũʃ	-6149
▁ʂɤ̆	-6150
ɐ̯əm	-6151
umi	-6152
▁ɑ̃t	-6153
aːrd	-6154
oʊni	-6155
eta	-6156
▁kɕ	-6157
▁ɲak	-6158
dʒiz	-6159
βɐ	-6160
▁rif	-6161
ˈoːr	-6162
ˈump	-6163
▁ʋɑː	-6164
▁ɛː	-6165
sel	-6166
ɡd	-6167
▁ʦˈə	-6168
▁kup	-6169
▁weβ	-6170
ɫɪvɝ	-6171
ʌ̹nɡ	-6172
wɝdz	-6173
ˌad	-6174
ˌkəm	-6175
iɫz	-6176
msh	-6177
ənˈt	-6178
stf	-6179
ɤj˦˨	-6180
▁opt	-6181
ɡʌɭ	-6182
umin	-6183
ɛnb	-6184
jeː	-6185
oɾia	-6186
id̪	-6187
ˈuːt	-6188
▁sai	-6189
ɛld	-6190
▁jew	-6191
ɡŋ̩	-6192
▁dur	-6193
▁baʁ	-6194
bɐ̯	-6195
ɪtˌt	-6196
ɕeː	-6197
isi	-6198
əmje	-6199
ˈodə	-6200
nem	-6201
arsi	-6202
ʌ̹ɾi	-6203
isja	-6204
ɔɹmz	-6205
ɛntʃ	-6206
aɪps	-6207
ɲd͡ʑ	-6208
ikɪŋ	-6209
▁pəɽ	-6210
tsv	-6211
per	-6212
uɫz	-6213
bɑː	-6214
zɝz	-6215
ʌ̹ɭʎ	-6216
▁soɾ	-6217
▁ĩʃt	-6218
stɨ	-6219
▁ˌas	-6220
ˌgɑː	-6221
ˈɛla	-6222
çtə	-6223
ɡap	-6224
▁ʒu	-6225
▁ˌun	-6226
pˈut	-6227
äːp	-6228
ɛkəɡ	-6229
æfɪk	-6230
ɰβas	-6231
itɫi	-6232
ʒɛt	-6233
ɛlçə	-6234
œː	-6235
ba̠ɭ	-6236
ɔm˨˦	-6237
▁ʁek	-6238
▁zaj	-6239
ern	-6240
ld	-6241
æft	-6242
ɐmuʃ	-6243
ɾɦɛ̝	-6244
▁pɾi	-6245
ˈɣun	-6246
ʂnɛ	-6247
sɯm	-6248
ɹit	-6249
adoʁ	-6250
fer	-6251
▁mɪˈ	-6252
▁vɨp	-6253
ɔmən	-6254
ˈbi	-6255
ɛlən	-6256
ɲˈa	-6257
ˈond	-6258
▁fɛ̃	-6259
ˈilə	-6260
▁nɔʁ	-6261
mɐʃ	-6262
dj	-6263
▁fot	-6264
▁nen	-6265
lɐ̯	-6266
ˈuːk	-6267
shɯn	-6268
hæps	-6269
ˈɔri	-6270
tsə	-6271
gʁe	-6272
wɛm	-6273
abup	-6274
▁att	-6275
jɛnˈ	-6276
uða	-6277
ˌjun	-6278
shɯɭ	-6279
ʌɾ̪ʌ	-6280
eli	-6281
stkɔ	-6282
ŋɡo̞	-6283
▁fɔt	-6284
▁muv	-6285
oʊɫi	-6286
▁luk	-6287
olah	-6288
dəm	-6289
dəns	-6290
d̪äː	-6291
sɛʁ	-6292
▁a̠ɭ	-6293
▁laʁ	-6294
ˈɛnd	-6295
jad	-6296
▁kõv	-6297
ˌva	-6298
▁taŋ	-6299
▁ˌɛr	-6300
ym	-6301
ɪnɝ	-6302
ozi	-6303
ɐ̃ʃ	-6304
ezɑ̃	-6305
ofən	-6306
▁dap	-6307
ɨɣ	-6308
▁cˈo	-6309
dø̞n	-6310
ʊxt	-6311
ʝe	-6312
ʂɛɲɛ	-6313
ĩːn̪	-6314
ɤm˧˧	-6315
ntin	-6316
saki	-6317
əwəɫ	-6318
▁ʒœn	-6319
fʂɛ	-6320
▁hɤ̆	-6321
ɲɔ	-6322
joː	-6323
ent͡	-6324
aɾk	-6325
bɛ̝	-6326
wɔɕ	-6327
▁ɕfj	-6328
lˈeː	-6329
jək	-6330
keɾɯ	-6331
aɪɫi	-6332
ʔiː	-6333
lin	-6334
eːʋ	-6335
▁liɲ	-6336
aɪət	-6337
▁ɯə	-6338
▁uzu	-6339
▁swe	-6340
ijɯ	-6341
ʊŋkt	-6342
jənz	-6343
kjo	-6344
ɾem	-6345
▁o˧˧	-6346
ziz	-6347
dr	-6348
▁ŋaj	-6349
ones	-6350
▁naz	-6351
iɡəɫ	-6352
ŋkˈu	-6353
voɫv	-6354
ɛɫz	-6355
kuv	-6356
cc	-6357
▁ˈʃa	-6358
ba̠n	-6359
ɑ̃bl	-6360
awɛm	-6361
kar	-6362
tei	-6363
▁biː	-6364
ŋa	-6365
fɝɪŋ	-6366
çjoɯ	-6367
▁ɹu	-6368
ɯɾa̠	-6369
noki	-6370
▁djɛ	-6371
▁ʃp	-6372
iːɾ̪	-6373
ˌstɹ	-6374
▁kuw	-6375
osa	-6376
tek	-6377
▁ult	-6378
▁zaɡ	-6379
▁reɣ	-6380
ufis	-6381
øːn	-6382
▁mjø	-6383
iβil	-6384
▁akõ	-6385
ɔsup	-6386
▁pe̞	-6387
▁ˈel	-6388
imd	-6389
ɹɑf	-6390
▁ˈʃɾ	-6391
ɾe̞	-6392
ʃənt	-6393
▁iki	-6394
atɔr	-6395
esiz	-6396
vˌ	-6397
no̞	-6398
mɛ̝	-6399
stu	-6400
uːm	-6401
▁raz	-6402
ɔpɾ	-6403
ɛɫθi	-6404
alja	-6405
tame	-6406
ɔd͡ʑ	-6407
▁ĩv	-6408
ido	-6409
▁mˌe	-6410
ʐɛj	-6411
ɛo	-6412
▁pam	-6413
maɴ	-6414
osˌz	-6415
anˌʃ	-6416
tikl	-6417
▁ɦəm	-6418
ˈɑr	-6419
▁kɯɭ	-6420
▁ɡaɾ	-6421
hadʑ	-6422
idad	-6423
▁fɛt	-6424
ɔsts	-6425
bˈul	-6426
naŋ	-6427
▁sem	-6428
joɾi	-6429
œj	-6430
nimo	-6431
oa	-6432
uɡəɫ	-6433
əˈɡɹ	-6434
adɐs	-6435
▁kuŋ	-6436
fisj	-6437
ɛn˧˧	-6438
ɑdəɫ	-6439
goɾ	-6440
ˈukt	-6441
stɝ	-6442
▁jɔj	-6443
stɾu	-6444
atɨ	-6445
daっt	-6446
mbuh	-6447
▁kle	-6448
eɾ̪	-6449
noj	-6450
ilja	-6451
øːz	-6452
jana	-6453
ɔli	-6454
nano	-6455
oseɴ	-6456
star	-6457
▁dar	-6458
amae	-6459
ɡɾɐ̃	-6460
ˈomt	-6461
ʌ̹ɭɭ	-6462
ɾaɾe	-6463
eza	-6464
tor	-6465
ˌaks	-6466
los	-6467
▁ˌb	-6468
▁ub	-6469
▁ˈtæ	-6470
edo	-6471
vaɲa	-6472
ɛlɛ	-6473
aɪɹ	-6474
▁fũs	-6475
eɪbi	-6476
▁let	-6477
ːi	-6478
▁mju	-6479
oʊθ	-6480
▁wat	-6481
kwe	-6482
asiˈ	-6483
ˌam	-6484
ˈɛin	-6485
ett͡	-6486
▁ˌo	-6487
ækts	-6488
▁ˈaɡ	-6489
ʔɛːɐ	-6490
foʊ	-6491
▁mˌo	-6492
▁ˌɛf	-6493
indi	-6494
ɝnəɫ	-6495
▁esa	-6496
ærk	-6497
▁dɨp	-6498
ɾa̠n	-6499
ɔɲɛ	-6500
eːʀʃ	-6501
ista	-6502
▁siʃ	-6503
ɑpi	-6504
iɾəm	-6505
ɾat	-6506
mz	-6507
əvɝd	-6508
izɐs	-6509
idʑi	-6510
æmˈp	-6511
tuɾɐ	-6512
ɔllə	-6513
aŋə	-6514
dɥi	-6515
ɛtə	-6516
ɹin	-6517
hil	-6518
▁akw	-6519
ɑ̃ʒ	-6520
fɝd	-6521
ɑpɪŋ	-6522
ˈdɪ	-6523
sol	-6524
tono	-6525
axe	-6526
▁pil	-6527
naga	-6528
tˈi	-6529
iveɾ	-6530
ʃɪŋ	-6531
ks͈ɯ	-6532
▁tɨx	-6533
nah	-6534
oma	-6535
▁ˌæ	-6536
bili	-6537
ɡɛ	-6538
isɪz	-6539
bol	-6540
istr	-6541
▁efɛ	-6542
bjoɯ	-6543
jix	-6544
▁leɡ	-6545
▁œʁ	-6546
ɪff	-6547
vɛst	-6548
ise	-6549
ɯɭʎ	-6550
ɰβak	-6551
idɛ̝	-6552
ɐ̯əs	-6553
iɾa̠	-6554
tere	-6555
əj˧˧	-6556
əlˈi	-6557
▁umɐ	-6558
yːr	-6559
ˈuma	-6560
n˧˧	-6561
jɑ	-6562
▁sku	-6563
ˈid	-6564
stɹə	-6565
eɪɫd	-6566
ɑˈg	-6567
▁ˈɛʁ	-6568
ʁɐ	-6569
i͡u	-6570
▁kək	-6571
▁muʎ	-6572
▁ɣom	-6573
ɡa̠m	-6574
guna	-6575
ako	-6576
ʊndə	-6577
san	-6578
ˈɪɹ	-6579
uɾas	-6580
äːʋ	-6581
▁sɔʁ	-6582
▁t̪ɐ	-6583
ɛls	-6584
temo	-6585
jɛɲ	-6586
viz	-6587
ˈɛsi	-6588
ˌɛdi	-6589
ew	-6590
▁vow	-6591
t˧˧	-6592
udɪd	-6593
▁ĩte	-6594
ɪˈi͡	-6595
▁məs	-6596
ɪŋɫi	-6597
▁ɕɐ	-6598
ʏnd	-6599
ɑːn̪	-6600
▁mul	-6601
▁tɾɐ	-6602
kɹ	-6603
tar	-6604
▁sø	-6605
ijɑ̃	-6606
sjaɫ	-6607
ɪʈ	-6608
ɾɛs	-6609
äːɡ	-6610
▁ʒw	-6611
hɲa	-6612
▁ʒoɡ	-6613
ran	-6614
ɾokɯ	-6615
▁nɔʃ	-6616
▁muj	-6617
ɔlg	-6618
ˈvɛn	-6619
▁eb	-6620
▁maɲ	-6621
aiɴ	-6622
ɪkst	-6623
t̪i	-6624
ʒə	-6625
▁ei	-6626
tɛn	-6627
eɾik	-6628
sivd	-6629
gaɽ	-6630
unto	-6631
▁ɡʊ	-6632
eɪdz	-6633
▁zˈɪ	-6634
▁ʂɨp	-6635
ænj	-6636
œɾt	-6637
ɫiɝ	-6638
▁suk	-6639
▁eko	-6640
▁hal	-6641
▁hˌe	-6642
▁lab	-6643
ɔrja	-6644
rʌɪ̯	-6645
hoː	-6646
uθ	-6647
▁jˌ	-6648
▁pɛ	-6649
dʌ̹	-6650
meɾɯ	-6651
▁wal	-6652
noɕi	-6653
▁ʔʊm	-6654
ɛɾnu	-6655
ɔn˧˧	-6656
pli	-6657
▁pɛw	-6658
▁ɲɛp	-6659
len	-6660
▁off	-6661
ɪɫi	-6662
▁pœv	-6663
tw	-6664
da̠m	-6665
phɯ	-6666
▁vja	-6667
ulu	-6668
ˈnom	-6669
oˈ	-6670
ɪmmt	-6671
▁pei	-6672
maxt	-6673
eɲo	-6674
ɛŋ˦˨	-6675
ɪˌs	-6676
aɾɯd	-6677
▁uw	-6678
cten	-6679
▁ne̞	-6680
manf	-6681
ɛnnt	-6682
stin	-6683
ˈuaŋ	-6684
▁ʋe	-6685
ɪntɹ	-6686
ɛstɨ	-6687
vənt	-6688
haja	-6689
▁ʊt̪	-6690
ʊŋz	-6691
ʝo	-6692
ura	-6693
ˈɛsa	-6694
jed	-6695
▁niβ	-6696
▁puː	-6697
ˈes	-6698
ˈso	-6699
ʃɐ	-6700
▁tɾi	-6701
▁piː	-6702
vja	-6703
com	-6704
noka	-6705
▁ljø	-6706
▁dɔb	-6707
▁ɡra	-6708
sɔ̃	-6709
▁tɛx	-6710
▁t̪o	-6711
ux	-6712
isto	-6713
▁fˌe	-6714
sin	-6715
ɾaðu	-6716
jid	-6717
ɾon	-6718
əsəs	-6719
anat	-6720
iˈts	-6721
zen	-6722
æpt	-6723
wo	-6724
kʁ	-6725
ɹˈɪ	-6726
ɔfi	-6727
ɪnˌt	-6728
eːma	-6729
ʃäː	-6730
ɑnts	-6731
jˈɑː	-6732
▁bɾi	-6733
ɡram	-6734
ɔʐ	-6735
imɑ̃	-6736
ndiŋ	-6737
ɔne	-6738
anɨx	-6739
itak	-6740
ɭʎi	-6741
saɪ	-6742
jano	-6743
▁rɔs	-6744
dust	-6745
▁aɡw	-6746
▁ɲiʂ	-6747
okaɾ	-6748
ɪˌk	-6749
▁pɥi	-6750
ɛrto	-6751
ˈʀ	-6752
sz	-6753
ĭons	-6754
▁loj	-6755
ɑdə	-6756
▁kop	-6757
zɐs	-6758
esi	-6759
ɛɫoʊ	-6760
▁hat	-6761
ˌoʊ	-6762
ˌɡ	-6763
ɛɹən	-6764
ɝət	-6765
etʃ	-6766
uti	-6767
a̠ŋb	-6768
▁moð	-6769
amẽ	-6770
ikaɾ	-6771
▁dol	-6772
sw	-6773
vəl	-6774
ɔɹmd	-6775
ɾakɯ	-6776
lɪnə	-6777
ɾaˈ	-6778
▁tur	-6779
ɝni	-6780
ɨmji	-6781
nduŋ	-6782
xos	-6783
adas	-6784
ides	-6785
æsɪz	-6786
ɾən	-6787
▁dil	-6788
ɣuɾi	-6789
ɔpʁ	-6790
tɛ	-6791
ˈɜː	-6792
▁pɔʁ	-6793
ɑˈm	-6794
bɯɭ	-6795
ahˈa	-6796
▁ˈtɕ	-6797
ʊɾk	-6798
ɑ̃dy	-6799
ɪɡn	-6800
ɔxən	-6801
ʊɫi	-6802
ˈink	-6803
▁koʊ	-6804
əŋɡ	-6805
naɫ	-6806
ndis	-6807
ɪˈtu	-6808
ɛndɝ	-6809
swa	-6810
gəˈz	-6811
kont	-6812
▁dai	-6813
ɹiʃi	-6814
▁jɔ	-6815
ener	-6816
əmft	-6817
əlˌ	-6818
▁lõ	-6819
ɑ̃ʃ	-6820
▁lɨv	-6821
▁ʐu	-6822
ntɝv	-6823
inai	-6824
lajn	-6825
iːkt	-6826
ˈook	-6827
▁suβ	-6828
ikw	-6829
ɔkt	-6830
sɐs	-6831
stæb	-6832
▁toj	-6833
æməɫ	-6834
isti	-6835
n̪s̪	-6836
bam	-6837
oɾaɾ	-6838
iːʋ	-6839
baɾ	-6840
war	-6841
wuɡ	-6842
▁o̞n	-6843
▁vər	-6844
ˈxia	-6845
ɡəˌn	-6846
▁a˧˧	-6847
▁zdr	-6848
wis	-6849
▁kɔɲ	-6850
plɛt	-6851
vɝˌ	-6852
akan	-6853
ndɯɭ	-6854
heɪv	-6855
awam	-6856
ʏl	-6857
ˈlit	-6858
oʊˈm	-6859
jok	-6860
▁naw	-6861
▁ʔʌn	-6862
jä̃ː	-6863
ɕija	-6864
▁keo	-6865
▁klu	-6866
ɪdʒd	-6867
enas	-6868
ɔɾm	-6869
ɨl	-6870
ɡˈe	-6871
▁ɪˈs	-6872
isaˈ	-6873
ɰβam	-6874
k˧˧	-6875
eten	-6876
ətə	-6877
▁ʂu	-6878
▁omb	-6879
ɦa̠ŋ	-6880
kʂ	-6881
ɔmm	-6882
ɪdəɫ	-6883
stər	-6884
iˈdi	-6885
t̪ɑː	-6886
əkh	-6887
əfi	-6888
ˌdɹ	-6889
kol	-6890
ɪtɪd	-6891
udo̞	-6892
itɛʁ	-6893
▁sau	-6894
itɐ	-6895
gɐ̯	-6896
ɛmpt	-6897
ɑnə	-6898
nˈi	-6899
ɔrɨ	-6900
ɡˈaŋ	-6901
ɹoː	-6902
▁vɛp	-6903
▁rom	-6904
stˈi	-6905
▁ɔɾɣ	-6906
▁mɔʁ	-6907
äːb	-6908
tiɣ	-6909
oʊɝ	-6910
sˈu	-6911
ɛmu	-6912
▁ɾe̞	-6913
ũtu	-6914
kwɪp	-6915
idɝ	-6916
äːm	-6917
ɾen	-6918
iːz	-6919
sɨm	-6920
ntɔr	-6921
ɛɲɛ	-6922
ˌec	-6923
tivo	-6924
ɔɫɪŋ	-6925
bao	-6926
͡ʃ	-6927
ʂnɨx	-6928
ɾaðo	-6929
ˈʃa	-6930
bete	-6931
ɪŋt	-6932
iβos	-6933
naj	-6934
hˌat	-6935
▁sod	-6936
▁faw	-6937
▁deb	-6938
▁mel	-6939
ɛɫps	-6940
▁bjɛ	-6941
ʊkh	-6942
ndʒd	-6943
uvi	-6944
▁ʁiw	-6945
kaðo	-6946
ɑːz	-6947
▁dăŋ	-6948
yɾt	-6949
ˈiwa	-6950
pend	-6951
nal	-6952
jɛɲa	-6953
ɐnɐ	-6954
͡ʊr	-6955
ɹɛd	-6956
ɾeɴ	-6957
ˈvɛs	-6958
uːte	-6959
ʊʁ	-6960
elt	-6961
jəˌɫ	-6962
dasa	-6963
▁pˈe	-6964
alu	-6965
ɾez	-6966
kɫ	-6967
ˌeu	-6968
ˈem	-6969
phe̞	-6970
fle	-6971
aːkt	-6972
▁ɡuv	-6973
ˈomə	-6974
▁mɔr	-6975
ˌθ	-6976
kami	-6977
kɕ͈i	-6978
▁tɯɾ	-6979
uso	-6980
itta	-6981
ɔstu	-6982
ɪçtə	-6983
okoɾ	-6984
ˌbɔɫ	-6985
raʂ	-6986
odoɯ	-6987
pənz	-6988
kɑn	-6989
ɔɹdʒ	-6990
diŋ	-6991
dar	-6992
ˈɡɹ	-6993
ɔɹɪŋ	-6994
▁lˈ	-6995
ilka	-6996
▁toɯ	-6997
▁ʋɐ	-6998
ˈakə	-6999
ɔøf	-7000
ɔɡz	-7001
▁biβ	-7002
oːɖ	-7003
bˈɛs	-7004
ɛndʒ	-7005
v˧˧	-7006
ˌtɾ	-7007
ɾɦa̠	-7008
▁pɔw	-7009
ɡono	-7010
ɑdɝn	-7011
ɔʁe	-7012
▁lɛk	-7013
osˌf	-7014
ˈi͡ə	-7015
niki	-7016
hodo	-7017
▁fɾe	-7018
ɡɛt	-7019
fst	-7020
eɾaˈ	-7021
osoɯ	-7022
pɫaɪ	-7023
▁ɲix	-7024
▁bja	-7025
taʎ	-7026
ta͡ɪ	-7027
isj	-7028
asˈa	-7029
kah	-7030
vat	-7031
pɕ͈i	-7032
dˈa	-7033
iŋɡ	-7034
taː	-7035
▁ˈab	-7036
▁idɛ	-7037
un̪ɐ	-7038
▁ɐmi	-7039
ɡˌe	-7040
egəˌ	-7041
lɪçt	-7042
▁vˈ	-7043
kiɴ	-7044
sul	-7045
▁if	-7046
ɳiː	-7047
ɑ̃pl	-7048
ɛntə	-7049
▁n̪ə	-7050
jl	-7051
▁ɲɛm	-7052
ijõː	-7053
kaɾɯ	-7054
vɛk	-7055
▁mol	-7056
wad	-7057
ɾiɡ	-7058
▁stʁ	-7059
▁ʂɤm	-7060
ndam	-7061
▁ˈði	-7062
fyɾ	-7063
ett	-7064
ɔɾg	-7065
▁koɯ	-7066
▁ʋəɦ	-7067
ɯna	-7068
avi	-7069
kɯk	-7070
ɾaða	-7071
ʁaʒ	-7072
ɫɪdʒ	-7073
plu	-7074
d͡ʑɯ	-7075
tadu	-7076
ɔle	-7077
▁kla	-7078
ɳɖɯ	-7079
▁fɹ	-7080
ɛstɐ	-7081
▁ade	-7082
▁dɛ̃	-7083
▁zat	-7084
ʌŋɡ	-7085
ʌ̹ŋi	-7086
tiðo	-7087
utaɾ	-7088
ozu	-7089
▁imf	-7090
øːt	-7091
ftə	-7092
▁naɴ	-7093
artɔ	-7094
bəd	-7095
ɛpr	-7096
oːʈ	-7097
a͡ʊ	-7098
izi	-7099
sɯk	-7100
alɛʐ	-7101
▁fiw	-7102
hɑː	-7103
ɛːɾe	-7104
▁pað	-7105
ăw	-7106
ndu	-7107
ɹɪdʒ	-7108
▁veʁ	-7109
▁pri	-7110
▁ˌɛ	-7111
nih	-7112
ɔm˧˧	-7113
ˌɾʏk	-7114
▁dyʁ	-7115
lˈoː	-7116
pwe	-7117
uɾaɾ	-7118
ɯɭːʌ	-7119
▁kwi	-7120
iso	-7121
ˈɔrd	-7122
axə	-7123
əˈsi	-7124
ɪnts	-7125
▁cin	-7126
ˈsɛp	-7127
t͡si	-7128
ɛrso	-7129
vˈe	-7130
ˈɫis	-7131
▁ɛ̃d	-7132
ɲaɾ	-7133
▁fĩ	-7134
▁kn	-7135
init	-7136
iɾɐ̯	-7137
ɹəkt	-7138
▁eʎa	-7139
▁sow	-7140
▁əf	-7141
sfəɫ	-7142
▁mɔt	-7143
▁vɹ	-7144
eɾte	-7145
ekta	-7146
▁buʃ	-7147
ɨsim	-7148
kaðu	-7149
▁miɾ	-7150
▁peʁ	-7151
jaɫ	-7152
phi	-7153
▁ˈɡæ	-7154
ozo	-7155
nje	-7156
ɔdɐ	-7157
▁ʔʌm	-7158
ɛlə	-7159
ɔp˧˧	-7160
ɛrɛs	-7161
kim	-7162
mædʒ	-7163
ʒɛtu	-7164
eɪmd	-7165
ʝa	-7166
ktɪv	-7167
ɛ̃t	-7168
kokɯ	-7169
▁ʊp	-7170
ɖʌn	-7171
nito	-7172
yme	-7173
▁dẽ	-7174
jɑ̃s	-7175
ẽj̃ʃ	-7176
▁nɛt	-7177
ven	-7178
ɔtka	-7179
ɥas	-7180
▁zɔb	-7181
ɔɹən	-7182
▁boɐ	-7183
▁bɔl	-7184
ɲjo	-7185
▁săj	-7186
zɨ	-7187
▁ˈma	-7188
jʌ̹m	-7189
wa̠n	-7190
isəb	-7191
˧˧ʐ	-7192
eːɕ	-7193
iβeɾ	-7194
onot	-7195
top	-7196
tabl	-7197
▁rɛk	-7198
▁tok	-7199
eri	-7200
etta	-7201
▁siɲ	-7202
niŋ	-7203
▁ɡən	-7204
arɡ	-7205
ɛntɨ	-7206
fjɛr	-7207
əˌz	-7208
ɛɲu	-7209
ɔss	-7210
ːən	-7211
ʐɛɲ	-7212
eːd̪	-7213
▁uso	-7214
ɯɾim	-7215
͡ʊk	-7216
imeɾ	-7217
ɕiɾ	-7218
▁hiə	-7219
ntɾo	-7220
dˈɛŋ	-7221
▁pəd	-7222
▁dah	-7223
eːɕɐ	-7224
▁ser	-7225
▁ˈɔr	-7226
ɲim	-7227
ik˧˧	-7228
emas	-7229
ɪndə	-7230
bət	-7231
▁ɲim	-7232
▁vɨb	-7233
k̚p͈	-7234
ăw˧˨	-7235
▁ˈbʀ	-7236
ʊnft	-7237
ʂʈ	-7238
ɲɲa	-7239
aɪdɝ	-7240
▁rex	-7241
ɾuʃ	-7242
zənz	-7243
kwad	-7244
▁ʒuɾ	-7245
wiɾ	-7246
bˌɛr	-7247
▁ai	-7248
uːl	-7249
osˌʔ	-7250
▁ga	-7251
bjo	-7252
▁eʎo	-7253
əˈɫu	-7254
itsə	-7255
ɔɹdz	-7256
▁daʁ	-7257
ˈoʊ	-7258
obˈa	-7259
ndah	-7260
osˌ	-7261
ɾɑ	-7262
▁pje	-7263
ɪde	-7264
daʁ	-7265
kus	-7266
idas	-7267
βɾ	-7268
ɛrta	-7269
▁vaɾ	-7270
ɛbɨ	-7271
ɪɡjɝ	-7272
kɾe	-7273
ɛnst	-7274
▁kɔt	-7275
▁kɨ	-7276
▁təm	-7277
etas	-7278
▁ake	-7279
▁ˈɝθ	-7280
ə̃ŋk	-7281
vɝˌt	-7282
tuʐɨ	-7283
eʁɑ̃	-7284
deɾ	-7285
▁by	-7286
ɛrka	-7287
▁gəm	-7288
tand	-7289
ʊɾt	-7290
ˈeld	-7291
zɐ̯	-7292
əktɝ	-7293
っtaɾ	-7294
ansa	-7295
▁kɔʂ	-7296
ɹaːl	-7297
▁ˌɑ	-7298
ɳɖɯm	-7299
▁ɡeː	-7300
kho̞	-7301
taka	-7302
▁ˌe	-7303
ɛtɪk	-7304
amen	-7305
▁lis	-7306
dˌ	-7307
▁ɑːm	-7308
ɑnvɝ	-7309
▁xar	-7310
▁ən̪	-7311
rɛs	-7312
▁gan	-7313
▁kˌo	-7314
mjin	-7315
çiɾo	-7316
▁yni	-7317
ɛɾtə	-7318
ɪnɪʃ	-7319
▁ʦˌ	-7320
ɛ̝n	-7321
ætˌf	-7322
ˈoma	-7323
▁lwe	-7324
ikç	-7325
ɛsa	-7326
esið	-7327
ɛ̝ŋɡ	-7328
mus	-7329
▁bil	-7330
ezɨʃ	-7331
tuʁ	-7332
zoɴ	-7333
ˈunt	-7334
azɯ	-7335
last	-7336
ɔɾju	-7337
▁kʂ	-7338
ɑ̃sɛ	-7339
o̞a̠	-7340
haçi	-7341
əˈuː	-7342
ˈʔan	-7343
hʌ̹n	-7344
dom	-7345
ɑɡɹ	-7346
ɫɛk	-7347
▁liʁ	-7348
ẽde	-7349
▁mw	-7350
ɛŋ˩˧	-7351
isil	-7352
▁viɾ	-7353
ozə	-7354
fɪnd	-7355
ɨd̪	-7356
ɪvd	-7357
anai	-7358
▁vˌe	-7359
▁ɫ	-7360
ɹɛŋθ	-7361
▁lɛp	-7362
▁ɐrv	-7363
pɾo	-7364
ajˈa	-7365
bjɔr	-7366
▁laŋ	-7367
▁ˌæk	-7368
kamo	-7369
çid	-7370
made	-7371
ʌj	-7372
ipɪŋ	-7373
ɪsəp	-7374
▁jäː	-7375
▁alb	-7376
əkw	-7377
ɪɫɪŋ	-7378
ɯk͈	-7379
bit	-7380
kaʊz	-7381
rist	-7382
t̪ːa	-7383
▁mäː	-7384
jama	-7385
vɛʁt	-7386
▁ˈɔt	-7387
oɣ	-7388
kuw	-7389
▁kai	-7390
ˈaɹ	-7391
pp	-7392
sal	-7393
▁pɾɛ	-7394
ẽdɐ	-7395
▁mja	-7396
ɔɪiz	-7397
ho̞	-7398
ẽːm	-7399
ænts	-7400
▁map	-7401
pˈa	-7402
ˈmɪn	-7403
ɑti	-7404
ɐs̪ɐ	-7405
ɐnjɐ	-7406
əfəˈ	-7407
ɡji	-7408
fjik	-7409
▁ɛr	-7410
ɨkː	-7411
ɡɛ̝	-7412
ˈiah	-7413
▁məz	-7414
ɹəs	-7415
ˌtʃ	-7416
ʌ̹ŋm	-7417
ɛmən	-7418
▁ɔfʁ	-7419
▁ət	-7420
ɑnɪk	-7421
sah	-7422
ˈɪm	-7423
ɑɹdz	-7424
ɐn̪	-7425
ɲum	-7426
▁pok	-7427
stɔɹ	-7428
əmäː	-7429
lao	-7430
ˈomo	-7431
ɑgə	-7432
ykt	-7433
ʂɨn	-7434
xtən	-7435
ɔlɔ	-7436
nthɯ	-7437
pɔʁ	-7438
even	-7439
t̚t͈	-7440
ɔsta	-7441
noko	-7442
zʊx	-7443
otoɯ	-7444
ッp	-7445
spɾ	-7446
apˈe	-7447
▁ɯɭ	-7448
əbˈi	-7449
ˌbæk	-7450
oseɾ	-7451
ɔɹmɝ	-7452
ʒɛkt	-7453
▁zˌ	-7454
ezən	-7455
iɾən	-7456
▁dj	-7457
pˈi	-7458
ɑɹks	-7459
ws	-7460
ɪʃɐ̯	-7461
xɯ	-7462
▁ʌ̹n	-7463
▁ɡu	-7464
slim	-7465
▁nɔj	-7466
ɾɯi	-7467
ɛktɝ	-7468
kˈu	-7469
ce	-7470
laop	-7471
ɕl	-7472
iːbə	-7473
ˈuri	-7474
ɦɔt̪	-7475
ɡur	-7476
▁saβ	-7477
nes	-7478
▁ˈɪɫ	-7479
▁dɹ	-7480
mˈu	-7481
ujɔ̃	-7482
▁toɾ	-7483
▁əɪg	-7484
ikaɴ	-7485
▁maʒ	-7486
emi	-7487
▁riv	-7488
side	-7489
upu	-7490
ɡˈɛ	-7491
ɡe	-7492
kto	-7493
əʁɛ	-7494
gaka	-7495
▁pẽs	-7496
ədiz	-7497
ʁas	-7498
̃n̪ɦ	-7499
ɲɛɲa	-7500
etak	-7501
rap	-7502
çik	-7503
ædʒu	-7504
▁peː	-7505
ʌr	-7506
vjɔ̃	-7507
fər	-7508
▁taʁ	-7509
a̠ŋi	-7510
uɾo	-7511
ɪzi	-7512
artf	-7513
ẽj̃s	-7514
nɪt	-7515
▁jˈo	-7516
ɾaðɐ	-7517
eɾia	-7518
çtən	-7519
ẽsi	-7520
eçən	-7521
dɯŋ	-7522
▁ˈmʊ	-7523
▁uti	-7524
meɾ	-7525
aktə	-7526
kluz	-7527
▁xɤj	-7528
sih	-7529
iːlt	-7530
ɛro	-7531
p̚t͈	-7532
utɫi	-7533
▁nw	-7534
nov	-7535
ætəɫ	-7536
▁ɡa	-7537
▁lˌe	-7538
usto	-7539
kɑm	-7540
eːts	-7541
ɑrt	-7542
▁øʁ	-7543
ˈfɑɾ	-7544
geki	-7545
itan	-7546
kaof	-7547
ŋɡa	-7548
kst	-7549
ɪɹd	-7550
mine	-7551
ɳʈ	-7552
ˌdəm	-7553
ənˈa	-7554
ˈɑn	-7555
ɪdeɪ	-7556
▁vʁɛ	-7557
aɽə	-7558
d͡ʐ	-7559
enos	-7560
ˌdɾ	-7561
bek	-7562
▁ʃh	-7563
ɑzən	-7564
itaw	-7565
iˌ	-7566
ɾoɯ	-7567
iɾɯɭ	-7568
uːf	-7569
pɔst	-7570
▁ʃɛʁ	-7571
əˈmɝ	-7572
▁bin	-7573
▁ʁiʃ	-7574
ˈlan	-7575
yʁɛl	-7576
tnɑ̃	-7577
▁ˌæn	-7578
itʃi	-7579
œst	-7580
nɛnt	-7581
tiðu	-7582
ˈoːɪ	-7583
▁ɪˈv	-7584
adɔm	-7585
st͡s	-7586
õːn̪	-7587
ɣas	-7588
▁aɾt	-7589
▁bel	-7590
▁sx	-7591
ɛff	-7592
gəˈh	-7593
ogən	-7594
xən	-7595
əˌtu	-7596
maɾe	-7597
▁ip	-7598
ɛnˈ	-7599
daj	-7600
▁ɛf	-7601
ɡɹɛs	-7602
▁paʒ	-7603
ɹoʊp	-7604
o̞sh	-7605
▁øyt	-7606
tʃos	-7607
ˈɫɛs	-7608
ɑ̃ti	-7609
͡uː	-7610
▁rˌɛ	-7611
aɾo	-7612
ət̪̚	-7613
isjo	-7614
duŋ	-7615
▁naŋ	-7616
ɔtto	-7617
ibil	-7618
ˈola	-7619
geɾ	-7620
ɾl	-7621
ẽdeɾ	-7622
djo	-7623
ɯkːʌ	-7624
ukɐs	-7625
bja	-7626
ˈtə	-7627
ubl	-7628
▁nun	-7629
jale	-7630
ulas	-7631
▁iɡ	-7632
▁fuʁ	-7633
iːʁɐ	-7634
vjis	-7635
▁wik	-7636
ɨtɨ	-7637
nimi	-7638
▁ˌɔt	-7639
udi	-7640
ɪgəs	-7641
ænsɝ	-7642
▁bəh	-7643
rˈa	-7644
nər	-7645
▁bib	-7646
onon	-7647
uppo	-7648
hɛd	-7649
ə͡ʊ	-7650
t͡ɕu	-7651
ɛntr	-7652
▁rɛɡ	-7653
rak	-7654
▁ved	-7655
ɛnɝ	-7656
sone	-7657
wɔvo	-7658
ɾɔ	-7659
əʁa	-7660
iːdə	-7661
ɔ̃ʂ	-7662
ʒmu	-7663
ʁɔn	-7664
oʊtʃ	-7665
ækɪŋ	-7666
dav	-7667
vɛɾk	-7668
ekaɾ	-7669
œff	-7670
▁mɨɾ	-7671
ʁit	-7672
na̠m	-7673
ɹəɡ	-7674
ɛssi	-7675
▁gl	-7676
atif	-7677
wˈar	-7678
ɪʃəs	-7679
ɔma	-7680
tis	-7681
ɫdɝ	-7682
a̠ɡi	-7683
ɛtti	-7684
urɨ	-7685
ɔtɨ	-7686
iðɐ	-7687
ɾet	-7688
tˈu	-7689
▁pʁɛ	-7690
oo	-7691
ɔɪ̯	-7692
ʌ̹ɭm	-7693
ute	-7694
ɥiz	-7695
ũdu	-7696
ɔdɔv	-7697
ɛtəɫ	-7698
▁izẽ	-7699
▁ləm	-7700
ɪstɹ	-7701
▁mot	-7702
ˈæɕ	-7703
skəs	-7704
ˈiɡa	-7705
▁lˈɪ	-7706
imɯɭ	-7707
əniʁ	-7708
sɯmi	-7709
alo	-7710
ɡẽj̃	-7711
▁ɔɡr	-7712
izis	-7713
ˈɛmp	-7714
ʌkːɯ	-7715
▁ˈpʊ	-7716
amas	-7717
▁iʃk	-7718
ksəs	-7719
apˌe	-7720
mˌf	-7721
a̠e̞	-7722
leβ	-7723
mɛn	-7724
ˌah	-7725
hˈam	-7726
kɯɾa	-7727
kaɾe	-7728
ʌ̹ɡi	-7729
arja	-7730
̚t͡ʃ	-7731
▁soɯ	-7732
alnɨ	-7733
ihar	-7734
fɫu	-7735
temɐ	-7736
▁koŋ	-7737
iːd̪	-7738
▁vɨj	-7739
ˈvɔn	-7740
▁ʔɨn	-7741
fil	-7742
▁lid	-7743
▁ʁɨs	-7744
ˈool	-7745
▁ɡəɡ	-7746
θɔɹ	-7747
mplo	-7748
ʌ̹ni	-7749
itus	-7750
fjil	-7751
▁rim	-7752
uks	-7753
ɛɾb	-7754
ɪzən	-7755
▁dɨv	-7756
ɑɡ	-7757
▁fiʃ	-7758
ɛkf	-7759
▁ˈʃʊ	-7760
kuɫz	-7761
niai	-7762
ˈyːr	-7763
gəˈl	-7764
▁skr	-7765
ɫɝ	-7766
oʊdz	-7767
ɯɾɰi	-7768
uˈaŋ	-7769
ɕiɾo	-7770
▁mio	-7771
ikət	-7772
poze	-7773
kxɯ	-7774
upo	-7775
ɹes	-7776
ɹɛk	-7777
▁iˈ	-7778
▁gˈ	-7779
imẽ	-7780
pak	-7781
ʂɛd	-7782
atta	-7783
uth	-7784
imɫi	-7785
eɲa	-7786
blji	-7787
▁kip	-7788
nax	-7789
taðo	-7790
oːg	-7791
noi	-7792
▁low	-7793
▁bˌi	-7794
ɹɪ	-7795
atʃ	-7796
ˈast	-7797
oɾte	-7798
▁xɨ	-7799
ˈkl	-7800
aɪtɝ	-7801
▁phi	-7802
mɐna	-7803
t̪hɐ	-7804
mjʌ̹	-7805
p̚p͈	-7806
ˈlox	-7807
lˈe	-7808
▁don	-7809
jɛmɨ	-7810
▁nɯn	-7811
▁pis	-7812
ʦˈuk	-7813
▁əks	-7814
pɾaɾ	-7815
bˈah	-7816
rˈɛ	-7817
▁äːɾ	-7818
ˈɑp	-7819
ɛçts	-7820
ʒɑ̃	-7821
ɛɹɫi	-7822
▁ər	-7823
ndak	-7824
▁ola	-7825
əlˈa	-7826
kite	-7827
la͡ʊ	-7828
ɡjo	-7829
ara	-7830
əsb	-7831
osai	-7832
▁ɔra	-7833
ontw	-7834
saet	-7835
▁nɔm	-7836
ɛdɛ	-7837
ɐ̃d	-7838
ɯɾa	-7839
aktɨ	-7840
idø̞	-7841
ẽːn̪	-7842
▁lot	-7843
ʃtɨʃ	-7844
ˈɔrk	-7845
wa̠ɭ	-7846
utʃa	-7847
▁ˈpl	-7848
oʊks	-7849
▁ɔv	-7850
vəst	-7851
pam	-7852
pɝət	-7853
wuk	-7854
っk	-7855
ataɾ	-7856
dˈi	-7857
ɫeɪ	-7858
wˈeː	-7859
ələk	-7860
enu	-7861
▁pez	-7862
▁pɔn	-7863
ndɝ	-7864
eɾon	-7865
˧˧m	-7866
▁ʁɨf	-7867
▁ˈsh	-7868
▁ˌɫ	-7869
ˈona	-7870
ajdu	-7871
▁ˈok	-7872
lɐ	-7873
omoɴ	-7874
▁pɛn	-7875
ˈɛɫ	-7876
iɴgɯ	-7877
▁eʃ	-7878
ɔntə	-7879
atto	-7880
ɸɯɾi	-7881
▁kis	-7882
▁vaʐ	-7883
▁ɡal	-7884
▁hɪm	-7885
ɛdɨ	-7886
kɑː	-7887
hand	-7888
▁via	-7889
▁xus	-7890
ˌgl	-7891
sɛɡɔ	-7892
eɾðo	-7893
ɪvɝ	-7894
kɯno	-7895
ɡie̞	-7896
xu	-7897
▁atu	-7898
ɫdz	-7899
ʑɛ	-7900
▁ẽpɾ	-7901
ˈoɪt	-7902
stos	-7903
anok	-7904
▁lɛv	-7905
▁əɡ	-7906
d̪ɦɐ	-7907
laɾ	-7908
ɔlo	-7909
ˌɫɛk	-7910
ɪɡɝ	-7911
▁ˈɛp	-7912
it̪ɐ	-7913
əɡz	-7914
▁imi	-7915
dɔøt	-7916
iːtə	-7917
▁ɾɯɭ	-7918
t͡sj	-7919
ăŋ˨˦	-7920
▁rɨn	-7921
ˈy	-7922
ows	-7923
thiŋ	-7924
mˈeː	-7925
▁uv	-7926
gokɯ	-7927
ifje	-7928
njɛʁ	-7929
tivi	-7930
moto	-7931
mpiŋ	-7932
▁kɛː	-7933
ɲɐʃ	-7934
eɴto	-7935
ɔd͡ʒ	-7936
iːɾe	-7937
aɪbɹ	-7938
▁keɾ	-7939
▁ʎam	-7940
ɫθ	-7941
mm	-7942
nzɐ	-7943
ɡiɭ	-7944
d̪ɦj	-7945
gaɾa	-7946
əɫɝz	-7947
▁jăk	-7948
▁ʂkɔ	-7949
▁siv	-7950
l̪ː	-7951
▁məɦ	-7952
▁ˈba	-7953
atən	-7954
sit	-7955
ɛlç	-7956
ezɐ	-7957
ˈnia	-7958
ɪtiz	-7959
▁fra	-7960
ksa	-7961
ɛdz	-7962
a̠in	-7963
oːsə	-7964
ɪnˌd	-7965
ms	-7966
ɛɾɾ	-7967
we˩˧	-7968
jʌ̹ɾ	-7969
əvɫi	-7970
ɨseɾ	-7971
ɪˌ	-7972
ɐjtɐ	-7973
▁sɨl	-7974
ˌgɾ	-7975
wˌe	-7976
eːde	-7977
ˈiku	-7978
tʃa	-7979
kato	-7980
▁tuo	-7981
▁kf	-7982
juəɫ	-7983
ɑbz	-7984
ɾiɴ	-7985
▁xɔr	-7986
fɛʁ	-7987
▁mʌ̹	-7988
aʊɝz	-7989
ɛɾdə	-7990
ots	-7991
ɛ̃ɕ	-7992
inim	-7993
ɔøɐ̯	-7994
ylɛʁ	-7995
vas	-7996
ilo	-7997
iste	-7998
▁ʋɪʃ	-7999
▁sje	-8000
ˈɫaɪ	-8001
▁tɔr	-8002
fwa	-8003
ˈiːd	-8004
e̞t̚	-8005
a̠ɾi	-8006
ɔɪə	-8007
ˈosa	-8008
▁hoɴ	-8009
zɐʃ	-8010
iːv	-8011
▁tj	-8012
ɔɹoʊ	-8013
hab	-8014
ɹuɡ	-8015
waw	-8016
noba	-8017
bˈak	-8018
ɑpɪk	-8019
っtat	-8020
inə	-8021
ˈpɛt	-8022
▁ɔbr	-8023
ə̃ɳɖ	-8024
itər	-8025
▁ˌar	-8026
ɔka	-8027
alɲɛ	-8028
alke	-8029
ʋɐ	-8030
sɯn	-8031
kik	-8032
kima	-8033
d͡zo	-8034
eɪbɝ	-8035
geb	-8036
ʁo	-8037
mite	-8038
ɕhiɾ	-8039
aku	-8040
▁mõ	-8041
ˈson	-8042
▁ʔʌɖ	-8043
▁mɔː	-8044
▁asi	-8045
ɾaom	-8046
▁kʌɖ	-8047
▁asɔ	-8048
aɪˌɫ	-8049
▁jɛʐ	-8050
▁bjɐ	-8051
▁mwe	-8052
otoo	-8053
yb	-8054
hada	-8055
sɛp	-8056
▁kɐm	-8057
nif	-8058
ɐ̃t	-8059
ˈtɾ	-8060
inos	-8061
ɑːd	-8062
sku	-8063
▁vul	-8064
ʁɛs	-8065
ses	-8066
i͡uɡ	-8067
▁bon	-8068
▁ir	-8069
ˈgaɽ	-8070
ˈeat	-8071
ʂɲɛ	-8072
gɯn	-8073
asjo	-8074
vaɲɛ	-8075
▁aps	-8076
idʒ	-8077
▁vas	-8078
ɹˈeɪ	-8079
fɛr	-8080
ɪŋɪŋ	-8081
gəl	-8082
tome	-8083
anaɴ	-8084
aɾɯm	-8085
eo˧˧	-8086
ɝˌd	-8087
▁ɡɔt	-8088
ɪkɪŋ	-8089
ɛsɪŋ	-8090
ˌsi	-8091
βið	-8092
mpɫ	-8093
▁avv	-8094
▁ɯn	-8095
eɾta	-8096
▁ˈgl	-8097
kˈom	-8098
ˈsia	-8099
ʁu	-8100
ˈura	-8101
miɴ	-8102
ɡˌ	-8103
dˈɛ	-8104
skɔ	-8105
jɯbi	-8106
waŋ	-8107
hˈo	-8108
jeɾa	-8109
ɛʃɝ	-8110
▁hˌa	-8111
kçi	-8112
biŋ	-8113
o̞ɭ	-8114
ətʃɝ	-8115
inis	-8116
lap	-8117
▁maɡ	-8118
o̞ɡɯ	-8119
eme	-8120
inɨ	-8121
ɪɡj	-8122
idɯ	-8123
amɯ	-8124
ynik	-8125
▁pet	-8126
eko	-8127
Xtər	-8128
▁ɔx	-8129
ɡəl	-8130
nomi	-8131
o̞ɾi	-8132
ænˈz	-8133
▁kɔd	-8134
dʑo	-8135
ensa	-8136
haki	-8137
▁uβ	-8138
eʁe	-8139
ˌɛk	-8140
ə̃mp	-8141
ɛɹɪk	-8142
ɣaðo	-8143
ɛnd͡	-8144
˧˧ɣ	-8145
vjiɕ	-8146
o̞ŋn	-8147
ɯɡʌɭ	-8148
jɑnd	-8149
vɑ	-8150
eles	-8151
lɛt	-8152
ənən	-8153
ʊd̪	-8154
▁aɡɾ	-8155
ɲe	-8156
͡ʊm	-8157
atos	-8158
isiˈ	-8159
ˌfɔɹ	-8160
uzɪŋ	-8161
e̞m	-8162
idɐ	-8163
ɔzɨ	-8164
▁sˌe	-8165
ʒɝ	-8166
i͡uv	-8167
tist	-8168
luk	-8169
▁muː	-8170
zɛn	-8171
ɛjɐ	-8172
il̪ɐ	-8173
▁iː	-8174
kina	-8175
▁lẽb	-8176
ivus	-8177
▁ɕiɴ	-8178
pəŋ	-8179
t͡ɕɐ	-8180
jõː	-8181
▁stˌ	-8182
ɪŋə	-8183
ɑktɝ	-8184
▁ˌju	-8185
ɔzɐ	-8186
ɛɫəv	-8187
ɯnod	-8188
omin	-8189
▁hid	-8190
ʊdz	-8191
▁kɑ	-8192
ost	-8193
mænd	-8194
ɛsst	-8195
▁kwr	-8196
▁tiv	-8197
jaz	-8198
gəˈʃ	-8199
ʂɛda	-8200
idus	-8201
ˈtɛn	-8202
▁niə	-8203
▁und	-8204
▁wˈi	-8205
ænəɫ	-8206
ˈko	-8207
adi	-8208
mes	-8209
aɪnə	-8210
noçi	-8211
vaw	-8212
ʎus	-8213
ikoɯ	-8214
▁fem	-8215
ænə	-8216
joni	-8217
ɛnɝˌ	-8218
ɛθəd	-8219
▁olt	-8220
ndar	-8221
ʏts	-8222
ɪlfə	-8223
▁ʂăŋ	-8224
var	-8225
▁jɔ̃	-8226
oze	-8227
aɾu	-8228
▁ham	-8229
▁cɤ	-8230
ʎe	-8231
▁iŋk	-8232
ɯʋ	-8233
▁ass	-8234
ætɝd	-8235
pæn	-8236
tl	-8237
ɑli	-8238
▁ɑ̃v	-8239
▁ˈɛɡ	-8240
inəs	-8241
ɾp	-8242
pɔn	-8243
▁mɯɖ	-8244
ɔduk	-8245
ɔønt	-8246
ɪsɪz	-8247
wə	-8248
allo	-8249
nosɯ	-8250
med	-8251
izaɾ	-8252
sil	-8253
fiɾ	-8254
▁ʒo	-8255
ðɝˌw	-8256
ɛx	-8257
▁ɡʁ	-8258
bʌ̹n	-8259
dei	-8260
sax	-8261
▁rum	-8262
ænsp	-8263
ˈɑX	-8264
uːɐ̯	-8265
saɾa	-8266
hal	-8267
ɑ̃k	-8268
eɪθ	-8269
iːt̪	-8270
▁az	-8271
▁aku	-8272
ˈəik	-8273
▁tăŋ	-8274
d˧˧	-8275
ʌkː	-8276
jaðo	-8277
omun	-8278
▁mia	-8279
▁əlk	-8280
▁ʃɐm	-8281
ɴd	-8282
ˈɔɪə	-8283
ylte	-8284
ɪŋkt	-8285
ɳeː	-8286
oːd̪	-8287
əməɫ	-8288
▁ɲju	-8289
ɔɾdu	-8290
rop	-8291
inok	-8292
ʈːa	-8293
bai	-8294
ɲɔ̃	-8295
▁ile	-8296
▁tɛt	-8297
k͈i	-8298
ˈiːl	-8299
i͡e	-8300
pf	-8301
ʂɨt	-8302
aɾoɯ	-8303
tɕit	-8304
▁sot	-8305
ˈust	-8306
oɾaˈ	-8307
▁euɾ	-8308
▁sɑː	-8309
cti	-8310
taˈ	-8311
ntan	-8312
ylas	-8313
oːɐ	-8314
ˈɛə	-8315
βi	-8316
eker	-8317
▁ret	-8318
aðɐʃ	-8319
dɪŋ	-8320
ɫət	-8321
▁vwɔ	-8322
ndoʊ	-8323
nii	-8324
gʁam	-8325
oʊɫɝ	-8326
rim	-8327
ʌʋɯ	-8328
knik	-8329
bɛ	-8330
i͡uk	-8331
rud	-8332
imus	-8333
osˌv	-8334
mar	-8335
ɐt̪i	-8336
ɪˈk	-8337
pɐn̪	-8338
veɾ	-8339
kaɕi	-8340
rʌ	-8341
▁ʁel	-8342
ɪʃɪŋ	-8343
ˈurə	-8344
esen	-8345
ɡˈɛr	-8346
▁kiə	-8347
▁hu	-8348
ðaɾ	-8349
ăw˨˦	-8350
▁wʌ̹	-8351
▁paj	-8352
bˈi	-8353
kɝz	-8354
ɑɫv	-8355
eɪzi	-8356
ulo	-8357
▁ʃeɡ	-8358
ips	-8359
kuni	-8360
gəˈv	-8361
pˌʔ	-8362
kt̪i	-8363
▁ʃɛl	-8364
pis	-8365
muʃ	-8366
ɑnf	-8367
ɔly	-8368
ɑtəm	-8369
▁tɔp	-8370
ʒˈe	-8371
▁ɾɛɦ	-8372
ɾom	-8373
ateɡ	-8374
ɔ̃sa	-8375
▁mɔn	-8376
▁fɛʃ	-8377
ɔɪm	-8378
▁mov	-8379
okom	-8380
səl	-8381
stak	-8382
ˈinə	-8383
▁dɔp	-8384
kˈo	-8385
stɔs	-8386
▁ɦəɾ	-8387
ɪnən	-8388
ɪnde	-8389
ɐnuʃ	-8390
▁pɨɾ	-8391
seɣ	-8392
mer	-8393
▁zda	-8394
▁kun	-8395
œy̯t	-8396
vero	-8397
▁zad	-8398
t͡ʂu	-8399
▁joj	-8400
əˈi͡	-8401
ˈosi	-8402
kt͡	-8403
ˈuɪt	-8404
ɔɹˌm	-8405
utam	-8406
ukji	-8407
ˈahi	-8408
anˌl	-8409
▁zal	-8410
bəɫd	-8411
▁tiɾ	-8412
ɐmɑː	-8413
əstə	-8414
βaˈ	-8415
atah	-8416
fʁ	-8417
ˈjɑ	-8418
blə	-8419
pɾa	-8420
▁ʁas	-8421
ẽtɐ	-8422
▁suj	-8423
eɪl	-8424
luz	-8425
ʔɪt	-8426
kana	-8427
ylta	-8428
ɑːjɐ	-8429
ɛɫpt	-8430
tuh	-8431
ster	-8432
ˈino	-8433
tori	-8434
ɕhuŋ	-8435
▁peð	-8436
▁kv	-8437
otaɴ	-8438
oːɡɐ	-8439
▁ɐkõ	-8440
oʊˌf	-8441
▁ɑf	-8442
sː	-8443
okoh	-8444
▁dɔr	-8445
ɖi	-8446
mɑ̃s	-8447
mok	-8448
▁aˈl	-8449
▁myz	-8450
nai	-8451
l̩	-8452
▁dɔɕ	-8453
▁fed	-8454
▁bos	-8455
▁tf	-8456
juti	-8457
▁lwa	-8458
ikɹ	-8459
ɡaʁ	-8460
sɛʁn	-8461
omɯ	-8462
▁we̞	-8463
▁ɛ̝n	-8464
ɡal	-8465
▁twe	-8466
ŋɡuh	-8467
apt	-8468
adoɯ	-8469
ɭda̠	-8470
bɯɾa	-8471
ɥœː	-8472
erim	-8473
ˈɪŋ	-8474
▁my	-8475
ˌɛn	-8476
ˌgaŋ	-8477
fɝts	-8478
tɕin	-8479
▁ɛ̃v	-8480
ænɝ	-8481
i͡ud	-8482
▁haw	-8483
ʃɛft	-8484
ɛnto	-8485
ɔɪɫ	-8486
ˈɔrm	-8487
tul	-8488
ˈaj	-8489
▁ʋɪ	-8490
oɕoɯ	-8491
▁ɾoː	-8492
βol	-8493
mənz	-8494
ɔdar	-8495
vɛɾz	-8496
ɔɹɡ	-8497
▁ɡəw	-8498
note	-8499
ŋɡɯ	-8500
▁moɾ	-8501
▁rat	-8502
dʒɝz	-8503
bjʌ̹	-8504
hasɯ	-8505
▁kəɲ	-8506
mäː	-8507
uno	-8508
ip˧˧	-8509
ɸɯɾe	-8510
ˈuki	-8511
▁ɔɾɐ	-8512
wa̠ɾ	-8513
ɾlɪn	-8514
phɛ̝	-8515
uːb	-8516
kos	-8517
teɾɯ	-8518
▁ʁy	-8519
▁tsv	-8520
tol	-8521
▁tɔt	-8522
wəɫ	-8523
▁fis	-8524
ðɨɾa	-8525
bʊk	-8526
▁ʐad	-8527
fɛns	-8528
t̚s͈	-8529
▁doɾ	-8530
tsɔø	-8531
aso	-8532
ˈard	-8533
nden	-8534
skɔn	-8535
ʈːɾɯ	-8536
ɾak	-8537
lef	-8538
al˧˧	-8539
əʋäː	-8540
ɔɹp	-8541
▁biɕ	-8542
▁tah	-8543
izəs	-8544
▁d̪ɐ	-8545
tav	-8546
ɔlɐ	-8547
jur	-8548
juk̚	-8549
ɡæn	-8550
ntɹi	-8551
ɛçn	-8552
uəɫ	-8553
tub	-8554
skɪŋ	-8555
ˌɛsi	-8556
▁ft	-8557
▁ʔɔp	-8558
niko	-8559
▁ˌpɝ	-8560
fɔr	-8561
ɪcːt	-8562
ɾit	-8563
neɴ	-8564
ɛŋə	-8565
hoso	-8566
▁lus	-8567
kɔvɔ	-8568
œfˈf	-8569
▁vaɡ	-8570
▁ˌtɹ	-8571
▁biɾ	-8572
ðuˈk	-8573
ʊktə	-8574
▁ɡuɡ	-8575
▁raɡ	-8576
na̠n	-8577
uːɾ̪	-8578
▁ˌɔn	-8579
ɑɾə	-8580
oɾen	-8581
ˌzam	-8582
wɛ̝	-8583
▁ɕf	-8584
ˌar	-8585
ɑmb	-8586
▁vən	-8587
▁ʌ̹ɭ	-8588
ən̪	-8589
beɾɯ	-8590
ʊxə	-8591
ɑnz	-8592
aɕɛ	-8593
ustr	-8594
▁dəw	-8595
ˈkw	-8596
▁ɔβ	-8597
ɛɾl	-8598
bɔɾɐ	-8599
eɪzd	-8600
əls	-8601
ut͡ʃ	-8602
ẽsa	-8603
ˈɛnu	-8604
▁riɡ	-8605
ɔlɛ	-8606
▁s̪ʋ	-8607
ivid	-8608
▁ˈvʏ	-8609
ʁije	-8610
▁ps	-8611
tane	-8612
▁lɛt	-8613
▁ʎɛ	-8614
ɣuʃ	-8615
ˈtin	-8616
▁ʋʌɻ	-8617
ˈkt	-8618
eɾaw	-8619
zɛll	-8620
bɯn	-8621
əɡäː	-8622
ɔnst	-8623
ɪpɪŋ	-8624
▁tre	-8625
ʁis	-8626
▁diʒ	-8627
▁uʐɔ	-8628
əɫəs	-8629
▁koz	-8630
▁ʁeg	-8631
iljɐ	-8632
ble	-8633
ʌɪ̯ʋ	-8634
rɔt	-8635
ʌp	-8636
ˌɛnt	-8637
mɑ̃d	-8638
▁neɡ	-8639
əfɝ	-8640
▁kɥi	-8641
mɪt	-8642
ɯbi	-8643
irˈi	-8644
▁ˌɛv	-8645
▁ped	-8646
▁fuɾ	-8647
ɪnɪŋ	-8648
ɯŋ˧˧	-8649
▁zon	-8650
jaj	-8651
niɕ	-8652
ɪdʒɝ	-8653
keɪm	-8654
bet	-8655
pot	-8656
oɕ	-8657
arˈa	-8658
▁kˌa	-8659
paɾa	-8660
tɾa	-8661
ˈfɫ	-8662
arip	-8663
ɹist	-8664
ɨsoɾ	-8665
ɡɹim	-8666
ʌ̹jo	-8667
sak	-8668
ˈæŋ	-8669
ænɪk	-8670
ʂɛɲ	-8671
inam	-8672
osaɴ	-8673
ikal	-8674
▁nau	-8675
vˈol	-8676
ˈark	-8677
əɹˈe	-8678
ɯmɯɭ	-8679
ON	-8680
aɾm	-8681
s̪ʈ	-8682
▁ip̚	-8683
▁laɾ	-8684
a̠ɾ	-8685
ɔʒik	-8686
ˈula	-8687
▁ˈot	-8688
▁bɹ	-8689
wiək	-8690
a˧ˀ˥	-8691
ivɐ	-8692
inaˈ	-8693
vul	-8694
▁çim	-8695
ɯkçi	-8696
kuʃ	-8697
nidʑ	-8698
wəl	-8699
ɔta	-8700
ɖiː	-8701
▁geɴ	-8702
▁ˌɡ	-8703
usa	-8704
ɡɹi	-8705
ˌvaɪ	-8706
aðus	-8707
rɛd	-8708
▁rəm	-8709
ɪlm	-8710
ˈeen	-8711
▁stɹ	-8712
▁vɨk	-8713
iai	-8714
▁wɔm	-8715
ʈˈɑː	-8716
▁suʁ	-8717
ka͡ʊ	-8718
ĩːm	-8719
ɑːks	-8720
tɐʃ	-8721
▁oɾa	-8722
ustɾ	-8723
ˈjon	-8724
▁sˈe	-8725
jeta	-8726
▁etk	-8727
▁sɛj	-8728
œvʁ	-8729
uta	-8730
anz	-8731
n̪ũː	-8732
▁mud	-8733
ɔnts	-8734
evɪŋ	-8735
ˌsk	-8736
ðuka	-8737
▁ɦɪ̃	-8738
▁ˈsu	-8739
ibɯ	-8740
t͡su	-8741
ope	-8742
aʊ̯s	-8743
pˈu	-8744
mji	-8745
ˈeːf	-8746
▁tua	-8747
ɨt̪ː	-8748
tˌd	-8749
dʒən	-8750
ʌmb	-8751
▁fiɾ	-8752
χt	-8753
ɪn̪	-8754
▁ẽkw	-8755
ɔtɛk	-8756
d͡ʒɦ	-8757
mput	-8758
▁miː	-8759
hˈi	-8760
▁ɔʁɛ	-8761
hakɯ	-8762
ɭɭʌ̹	-8763
▁tək	-8764
essi	-8765
ʂnɛj	-8766
ɪnte	-8767
▁bəv	-8768
esjo	-8769
nose	-8770
pʁes	-8771
▁əl̪	-8772
erm	-8773
bˌɛl	-8774
wäːɾ	-8775
ˌɛnd	-8776
ɔʐɨ	-8777
▁mid	-8778
ðan	-8779
ndɪd	-8780
▁gɾa	-8781
anɔv	-8782
ˌim	-8783
ɾɛçt	-8784
▁əˌ	-8785
orni	-8786
diɫ	-8787
ʃʃe	-8788
aɾts	-8789
jajs	-8790
oʊmz	-8791
ila	-8792
çt	-8793
dep	-8794
▁bˌu	-8795
▁bit	-8796
vɛɾb	-8797
əft	-8798
səs	-8799
ɯə˧˨	-8800
▁oko	-8801
ɔɪɪŋ	-8802
ɾɑːt	-8803
▁doɯ	-8804
▁ɦäː	-8805
iks͈	-8806
onf	-8807
ɪˌt	-8808
kɔvɛ	-8809
▁ˈup	-8810
oːbl	-8811
eɾpo	-8812
udus	-8813
sɪ	-8814
adem	-8815
l̪oː	-8816
▁amu	-8817
opa	-8818
nio	-8819
ˌtə	-8820
nəns	-8821
ivɛɫ	-8822
ɛrt	-8823
ʦən	-8824
aɪks	-8825
ɛɾˈ	-8826
asp	-8827
itat	-8828
nakɯ	-8829
ɨkːʌ	-8830
ɪt̪̚	-8831
ɑɹɫ	-8832
ilib	-8833
▁tɕi	-8834
azi	-8835
ˈoŋ	-8836
juŋ	-8837
ef	-8838
ikel	-8839
ˈβia	-8840
▁ˈbɛ	-8841
ɔɹˈɡ	-8842
ɔba	-8843
eʁas	-8844
▁ɦũː	-8845
˥˩	-8846
sɯme	-8847
▁upd	-8848
ʃtɾu	-8849
ɲas	-8850
asɯk	-8851
ɛk˧˧	-8852
gez	-8853
▁ɯŋ	-8854
ˈɪnə	-8855
ojɯɯ	-8856
ˈaːs	-8857
gəˌ	-8858
▁he̞	-8859
keɾ	-8860
naki	-8861
ˈɛld	-8862
oʊb	-8863
βaðo	-8864
ifi	-8865
▁ˈkʏ	-8866
aɾkt	-8867
▁sab	-8868
ɪɹiɝ	-8869
dir	-8870
ɪkäː	-8871
atˈɛ	-8872
enˌ	-8873
ɛçtə	-8874
kɯɾe	-8875
▁nak	-8876
▁kɔs	-8877
ɛɹid	-8878
walm	-8879
ʁd	-8880
atz	-8881
ˈeer	-8882
▁ʂɛr	-8883
entu	-8884
ɾɑːk	-8885
▁seɡ	-8886
bʁø	-8887
▁dɛk	-8888
▁opp	-8889
mah	-8890
itaˈ	-8891
▁ekɐ	-8892
▁ako	-8893
▁mʌn	-8894
▁ʁəf	-8895
▁ĩdi	-8896
ˈuda	-8897
▁law	-8898
▁diɾ	-8899
ɔnn	-8900
iðoɾ	-8901
ɛɲa	-8902
▁ate	-8903
ɑʒ	-8904
əsts	-8905
ud͡ʒ	-8906
ɔza	-8907
uks͈	-8908
bud	-8909
ɛrɡ	-8910
ftən	-8911
▁ame	-8912
▁kɝˈ	-8913
əpɪŋ	-8914
tˈar	-8915
▁vˌɔ	-8916
avo	-8917
kɔr	-8918
tˌɫ	-8919
tɨɾ	-8920
ɔʁd	-8921
wasi	-8922
ˌeod	-8923
▁ʋeɭ	-8924
ˈent	-8925
ʊ̃m	-8926
a̠ŋɡ	-8927
ɔnɔ̃	-8928
ɽeː	-8929
əsɪŋ	-8930
ŋkʂ	-8931
▁pɛl	-8932
ikan	-8933
▁ˈæv	-8934
uʐɨ	-8935
jez	-8936
voːr	-8937
▁joŋ	-8938
▁vɨʂ	-8939
tej	-8940
adoɾ	-8941
ʊppə	-8942
oxt	-8943
akoɯ	-8944
ʋʌd̪	-8945
juf	-8946
ɔko	-8947
ɯmɯ	-8948
seɡi	-8949
ˈiːɐ	-8950
▁pˌa	-8951
ˈlaɽ	-8952
▁tab	-8953
▁ʃhɥ	-8954
eˈɾx	-8955
mpuŋ	-8956
valt	-8957
▁jin	-8958
▁noː	-8959
▁ʂp	-8960
ɕhɥi	-8961
ˈɛks	-8962
n̪õː	-8963
▁hɪn	-8964
kɯmi	-8965
ɖʌɾ̪	-8966
ɫɪʃt	-8967
sasa	-8968
▁sjɛ	-8969
andi	-8970
ˈmat	-8971
ˈɛmb	-8972
oːz	-8973
ɔɾk	-8974
waz	-8975
ɪ̃m	-8976
atɾo	-8977
ˈjɑʊ	-8978
ʁɑ̃	-8979
itek	-8980
ʈäː	-8981
▁aum	-8982
▁kak	-8983
okoɴ	-8984
ɔru	-8985
imɨ	-8986
bɯɾ	-8987
ular	-8988
we̞	-8989
ˈasə	-8990
ɐjɐ	-8991
awmẽ	-8992
ɕiɭ	-8993
▁vɛ̃	-8994
bum	-8995
ðis	-8996
ɔkɐ	-8997
asul	-8998
sɯke	-8999
ɑnfɹ	-9000
ʊk˧˧	-9001
buŋ	-9002
kˈɑː	-9003
ndas	-9004
elf	-9005
▁daɪ	-9006
▁fij	-9007
steð	-9008
id͡ʒ	-9009
del	-9010
▁jɛ̃	-9011
stəl	-9012
wala	-9013
▁dɨf	-9014
▁hˌo	-9015
tˈah	-9016
▁ˈfæ	-9017
alk	-9018
▁luj	-9019
ˈif	-9020
ænst	-9021
▁a̠m	-9022
▁mĩ	-9023
ʃɪz	-9024
eɾan	-9025
amt	-9026
▁ˈza	-9027
ðɨʃ	-9028
onaɴ	-9029
vl	-9030
ʐɛʂ	-9031
▁kõs	-9032
noɸɯ	-9033
mˌ	-9034
▁ʐoj	-9035
visu	-9036
▁ɕil	-9037
gaçi	-9038
͡u	-9039
aɪbd	-9040
uðaɾ	-9041
oɾən	-9042
toha	-9043
itto	-9044
ɔɾis	-9045
ẽdim	-9046
▁a˦˥	-9047
ʎʎe	-9048
ɛstə	-9049
owv	-9050
uŋjo	-9051
ɾaet	-9052
▁bið	-9053
ˈɾə	-9054
ˌen	-9055
jɛʂ	-9056
p͈o̞	-9057
mɨs	-9058
əˈu	-9059
ʐɔ̃	-9060
gaɸɯ	-9061
▁bot	-9062
ɐ̯ɪn	-9063
ɪnət	-9064
ɑːt̪	-9065
ɲuʃ	-9066
gasɯ	-9067
aoən	-9068
esu	-9069
eʒ	-9070
▁zai	-9071
ʂɛl	-9072
bˈil	-9073
vɛj	-9074
zaːl	-9075
▁ˈɫi	-9076
ɛɹiz	-9077
ɕisɯ	-9078
ɛkte	-9079
inua	-9080
▁ʋəɾ	-9081
ape	-9082
▁bur	-9083
ɔj˧˧	-9084
ũdɐ	-9085
blis	-9086
oːnə	-9087
▁sˌo	-9088
ogo	-9089
ɛˌɹi	-9090
anˌk	-9091
ʊn̪	-9092
ˌik	-9093
dif	-9094
dɨʃ	-9095
▁lik	-9096
UN	-9097
ɡeː	-9098
əɾəɦ	-9099
▁ʂaj	-9100
▁muɭ	-9101
▁xen	-9102
ɛɾju	-9103
▁adv	-9104
aːd	-9105
ump	-9106
▁ɔpt	-9107
fɑɾ	-9108
▁toi	-9109
niə	-9110
i͡us	-9111
jɛme	-9112
▁cup	-9113
ʏkt	-9114
▁kra	-9115
uːs̪	-9116
ɛnɨ	-9117
▁ɖɦ	-9118
▁ʈɯŋ	-9119
ukˈu	-9120
ˈoːf	-9121
▁ʔo	-9122
▁pʌj	-9123
▁kɛɦ	-9124
▁ɔtt	-9125
ites	-9126
adai	-9127
ətɝz	-9128
nɝˌ	-9129
əməj	-9130
əkʃ	-9131
ɪtʔ	-9132
oçi	-9133
ɔrk	-9134
iːst	-9135
ɦäːɾ	-9136
▁pɔʑ	-9137
uɾu	-9138
ɛɾu	-9139
ɔppo	-9140
ɾese	-9141
jɛʐ	-9142
ɡwa	-9143
etaɾ	-9144
sˈkɹ	-9145
ɪsɪŋ	-9146
▁ˈɹə	-9147
▁vis	-9148
pˌz	-9149
zɪz	-9150
ɹif	-9151
▁rən	-9152
ˈneɪ	-9153
▁diɲ	-9154
jom	-9155
ɪɡh	-9156
▁kaŋ	-9157
ivɪŋ	-9158
▁bad	-9159
jiɕ	-9160
ensj	-9161
eːne	-9162
atus	-9163
n̪ə	-9164
▁vos	-9165
ɕini	-9166
▁vɐl	-9167
wak	-9168
prez	-9169
onɔm	-9170
▁iːm	-9171
ep	-9172
rˌ	-9173
▁iju	-9174
▁fɛm	-9175
ɑntə	-9176
nɛs	-9177
obi	-9178
ɫist	-9179
▁l̪ɐ	-9180
leɡ	-9181
ipi	-9182
abil	-9183
ˈskɫ	-9184
ɪkh	-9185
▁ˈut	-9186
md	-9187
uɾi	-9188
▁ʈa	-9189
aɪˌm	-9190
ˈetː	-9191
erɡ	-9192
jɔ	-9193
ɹim	-9194
ii	-9195
wel	-9196
▁vɨd	-9197
d̪eː	-9198
▁ɕik	-9199
joːɡ	-9200
▁bäː	-9201
ɯɡɨr	-9202
jɛɲɛ	-9203
mẽː	-9204
kɐ̃	-9205
▁pur	-9206
beː	-9207
ɔxə	-9208
▁nik	-9209
ivʁ	-9210
vɔll	-9211
mpi	-9212
ˌsɛt	-9213
▁ɛde	-9214
ɫif	-9215
tama	-9216
▁ä̃ː	-9217
aɪən	-9218
ɛkˈt	-9219
▁ɐbɦ	-9220
uːd	-9221
ˈɔɹ	-9222
izu	-9223
ɣɐʃ	-9224
ntro	-9225
ʁə	-9226
oheɴ	-9227
ɥœːŋ	-9228
▁siɡ	-9229
pus	-9230
▁bʊx	-9231
▁taɡ	-9232
▁ˈʃm	-9233
net	-9234
dið	-9235
ɔɫd	-9236
▁ʃɛf	-9237
ɔda	-9238
atyʁ	-9239
▁xɯ	-9240
ɔrjo	-9241
eɾj	-9242
paʁe	-9243
t͡se	-9244
ʀən	-9245
suːˌ	-9246
lək	-9247
komi	-9248
ˌid	-9249
ɛlm	-9250
ɛntɾ	-9251
▁aʃu	-9252
uɾal	-9253
ɡol	-9254
juɪŋ	-9255
▁puw	-9256
kəl	-9257
▁bʐ	-9258
fyl	-9259
fɛɾ	-9260
ɪˈs	-9261
ʔɪtɾ	-9262
erjɛ	-9263
mpah	-9264
mai	-9265
▁v˧˧	-9266
omat	-9267
▁com	-9268
ɔrɡ	-9269
ʎeɾ	-9270
kita	-9271
▁ˈsɛ	-9272
uðjo	-9273
for	-9274
ɛbɹu	-9275
hato	-9276
ɛɲɛm	-9277
tah	-9278
uːˌk	-9279
▁ˈae	-9280
sir	-9281
ikim	-9282
oːts	-9283
θi	-9284
uɾo̞	-9285
▁ˈθɝ	-9286
kal	-9287
▁xo	-9288
wɛ	-9289
▁sud	-9290
ʌb	-9291
uɾɯɭ	-9292
▁ʃtu	-9293
ɔːɾ	-9294
mota	-9295
uwpr	-9296
▁tse	-9297
awu	-9298
ˌmɪn	-9299
ɔxɛ	-9300
eteɾ	-9301
▁dva	-9302
rən	-9303
maʁ	-9304
doke	-9305
ntaɾ	-9306
▁ɔʁi	-9307
ʂt	-9308
dʒɝ	-9309
ɑɫɝ	-9310
▁has	-9311
ɑɹp	-9312
ɑɹb	-9313
ẽdi	-9314
amus	-9315
isɪŋ	-9316
sx	-9317
piən	-9318
paˈ	-9319
atoɾ	-9320
▁dˈɪ	-9321
ˈuːl	-9322
zaɴ	-9323
fɔʁm	-9324
▁vɔɫ	-9325
▁ʁey	-9326
sˈa	-9327
l̪a	-9328
ɔɫɝ	-9329
ɹum	-9330
zujɛ	-9331
skɔ̃	-9332
▁puk	-9333
anta	-9334
mujɛ	-9335
elj	-9336
ʊɹəp	-9337
uˈa	-9338
rə	-9339
▁kaɴ	-9340
▁ˌoː	-9341
ɔni	-9342
p͈a̠	-9343
▁ˈmæ	-9344
▁dum	-9345
phɯn	-9346
▁leʒ	-9347
hako	-9348
enˌz	-9349
▁mut	-9350
demi	-9351
eɾɑ	-9352
pond	-9353
tɾɑː	-9354
ˈɐdə	-9355
əmət	-9356
ɾekt	-9357
▁ɡər	-9358
amaɾ	-9359
▁bɛ̃	-9360
ikən	-9361
olɔʒ	-9362
ovi	-9363
hamɯ	-9364
▁pod	-9365
bez	-9366
▁ʋoː	-9367
ejʃ	-9368
d̪i	-9369
ˈpf	-9370
osei	-9371
maɡa	-9372
isjɐ	-9373
vˈi	-9374
ɛt˧˧	-9375
▁sor	-9376
gaaɾ	-9377
idɝˌ	-9378
ær	-9379
ˈuə	-9380
ʌ̹uɭ	-9381
əˌw	-9382
ɕino	-9383
ɲɛɲɛ	-9384
▁len	-9385
ɪˌd	-9386
▁ð	-9387
ˈɛta	-9388
shɯm	-9389
▁mɪs	-9390
tʃɪŋ	-9391
ɳən	-9392
etem	-9393
▁ven	-9394
kis	-9395
▁ɛp	-9396
daˈ	-9397
ɛtɕ	-9398
ndˈa	-9399
œɾd	-9400
ɑw	-9401
▁ʼo	-9402
ema	-9403
iŋg	-9404
ɛssa	-9405
▁ʃəɾ	-9406
ɯmo	-9407
▁bik	-9408
jʃaɾ	-9409
əˈnu	-9410
uvnɔ	-9411
ɛnɛr	-9412
tuɣ	-9413
bets	-9414
ɪstə	-9415
▁sː	-9416
ɛŋɐ̯	-9417
anˌb	-9418
ɹɪˈ	-9419
ɕhip	-9420
ɐmeː	-9421
▁alg	-9422
apɯɾ	-9423
▁ˈib	-9424
bir	-9425
ɑkj	-9426
blɪk	-9427
▁kɾu	-9428
viw	-9429
ɪbj	-9430
▁ʒɐn	-9431
ˌoː	-9432
ɾtɐ	-9433
ɔʁi	-9434
itˈa	-9435
enaɴ	-9436
▁tat	-9437
ian	-9438
ˈɹeɪ	-9439
ˈto	-9440
vaʂ	-9441
hoɕi	-9442
ɑg	-9443
cˈe	-9444
▁ˈkn	-9445
▁kju	-9446
edʊŋ	-9447
oʊˌb	-9448
▁ẽs	-9449
entr	-9450
▁ˈʀ	-9451
okei	-9452
▁gˈə	-9453
▁muk	-9454
ẽtaɫ	-9455
isɐ	-9456
ɛndu	-9457
ʃʈ	-9458
jiʂ	-9459
ɾini	-9460
pəl	-9461
ˈɾas	-9462
sjɛ	-9463
e̞iɭ	-9464
une	-9465
etto	-9466
ivew	-9467
▁ɝ	-9468
ksu	-9469
sɨl	-9470
zaɲa	-9471
elu	-9472
pɯɾ	-9473
▁fˈa	-9474
rah	-9475
ɑntɝ	-9476
ɕlɛ	-9477
aszə	-9478
▁ɐmɐ	-9479
▁ʒũ	-9480
kɔva	-9481
ˈoːs	-9482
▁koɴ	-9483
▁ĩdu	-9484
iəst	-9485
ɪɹɪt	-9486
dˈəl	-9487
ɪɫj	-9488
ɔruf	-9489
▁jun	-9490
▁lar	-9491
æz	-9492
nuh	-9493
okak	-9494
▁gaɾ	-9495
jani	-9496
ɾaeb	-9497
▁ɡur	-9498
uŋe̞	-9499
▁nˈu	-9500
ˈta	-9501
ăw˦˨	-9502
▁siʁ	-9503
▁wɛ̝	-9504
izd	-9505
isju	-9506
sent	-9507
ylje	-9508
ʊs̪	-9509
utˈu	-9510
ɯto	-9511
nits	-9512
▁jeh	-9513
suʃ	-9514
▁I	-9515
lɑgə	-9516
nˈe	-9517
ɔpe	-9518
▁dut	-9519
ɔŋz	-9520
haɸɯ	-9521
rire	-9522
ɑ̃sp	-9523
ɾa̠m	-9524
ɐjʃ	-9525
ˈɪon	-9526
▁œvʁ	-9527
▁ˈkv	-9528
ibut	-9529
æmɹə	-9530
shun	-9531
ˈɛwa	-9532
▁ˌæɫ	-9533
dimn	-9534
tivu	-9535
əkˌ	-9536
▁aʊɹ	-9537
sekw	-9538
ɛsse	-9539
▁laz	-9540
っkaɾ	-9541
ɛrsi	-9542
goɯ	-9543
gaŋ	-9544
flik	-9545
ɾoː	-9546
dut	-9547
ʃlɔs	-9548
ɑθɝ	-9549
ʌɳʌm	-9550
gato	-9551
nite	-9552
fɨ	-9553
ætɪs	-9554
▁sɯə	-9555
usj	-9556
ɨjɯm	-9557
jũ	-9558
ityd	-9559
▁ˈiˈ	-9560
ndəɫ	-9561
ɐkɐ	-9562
ʌɡɯ	-9563
tɪs	-9564
ɔʁas	-9565
staɾ	-9566
▁pɝˈ	-9567
▁ˌɑr	-9568
˧˧d	-9569
maɡ	-9570
▁ɪ̃	-9571
jiw	-9572
▁sas	-9573
ʊnst	-9574
imon	-9575
j̃tɐ	-9576
▁boː	-9577
ɔzd	-9578
ɛtt	-9579
ˈiʃə	-9580
evən	-9581
eッkɯ	-9582
ʁuve	-9583
ˈmuv	-9584
▁ses	-9585
ッton	-9586
laʁ	-9587
ːm	-9588
ɽiː	-9589
▁kɔŋ	-9590
▁iŋg	-9591
ˌin	-9592
▁ʈh	-9593
omot	-9594
jɛd	-9595
ɔnɛj	-9596
▁amp	-9597
▁osp	-9598
oːʃ	-9599
ɑgən	-9600
oːɾ̪	-9601
▁oːv	-9602
rɛt	-9603
▁pɔʂ	-9604
▁avi	-9605
ˈɔŋ	-9606
▁hj	-9607
isas	-9608
▁ənk	-9609
aɲɛ	-9610
▁ɲɯə	-9611
ɪsɐ̯	-9612
▁ˌsi	-9613
gɛʃ	-9614
ʋəɾ	-9615
▁kʌɳ	-9616
erʦ	-9617
vaʐ	-9618
ˌel	-9619
enk	-9620
aっta	-9621
ɕɲɛj	-9622
eɾlo	-9623
isˈi	-9624
d͡ʒɾ	-9625
jomi	-9626
ɛrti	-9627
▁izi	-9628
ɪni	-9629
hˈu	-9630
ʊft	-9631
ntra	-9632
▁mit	-9633
arm	-9634
kˌʃ	-9635
▁guv	-9636
ɛɹə	-9637
ˌɔr	-9638
dutu	-9639
kəmz	-9640
▁ɲɛj	-9641
jali	-9642
ʂnɨ	-9643
▁dɲa	-9644
͡ɪs	-9645
otok	-9646
kao	-9647
red	-9648
ðɪŋ	-9649
ɔødə	-9650
▁pit	-9651
▁rid	-9652
ˈbɹ	-9653
▁ess	-9654
▁vɛj	-9655
kage	-9656
nst	-9657
avjɛ	-9658
▁reð	-9659
eseɾ	-9660
iɕi	-9661
ojäː	-9662
ɔmat	-9663
▁ʔɯɳ	-9664
ilit	-9665
tkɔv	-9666
niz	-9667
juɫ	-9668
kː	-9669
ɯkaɾ	-9670
▁kə̃	-9671
▁ˈɔθ	-9672
ŋkə	-9673
▁ʔɯɭ	-9674
itɝ	-9675
ikçi	-9676
ˈɪti	-9677
il̪	-9678
tiva	-9679
▁pɨð	-9680
▁kĩ	-9681
ɛpj	-9682
bˈat	-9683
▁ˈip	-9684
ʌɻ	-9685
bɹˈə	-9686
▁fpr	-9687
▁saŋ	-9688
▁kwe	-9689
▁vɨm	-9690
janɨ	-9691
ʌ̹ph	-9692
fɛlt	-9693
▁aʒi	-9694
əki	-9695
▁tje	-9696
aɪzɝ	-9697
anˌz	-9698
me̞	-9699
▁dɤj	-9700
lus	-9701
ˌtɑp	-9702
əps	-9703
alta	-9704
imal	-9705
▁mɯn	-9706
ikai	-9707
iðuʃ	-9708
mˌz	-9709
ɔgʁa	-9710
ɛta	-9711
miɾ	-9712
anˌv	-9713
▁nɨɣ	-9714
ɑːɳ	-9715
fˈuŋ	-9716
səˈn	-9717
▁nom	-9718
▁ɡˈe	-9719
ɔ̃dʁ	-9720
ˈias	-9721
tɾaɾ	-9722
oses	-9723
͡ɪŋ	-9724
okon	-9725
oiɾe	-9726
ɛtən	-9727
▁dul	-9728
▁sʌm	-9729
stˈa	-9730
sed	-9731
ɾeta	-9732
▁ʁem	-9733
naos	-9734
ɛrtɨ	-9735
ʊ̃n̪	-9736
akai	-9737
ɛne	-9738
avɛʁ	-9739
taʒe	-9740
▁dvu	-9741
zan	-9742
sep	-9743
▁ɔj	-9744
▁avr	-9745
▁tsɯ	-9746
sɔm	-9747
ɝˌh	-9748
kolo	-9749
▁pəɡ	-9750
zɪçt	-9751
ɛmɝi	-9752
ɾjɯɯ	-9753
ʊmm	-9754
ɛɕl	-9755
▁zdɛ	-9756
ɾeð	-9757
pʁi	-9758
inɯɭ	-9759
▁bəw	-9760
ɯkh	-9761
▁piɡ	-9762
eːɖ	-9763
okeɴ	-9764
ɨɾɐs	-9765
▁spr	-9766
tˌ	-9767
ktɔr	-9768
ie̞	-9769
▁s̪ʈ	-9770
ɨvat	-9771
ɯnoh	-9772
bae	-9773
altə	-9774
ʋɯ	-9775
a̠nɯ	-9776
ruʐ	-9777
nd˧˧	-9778
ɑɹɡ	-9779
ˈiər	-9780
ijoː	-9781
gɯɴ	-9782
taʁ	-9783
ʎuʃ	-9784
vɛʁs	-9785
pom	-9786
ăm˩˧	-9787
awɛ	-9788
urt	-9789
zɯk	-9790
ɸɯto	-9791
▁spʂ	-9792
put	-9793
ʎʎor	-9794
ˌhʊd	-9795
yp	-9796
itj	-9797
emɑ̃	-9798
bɨt	-9799
jilm	-9800
ˈoo	-9801
andl	-9802
ɑ̃ʒe	-9803
ɪdən	-9804
▁dɔʁ	-9805
xiɾ	-9806
ulus	-9807
ɡh	-9808
siŋ	-9809
eɾja	-9810
▁pid	-9811
ɑɹˌt	-9812
▁kɯn	-9813
fəs	-9814
ival	-9815
lar	-9816
hen	-9817
ɛti	-9818
ɽäː	-9819
ɔlji	-9820
fyɾt	-9821
ɝts	-9822
▁ʔɨɖ	-9823
ˈɑXt	-9824
▁nju	-9825
foɾm	-9826
teza	-9827
▁kəˌ	-9828
▁deð	-9829
hœɾt	-9830
ɛpˈt	-9831
ɛbb	-9832
anaɾ	-9833
▁ˈir	-9834
bˈ	-9835
▁faɾ	-9836
▁ˈɫu	-9837
▁pwa	-9838
çst	-9839
ɲus	-9840
ivɛɾ	-9841
əɫɪŋ	-9842
ɨsj	-9843
jɨ	-9844
ɔmp	-9845
mɑ	-9846
tɾɐ	-9847
ɹəˌt	-9848
ɡaŋ	-9849
o˧˨	-9850
ɛdəˈ	-9851
ɨkːa	-9852
lis	-9853
mam	-9854
aɾea	-9855
ikei	-9856
ɯɾe	-9857
▁gəʃ	-9858
jɛk	-9859
uɾaw	-9860
▁ama	-9861
atr	-9862
bis	-9863
▁iʒ	-9864
onoɯ	-9865
zɝv	-9866
▁ɡɾa	-9867
▁fɔs	-9868
▁ĩʃ	-9869
ŋin	-9870
məs	-9871
o̞ŋɲ	-9872
ɔ̃n̪	-9873
ɹect	-9874
▁urɔ	-9875
ohoɯ	-9876
▁ktɔ	-9877
ɹeld	-9878
ˈvɝ	-9879
▁niˈ	-9880
sur	-9881
ɔɹtɝ	-9882
sait	-9883
ʌ̹ŋʝ	-9884
▁ɔff	-9885
βlo	-9886
ət̪h	-9887
ɡumɐ	-9888
vn˧˧	-9889
vɛnd	-9890
inaɴ	-9891
▁aɡr	-9892
ɑnfə	-9893
▁vaʁ	-9894
asst	-9895
geɾɯ	-9896
aʃ	-9897
awal	-9898
soba	-9899
▁kxɯ	-9900
asɨ	-9901
ɔɹst	-9902
pək	-9903
ɛsɨ	-9904
ɛŋkə	-9905
ɔnɔ	-9906
ɑf	-9907
deno	-9908
▁i˦˥	-9909
jɐs	-9910
uviz	-9911
paɲa	-9912
usɪv	-9913
wela	-9914
▁lum	-9915
▁vˈi	-9916
ɾɑt	-9917
oɕiɴ	-9918
▁rin	-9919
▁nað	-9920
dʑim	-9921
æɫɪˈ	-9922
ɡˈab	-9923
pliʃ	-9924
ɛ̝ɡi	-9925
▁pɛː	-9926
▁aʝa	-9927
iʃʃe	-9928
▁xăŋ	-9929
kwat	-9930
ɛntu	-9931
ɛʁve	-9932
əˈw	-9933
emɐ	-9934
rov	-9935
▁ɪnt	-9936
ˈuka	-9937
▁oɾj	-9938
ɑ̃ː	-9939
▁ʂtu	-9940
ɔras	-9941
mɪŋ	-9942
hami	-9943
ɾika	-9944
aˈts	-9945
aa	-9946
ɡˈiː	-9947
▁loɣ	-9948
jaˈ	-9949
tɕɯɯ	-9950
ɛmɪk	-9951
▁bl̪	-9952
▁pov	-9953
vɪk	-9954
▁suʒ	-9955
eɪɫɝ	-9956
ɯma̠	-9957
▁ˌɑb	-9958
ɑniz	-9959
ɑːɖ	-9960
ɛlˈl	-9961
▁faβ	-9962
ss	-9963
aɪvɝ	-9964
ɛnˈz	-9965
oord	-9966
▁uff	-9967
▁nɔɾ	-9968
ˈjut	-9969
dʒɪz	-9970
ɛzən	-9971
ɨjɑː	-9972
sɯɾe	-9973
ɔdo	-9974
dʒɔɹ	-9975
jirm	-9976
ʒɑ̃s	-9977
juːs	-9978
atoi	-9979
inal	-9980
ˌop	-9981
oːde	-9982
▁dɛs	-9983
pɔrt	-9984
fəˈ	-9985
ɨpː	-9986
oles	-9987
▁rəs	-9988
ituð	-9989
▁waj	-9990
っtes	-9991
xent	-9992
ɸɯom	-9993
ˌfɹ	-9994
mɛtʁ	-9995
▁rə	-9996
▁ɛ˧˧	-9997
▁niŋ	-9998
əkəɫ	-9999
taッ	-10000
ɑːts	-10001
pˈur	-10002
otoɡ	-10003
raox	-10004
eɾjo	-10005
▁baɲ	-10006
got	-10007
pɐɲ	-10008
k̚t͈	-10009
▁tˌu	-10010
▁ʁow	-10011
▁ʒɔv	-10012
anda	-10013
▁ˈɫɪ	-10014
asi	-10015
uwd	-10016
kon	-10017
▁çju	-10018
ˈfɛk	-10019
ndiə	-10020
ˌɪ	-10021
aos	-10022
raʐ	-10023
aɾte	-10024
jimɔ	-10025
▁lut	-10026
▁ud̪	-10027
ɔnɨm	-10028
okr	-10029
uɭʎ	-10030
ŋɡɾ	-10031
ɪtʃɝ	-10032
▁koɭ	-10033
don	-10034
inea	-10035
ˈfɝm	-10036
▁pɔf	-10037
ɨzaɾ	-10038
inoʊ	-10039
▁reβ	-10040
▁ze	-10041
laðo	-10042
▁bəp	-10043
umb	-10044
yːt	-10045
▁ˈtɝ	-10046
lj	-10047
yle	-10048
gete	-10049
▁etʁ	-10050
eden	-10051
atɾu	-10052
meno	-10053
▁sav	-10054
kuɲ	-10055
ɛnf	-10056
▁lɔt	-10057
sokɯ	-10058
ɪfts	-10059
kɾi	-10060
jja	-10061
ʃtə	-10062
itʃo	-10063
▁eze	-10064
▁zwɔ	-10065
ɛfts	-10066
eβ	-10067
wɔn	-10068
▁əs̪	-10069
mizɯ	-10070
rəs	-10071
akte	-10072
oːɡɹ	-10073
ɑːmɐ	-10074
▁inɡ	-10075
eɪtʃ	-10076
▁lɛj	-10077
ˈof	-10078
bʌ̹b	-10079
▁ori	-10080
̪d̪	-10081
lim	-10082
eseʁ	-10083
unku	-10084
▁ˈɹu	-10085
ˈsjo	-10086
▁ˌid	-10087
▁leɾ	-10088
▁eɾɔ	-10089
▁wɑn	-10090
ɑdz	-10091
▁zˈu	-10092
fɐ̯	-10093
bz	-10094
idəm	-10095
ɛʁʒi	-10096
▁ĩs	-10097
ivɑ̃	-10098
lax	-10099
ɪki	-10100
ases	-10101
ww	-10102
iβas	-10103
har	-10104
jɔd	-10105
ɔɹdɝ	-10106
a̠ju	-10107
ɑːgə	-10108
▁sue	-10109
bɯɾo	-10110
▁rus	-10111
ˈadə	-10112
band	-10113
ˌeəl	-10114
ava	-10115
mow	-10116
rol	-10117
ɛmi	-10118
amuʃ	-10119
ʈːɾi	-10120
ɐt	-10121
o̞ɾ	-10122
ɾõː	-10123
▁kʌʋ	-10124
uːˌ	-10125
▁lɔʒ	-10126
▁nɥi	-10127
▁lɐ̃	-10128
ərm	-10129
omos	-10130
nøːt	-10131
iˈɾa	-10132
▁əˈʃ	-10133
bm̩	-10134
▁nov	-10135
aːf	-10136
ɐ̃ʃp	-10137
e:	-10138
mɯɭ	-10139
atəɡ	-10140
▁mɛr	-10141
rst	-10142
sɔ	-10143
amin	-10144
fʊnd	-10145
▁rəl	-10146
akl	-10147
▁ʁut	-10148
zɯn	-10149
lˈah	-10150
əvz	-10151
oɕo	-10152
əph	-10153
▁ʃˌ	-10154
asoɯ	-10155
nɔst	-10156
▁ɲiɡ	-10157
ɣuɾa	-10158
▁hăŋ	-10159
▁poβ	-10160
▁eːʋ	-10161
õta	-10162
bəm	-10163
idai	-10164
jɛre	-10165
ʈːʌm	-10166
vɪn	-10167
▁tʂɨ	-10168
tal	-10169
▁hju	-10170
əˈzɪ	-10171
jiv	-10172
rat͡	-10173
ætɝz	-10174
▁səg	-10175
jøz	-10176
ʂɛb	-10177
ɤk˦˥	-10178
jalm	-10179
▁çjo	-10180
vˈo	-10181
jˈa	-10182
iˈti	-10183
ɛ̝ɡɯ	-10184
ɨb	-10185
ɔɹnɝ	-10186
▁spˌ	-10187
õti	-10188
kəna	-10189
ˈɛi	-10190
bəˈɾ	-10191
ɛruf	-10192
ler	-10193
▁rɔk	-10194
sif	-10195
ðjo	-10196
ekwa	-10197
mot	-10198
▁căk	-10199
mɐs	-10200
▁ɡɦɐ	-10201
ɑntu	-10202
▁xuɣ	-10203
mina	-10204
fu	-10205
▁vɔd	-10206
ŋgun	-10207
aɪəɡ	-10208
▁kux	-10209
ˌkɛɹ	-10210
atˌe	-10211
ʈːɯm	-10212
▁maʂ	-10213
tumb	-10214
ben	-10215
lak	-10216
oft	-10217
▁kõʒ	-10218
ɡəɫ	-10219
ɾpɐ̯	-10220
▁ĩpɾ	-10221
ɪtel	-10222
▁ˈən	-10223
zɪst	-10224
ɯŋɯɭ	-10225
vjɛ̃	-10226
▁ɲăj	-10227
ɛɾˈv	-10228
odo	-10229
soɾ	-10230
▁oː	-10231
lekt	-10232
ɪɫjɝ	-10233
heno	-10234
▁ʁum	-10235
laof	-10236
▁puð	-10237
ˈtɔɹ	-10238
ɨʋɯ	-10239
ˌbi	-10240
ivɐs	-10241
plas	-10242
ˈopa	-10243
ˈʔʊn	-10244
▁ov	-10245
osˌl	-10246
▁gəv	-10247
ibʌ̹	-10248
ʌɪ̯p	-10249
▁ˌab	-10250
tsɯm	-10251
ʊɾuː	-10252
ŋɯɭ	-10253
aɾlo	-10254
▁deʁ	-10255
ʁip	-10256
▁ɕ͈	-10257
iðen	-10258
arɨ	-10259
oɸɯ	-10260
ʂkɔ	-10261
▁əɾ	-10262
naɾɯ	-10263
əndɹ	-10264
▁ʒɛm	-10265
ŋko	-10266
ˈmia	-10267
▁muɾ	-10268
ˈolo	-10269
isoɯ	-10270
mẽtu	-10271
ɔrɔ	-10272
ushɯ	-10273
əj˨˦	-10274
ŋɡɛ̝	-10275
dioʊ	-10276
øːɾ	-10277
plwa	-10278
▁rup	-10279
irit	-10280
pɯɾe	-10281
▁ʋiː	-10282
pˈon	-10283
▁dix	-10284
ota	-10285
ʊlt	-10286
ŋd͡ʑ	-10287
ˈolɡ	-10288
ˈaeg	-10289
▁vɑ̃	-10290
duf	-10291
ilku	-10292
itok	-10293
ɛzɨ	-10294
mita	-10295
ɛːə	-10296
leː	-10297
jawɨ	-10298
͡ɪki	-10299
▁fir	-10300
päː	-10301
ɛktə	-10302
ʂkji	-10303
ɡũdu	-10304
ɭ̆	-10305
boː	-10306
aːnɡ	-10307
ʂkaɲ	-10308
upɛw	-10309
jitɨ	-10310
ilu	-10311
▁fen	-10312
▁klj	-10313
hazɯ	-10314
sun	-10315
aʁd	-10316
ɑɹkt	-10317
▁iks	-10318
d͡zɨ	-10319
iðɐʃ	-10320
▁luʃ	-10321
inɰi	-10322
gmɑ̃	-10323
ɔj˨˦	-10324
æktɝ	-10325
ivz	-10326
uːt̪	-10327
æɫəd	-10328
o̞ɡi	-10329
ɛstɝ	-10330
▁ʒwe	-10331
▁puʑ	-10332
mɔ	-10333
kuj	-10334
dənə	-10335
ʌpːʌ	-10336
ede	-10337
ɑˈd	-10338
ɛte	-10339
zamm	-10340
▁kl̪	-10341
ɾɪft	-10342
▁klˌ	-10343
bˈaː	-10344
ˈoms	-10345
isit	-10346
tuɾo	-10347
paeç	-10348
ʌ̹mi	-10349
▁agʁ	-10350
ɛtsə	-10351
pik	-10352
ɹeɪd	-10353
təˌɫ	-10354
ɡant	-10355
▁dɔt	-10356
gamɯ	-10357
spir	-10358
ˈaŋə	-10359
ipɝ	-10360
▁bup	-10361
ˈono	-10362
ʃap	-10363
nojo	-10364
oɕɯɯ	-10365
▁lăŋ	-10366
oɾn	-10367
nˈaː	-10368
▁vɛɾ	-10369
▁mer	-10370
▁tor	-10371
ʒiɾ	-10372
aッpɯ	-10373
anu	-10374
aɪkt	-10375
▁fje	-10376
▁sip	-10377
anɔ	-10378
duz	-10379
wˈa	-10380
æː	-10381
taɡ	-10382
▁zɡ	-10383
elis	-10384
▁ste	-10385
βja	-10386
bokɯ	-10387
etes	-10388
mɪn	-10389
▁dus	-10390
ker	-10391
ɔlts	-10392
ˈənd	-10393
ɹɑs	-10394
eːve	-10395
sek	-10396
atis	-10397
▁ˈɝn	-10398
lɛɡ	-10399
▁tid	-10400
ɪkts	-10401
▁ˈɛθ	-10402
pɾj	-10403
uˈas	-10404
▁ˈse	-10405
sər	-10406
ɪkət	-10407
▁thɛ	-10408
▁jø	-10409
jinɨ	-10410
teʁɛ	-10411
ɛmpɹ	-10412
ˈuɡ	-10413
ɛnər	-10414
injɝ	-10415
▁had	-10416
ikəl	-10417
kt̪ɐ	-10418
phɐ	-10419
sɝz	-10420
ɪɫk	-10421
sv	-10422
o̞ŋɡ	-10423
adˈa	-10424
bus	-10425
paɾt	-10426
eɕi	-10427
əˈθ	-10428
ˌiː	-10429
niçi	-10430
ˈiːs	-10431
oʃ	-10432
doɴ	-10433
mɛ̃	-10434
ront	-10435
▁biz	-10436
eɾen	-10437
▁bɛz	-10438
▁fɾa	-10439
bɝɡ	-10440
fɛt	-10441
ɡju	-10442
˧˧z	-10443
seɲɲ	-10444
▁ʁad	-10445
ɪgn	-10446
▁ʁen	-10447
ẽv	-10448
diz	-10449
▁ʑɛm	-10450
vaŋ	-10451
ɛrs	-10452
ɪˈfɝ	-10453
ɔki	-10454
ˌeːn	-10455
pad	-10456
ŋa͡ɪ	-10457
æmɪk	-10458
ˈiko	-10459
osˌb	-10460
ʌʋɯm	-10461
ʏtst	-10462
kiz	-10463
osas	-10464
ɔdyk	-10465
ˈɾo	-10466
asɛm	-10467
▁kuβ	-10468
eːh	-10469
utən	-10470
▁ril	-10471
jada	-10472
ˌɛmp	-10473
▁hʌ̹	-10474
▁mɛː	-10475
ɾk	-10476
ansj	-10477
ravɨ	-10478
piː	-10479
ɛsɪv	-10480
əˈk	-10481
▁ˈmɔ	-10482
ɪɾt	-10483
ætʃt	-10484
ʃtʃi	-10485
▁khɐ	-10486
▁dɨʃ	-10487
haka	-10488
ɲax	-10489
anˌʔ	-10490
▁ʃta	-10491
βjo	-10492
unsj	-10493
ɑɫɝz	-10494
▁aɲa	-10495
ukɐ	-10496
ɔkɔ	-10497
▁ɔxr	-10498
jɛt	-10499
tẽj̃	-10500
ɨklɛ	-10501
doɾ	-10502
ɹiˈh	-10503
▁fɝ	-10504
eɾse	-10505
▁ʐɨv	-10506
etɛ	-10507
iɡa̠	-10508
▁ɡɔr	-10509
brik	-10510
ˈɑs	-10511
▁ʒen	-10512
ˌaw	-10513
▁bwa	-10514
koɾ	-10515
uret	-10516
ɪnst	-10517
mjɛɲ	-10518
▁mob	-10519
▁ʃəm	-10520
ɛŋɡ	-10521
alɐ̯	-10522
ʊtst	-10523
bɦiː	-10524
ɡˈo	-10525
ɲɛɲ	-10526
ɔffə	-10527
ɯkot	-10528
ɨɾu	-10529
ersi	-10530
oʊzɝ	-10531
bˈal	-10532
oʊbɝ	-10533
▁ɔnɛ	-10534
▁ɪnd	-10535
ɦä̃ː	-10536
awɔɕ	-10537
ɛrse	-10538
ɛlb	-10539
▁kˈ	-10540
əktr	-10541
ʃʊŋ	-10542
kɝ	-10543
ɔrɛm	-10544
tuð	-10545
ɕhɯ	-10546
▁ɡɔɕ	-10547
ɾaɕi	-10548
ɔʁte	-10549
▁tas	-10550
ɪnf	-10551
▁ɡaz	-10552
▁ɡəd	-10553
▁ɲɛr	-10554
ˈsid	-10555
etik	-10556
ˈɑːi	-10557
bəˈs	-10558
olit	-10559
ɕt͡	-10560
okaʁ	-10561
ɐɾiː	-10562
▁neg	-10563
▁pɛj	-10564
ɔl˧˧	-10565
▁mɛɦ	-10566
ig	-10567
ogeɴ	-10568
▁fũd	-10569
▁t͈ɯ	-10570
tʁa	-10571
lɑŋ	-10572
umɯɭ	-10573
ʌpː	-10574
əve	-10575
fej	-10576
skon	-10577
əbst	-10578
ɾeˈk	-10579
ɲix	-10580
iɣaˈ	-10581
ɔlf	-10582
e̞ɭ	-10583
nd̪	-10584
ɕiw	-10585
▁dʊʁ	-10586
ʏkən	-10587
▁bɔr	-10588
uɰi	-10589
ɛʒɝz	-10590
ˈint	-10591
ɹæ	-10592
kip	-10593
takt	-10594
▁gaɲ	-10595
tje	-10596
ɪɾk	-10597
ɛma	-10598
atte	-10599
mpoɾ	-10600
ɛt͡ɕ	-10601
əm˦˨	-10602
ʃtet	-10603
ˈira	-10604
ɛkj	-10605
ʊkiz	-10606
ˈfɪn	-10607
▁dɹˈ	-10608
▁fut	-10609
ahaɡ	-10610
əstɹ	-10611
ɪsɝ	-10612
æɫɝi	-10613
pj	-10614
əbz	-10615
serv	-10616
uvəɫ	-10617
atɐ	-10618
▁ɕl	-10619
▁kɔɾ	-10620
tsu	-10621
kˈeː	-10622
dit	-10623
jore	-10624
oʊvɝ	-10625
kˈoː	-10626
ɛɾiʃ	-10627
ɛtʃ	-10628
▁bɛː	-10629
▁kaʃ	-10630
▁oβt	-10631
ẽtɐs	-10632
▁ʈɾ	-10633
▁ɲɛd	-10634
▁ɐ̃b	-10635
ks̪	-10636
ɔøm	-10637
ɔbjɛ	-10638
ɪsˌk	-10639
▁drɔ	-10640
ɯki	-10641
ɨɲɛ	-10642
ˌeəs	-10643
tir	-10644
kɛtə	-10645
ɨʂ	-10646
kaっt	-10647
utɪŋ	-10648
ɛɾgɾ	-10649
kxɯm	-10650
sənz	-10651
ture	-10652
ɔɡo	-10653
▁ʃɪk	-10654
mbra	-10655
▁miʎ	-10656
kɯm	-10657
▁upɐ	-10658
anɔ̃	-10659
▁vɔ̃	-10660
anˌ	-10661
▁pin	-10662
iga	-10663
siɣ	-10664
▁fɨ	-10665
tae	-10666
uːɐə	-10667
tipl	-10668
▁ʼot	-10669
́ː	-10670
at˧˧	-10671
far	-10672
▁dl	-10673
wɔve	-10674
ɡel	-10675
▁pɛʃ	-10676
inik	-10677
▁ʒav	-10678
nɔv	-10679
ɔpo	-10680
▁ɛɾ	-10681
▁ɣɯə	-10682
▁de̞	-10683
usɨ	-10684
ɔmɔ	-10685
tiɣu	-10686
uɡo̞	-10687
▁neɣ	-10688
rik	-10689
ue̞	-10690
jijɛ	-10691
▁dəl	-10692
ɾoβ	-10693
daft	-10694
▁veɪ	-10695
ɛŋkt	-10696
ɡul	-10697
▁dɔd	-10698
pʌɖ	-10699
ˌol	-10700
noha	-10701
veː	-10702
stɑ̃	-10703
ɛnəɫ	-10704
lɪŋ	-10705
▁ˈpɑ	-10706
aɾai	-10707
joso	-10708
ɛe	-10709
ɹəˈn	-10710
lˈo	-10711
mjɛr	-10712
ɐ̃ta	-10713
ˈuːm	-10714
bäː	-10715
zst	-10716
▁iɾi	-10717
ɑɹn	-10718
▁kaf	-10719
ɔlxə	-10720
ɕip̚	-10721
tɔr	-10722
▁ˌw	-10723
▁stɔ	-10724
▁ŋɯk	-10725
▁ʁej	-10726
imɰi	-10727
æsɪk	-10728
okˈo	-10729
▁ʋjə	-10730
äːʃ	-10731
fɛnd	-10732
ˌur	-10733
jink	-10734
▁ɔzn	-10735
ɔɹəm	-10736
ɯme̞	-10737
aɾð	-10738
kae	-10739
ˈɛru	-10740
dih	-10741
upa	-10742
ˌpʊt	-10743
mple	-10744
kaʁ	-10745
ˈeɹ	-10746
ˌias	-10747
▁skɔ	-10748
▁aɲi	-10749
inɯ	-10750
ɛʁʒ	-10751
ahoɯ	-10752
zaɪɝ	-10753
bɛt	-10754
kune	-10755
lek	-10756
rˈo	-10757
ɛnən	-10758
▁ond	-10759
əvɝn	-10760
ɨpːɯ	-10761
ʌ̹nm	-10762
ɹɑk	-10763
dɛɡɔ	-10764
ɪnɪm	-10765
ɪtɝz	-10766
ˈɑɹ	-10767
ɾiːv	-10768
ɾɪt̪	-10769
ɛmo	-10770
a͡ɪh	-10771
aɾtə	-10772
eɪvd	-10773
paɲɲ	-10774
▁seʁ	-10775
aɪnɝ	-10776
eln	-10777
leɾ	-10778
lˌ	-10779
bim	-10780
▁ɐβ	-10781
põsa	-10782
kano	-10783
iby	-10784
ɔre	-10785
ɾaen	-10786
alna	-10787
goɾi	-10788
ŋkən	-10789
skɾ	-10790
ɛd˧˧	-10791
▁təˈ	-10792
ɔnda	-10793
▁rem	-10794
ins	-10795
ɛto	-10796
▁ɰβ	-10797
kˈad	-10798
biː	-10799
ihad	-10800
ikuʃ	-10801
͡uːr	-10802
▁ˌov	-10803
io	-10804
bənt	-10805
˧˧hˌ	-10806
▁d̪u	-10807
▁ʒez	-10808
ɨjʌm	-10809
ˈets	-10810
eɪɡ	-10811
ˌap	-10812
▁pɾɨ	-10813
▁ɡe	-10814
esis	-10815
aɪni	-10816
▁s͈ɯ	-10817
u̯	-10818
ɖʌl̪	-10819
▁jip	-10820
ɑɾi	-10821
▁hot	-10822
este	-10823
▁ʎeɣ	-10824
ɔnu	-10825
▁glo	-10826
ˈec	-10827
ŋɡɯm	-10828
▁vik	-10829
▁iʌ̹	-10830
aʊɹ	-10831
ɛbjɛ	-10832
ʂnɨm	-10833
ˈtal	-10834
▁pʌɳ	-10835
ʃɛn	-10836
njən	-10837
ntos	-10838
▁t̪ɯ	-10839
oʃʃ	-10840
▁rað	-10841
oɾaɴ	-10842
hh	-10843
ɛvɲ	-10844
ɡjəm	-10845
ɑɹi	-10846
bˈan	-10847
▁ˈʔʏ	-10848
ɔ̃te	-10849
mɯn	-10850
ɔvɔɕ	-10851
▁lið	-10852
opja	-10853
▁ʔʌɻ	-10854
klw	-10855
▁ɾɑː	-10856
stɔɕ	-10857
maj	-10858
▁vĩ	-10859
dʒɝi	-10860
ɔndu	-10861
▁vju	-10862
fr	-10863
beɾa	-10864
pjɛ	-10865
bjil	-10866
lˈɛt	-10867
▁ʁɔb	-10868
zin	-10869
ɾax	-10870
afts	-10871
▁aˈk	-10872
▁bjo	-10873
erd	-10874
uːlə	-10875
▁blu	-10876
▁ɔna	-10877
ˈɔn	-10878
ikaʁ	-10879
▁ɹɪf	-10880
pɾom	-10881
▁kœʁ	-10882
▁xɔt	-10883
atok	-10884
opeɾ	-10885
upɨ	-10886
kəvɝ	-10887
ɾið	-10888
ʏsz	-10889
maɫ	-10890
akim	-10891
ˈeɪl	-10892
ˌtɹ	-10893
ˌkəp	-10894
▁ʁol	-10895
ija	-10896
▁sχ	-10897
zaɲɛ	-10898
uɭɭ	-10899
æsɪv	-10900
kːʌ	-10901
ˈɣo	-10902
siʃ	-10903
iɕim	-10904
▁ali	-10905
ˈnun	-10906
ɲɔs	-10907
aɾx	-10908
ɛri	-10909
bɛnd	-10910
eɪvz	-10911
ʃɾiː	-10912
▁ʁɛv	-10913
ɔke	-10914
ˈzoː	-10915
ʏŋ	-10916
▁fɕ	-10917
aɪbɝ	-10918
etɛʁ	-10919
fal	-10920
dø̞ɭ	-10921
ʃtaɾ	-10922
▁fla	-10923
mom	-10924
ɔøʧə	-10925
pɕ͈	-10926
ˌion	-10927
iən	-10928
ˈtɛː	-10929
rd	-10930
ŋuŋ	-10931
ɛstɹ	-10932
▁mje	-10933
lk	-10934
ənə	-10935
oβil	-10936
əvɝz	-10937
▁əˌk	-10938
kˌa	-10939
ərz	-10940
ɛtvɑ	-10941
ɾaft	-10942
aʁt	-10943
ula	-10944
tax	-10945
unbi	-10946
ɡˈi	-10947
ilaɾ	-10948
wɨv	-10949
ffer	-10950
▁moβ	-10951
▁saɴ	-10952
sae	-10953
ɛsɝ	-10954
jɛri	-10955
tsɯn	-10956
ʌʋeː	-10957
ɔzɪz	-10958
sˈon	-10959
ɔøəs	-10960
nota	-10961
ˌwʊd	-10962
͡ʊs	-10963
nome	-10964
ɛɹəm	-10965
ʦə	-10966
iːl̪	-10967
mik	-10968
ɖeː	-10969
kes	-10970
lɔpe	-10971
ɲɐ̃	-10972
opoɾ	-10973
▁bɛt	-10974
ɔpp	-10975
lare	-10976
bok	-10977
di̯	-10978
mˈi	-10979
əˈsp	-10980
ˈæɕt	-10981
ʂɛs	-10982
▁gɛʁ	-10983
ˈfɐ̯	-10984
fiʁ	-10985
yɾən	-10986
▁pɾɔ	-10987
▁aˈn	-10988
ɾam	-10989
▁ɡub	-10990
liː	-10991
äːk	-10992
ɸɯɴ	-10993
äːẽː	-10994
ˈkɫu	-10995
ʌɡa	-10996
▁ˈnɑ	-10997
aɾak	-10998
▁teˈ	-10999
▁anɡ	-11000
tiða	-11001
ɪʃj	-11002
bʁøz	-11003
▁hiː	-11004
niː	-11005
baɾe	-11006
jaʒ	-11007
ɯsɯ	-11008
ʈːi	-11009
ˈæk	-11010
ɽaː	-11011
▁pĩ	-11012
oːs̪	-11013
mɨɾ	-11014
əɦiː	-11015
ɛtɝz	-11016
ɛdˌɫ	-11017
ɛʁv	-11018
əsɫi	-11019
▁pɔʐ	-11020
tive	-11021
t͡sk	-11022
▁ela	-11023
hom	-11024
ɔps	-11025
kɾis	-11026
ublˌ	-11027
əsəɫ	-11028
iɾəs	-11029
ɫaɪt	-11030
ɔʐɛ	-11031
▁ˌeɪ	-11032
uɕh	-11033
mann	-11034
bji	-11035
ɾej	-11036
βal	-11037
▁ĩɡ	-11038
stus	-11039
toka	-11040
▁ʁaz	-11041
ɛɾf	-11042
▁aʂ	-11043
gaɾi	-11044
}:	-11045
ɹɔ	-11046
βin	-11047
lok	-11048
ʎɐʃ	-11049
ˈpɑs	-11050
βesa	-11051
▁ˌɪs	-11052
ac	-11053
aktu	-11054
▁naʂ	-11055
zaʒ	-11056
ʃ˧˧	-11057
ɛɾva	-11058
ˈash	-11059
▁rɛl	-11060
ud̪	-11061
▁rw	-11062
anˌm	-11063
etʃa	-11064
e̞k̚	-11065
ɰβai	-11066
ɹəɫi	-11067
▁sei	-11068
uva	-11069
pɐɲɐ	-11070
ɦẽː	-11071
oʁ	-11072
pir	-11073
tra	-11074
ɹˈen	-11075
ɾopɑ	-11076
ˈimu	-11077
▁bəɾ	-11078
haha	-11079
aɪoʊ	-11080
muð	-11081
əʁe	-11082
▁bju	-11083
faɪn	-11084
ædɫi	-11085
ɔɪi	-11086
kant	-11087
ɨɖʌm	-11088
bɐɾ	-11089
ɛkə	-11090
nəm	-11091
iːll	-11092
inɛ	-11093
▁tav	-11094
anak	-11095
kiza	-11096
ɔsto	-11097
əŋ˧˨	-11098
ʏnʃə	-11099
dɛɾ	-11100
▁fer	-11101
▁por	-11102
bɔl	-11103
ˈɑːj	-11104
uvz	-11105
anfa	-11106
opwe	-11107
▁ilɛ	-11108
gel	-11109
ʐɔnɛ	-11110
yze	-11111
▁oʁa	-11112
zdeɪ	-11113
siəm	-11114
zeʁ	-11115
uʌ̹	-11116
pil	-11117
ʌ̹nd	-11118
▁ˈtʁ	-11119
uðj	-11120
æfs	-11121
baot	-11122
øːnə	-11123
▁ʋɨɭ	-11124
▁fs	-11125
veːʀ	-11126
ʐɛv	-11127
ˈsɑ	-11128
ʃul	-11129
ine̞	-11130
ɝzdi	-11131
ʑəns	-11132
▁sɛs	-11133
▁ˈɛχ	-11134
▁mɝ	-11135
form	-11136
▁obj	-11137
▁peɳ	-11138
taɲɛ	-11139
mod	-11140
aːxt	-11141
▁bji	-11142
buk̚	-11143
nadʑ	-11144
ˌhɛŋ	-11145
ˈæn	-11146
▁ʦˈ	-11147
っtam	-11148
atur	-11149
noɾi	-11150
uwta	-11151
▁adm	-11152
▁pah	-11153
gɯɾɯ	-11154
ʐɨm	-11155
ɾate	-11156
ˈeit	-11157
▁ʋɪk	-11158
▁bɪk	-11159
vɨʂ	-11160
gadʑ	-11161
▁plɐ	-11162
noai	-11163
ˈɑ́ː	-11164
▁tɕh	-11165
gɛst	-11166
▁kav	-11167
▁ʔɨj	-11168
ettu	-11169
▁bej	-11170
ɔkji	-11171
▁bɔʁ	-11172
mˌas	-11173
zakt	-11174
ɾɰi	-11175
ˈɛː	-11176
esje	-11177
▁lje	-11178
ɔɾɐ	-11179
▁vɨt	-11180
itoi	-11181
ˈiti	-11182
ˈəm	-11183
▁ʃv	-11184
▁kɯw	-11185
isəl	-11186
atɨv	-11187
iʌ̹	-11188
▁ʂi	-11189
xja	-11190
▁uʐ	-11191
▁sov	-11192
ɕiik	-11193
▁joː	-11194
ˈsu	-11195
▁suɫ	-11196
skaɾ	-11197
ɛlɛm	-11198
uph	-11199
▁kă	-11200
▁kʊl	-11201
ɾuː	-11202
jɐnu	-11203
zʏ	-11204
fɔrt	-11205
ˈʔap	-11206
▁ˈpæ	-11207
œb	-11208
eːn̪	-11209
vjɛk	-11210
gəˈp	-11211
iʎʎa	-11212
tɝ	-11213
ft͡ʂ	-11214
jʃtu	-11215
▁ət̚	-11216
ũs	-11217
uli	-11218
nikɯ	-11219
▁rɛz	-11220
▁imm	-11221
hei	-11222
ɑtoʊ	-11223
rɛɕɛ	-11224
▁sif	-11225
haft	-11226
puta	-11227
ɛ̝m	-11228
inw	-11229
ɾana	-11230
˧˧ʂ	-11231
dʁwa	-11232
ˈno	-11233
▁lal	-11234
l̪ɔ	-11235
mbut	-11236
▁mwɔ	-11237
ッtok	-11238
ɑlˌ	-11239
aʊts	-11240
ˈsɝn	-11241
kujɛ	-11242
kaze	-11243
ːtɪŋ	-11244
▁ɡov	-11245
stem	-11246
ˈaɡə	-11247
▁ref	-11248
iʒ	-11249
s͈ɯm	-11250
▁ɡəˈ	-11251
▁ˈɑɫ	-11252
niɾ	-11253
oɾta	-11254
ɫaɪd	-11255
▁jum	-11256
▁pɔɦ	-11257
▁rib	-11258
ɑˈz	-11259
skət	-11260
dʑid	-11261
bərs	-11262
▁fʁɛ	-11263
tsiː	-11264
ˈoni	-11265
ˈoːt	-11266
ədɫi	-11267
▁nˈe	-11268
ɪsks	-11269
ɾeso	-11270
ˈeər	-11271
▁ɣɤ̆	-11272
oːtə	-11273
wˈer	-11274
ksəd	-11275
ŋga	-11276
fikɐ	-11277
▁fy	-11278
ɔmɔɕ	-11279
▁bim	-11280
▁nĩ	-11281
a̠ŋm	-11282
vˈaŋ	-11283
aiɾɯ	-11284
sede	-11285
ɛsən	-11286
▁oto	-11287
▁buj	-11288
istʃ	-11289
iɴto	-11290
ɔbil	-11291
adis	-11292
ɭsh	-11293
ʝje̞	-11294
▁sˈɪ	-11295
▁ɡɪŋ	-11296
▁ɣɤj	-11297
ɪˌv	-11298
t͡ʂɲ	-11299
▁owv	-11300
tt	-11301
um˧˧	-11302
ɪtɪʃ	-11303
dɨm	-11304
ɛkɪŋ	-11305
ˈkan	-11306
ʃɝɪŋ	-11307
▁was	-11308
mpt	-11309
æsks	-11310
ˈe͡ɪ	-11311
▁iso	-11312
▁ɛɪɡ	-11313
ʂk	-11314
ˈman	-11315
▁ðɛɹ	-11316
ikar	-11317
ɐ̃ʃf	-11318
ˈoːl	-11319
▁pej	-11320
aŋs	-11321
▁fj	-11322
▁suf	-11323
▁ʒoz	-11324
t̪ɯ	-11325
▁ɡim	-11326
dɔ̃	-11327
ekto	-11328
▁rez	-11329
ɯdʑi	-11330
ˈfʏl	-11331
ɛltə	-11332
▁vir	-11333
əɡiː	-11334
▁jas	-11335
age	-11336
▁nɤ	-11337
▁vɨw	-11338
▁opl	-11339
siˈ	-11340
hind	-11341
ʃəɪn	-11342
▁dɪv	-11343
jäːɾ	-11344
▁bun	-11345
raʑ	-11346
a˧˧l	-11347
▁hop	-11348
▁hi	-11349
enax	-11350
viv	-11351
͡ə	-11352
▁alk	-11353
ɝˌn	-11354
▁ɑːɾ	-11355
æɫkj	-11356
ɹɪpt	-11357
sɑ̃	-11358
itoɯ	-11359
oʊˌn	-11360
ɡa̠ŋ	-11361
usɪŋ	-11362
ərst	-11363
ɲjoŋ	-11364
fˌe	-11365
soɾe	-11366
ˈfia	-11367
ˈikɐ	-11368
eɲos	-11369
opjo	-11370
ɔ̃t	-11371
ʊms	-11372
ˈɑk	-11373
esoɾ	-11374
line	-11375
staf	-11376
əɾʃ	-11377
▁pɛ̃	-11378
ˌon	-11379
bˈɛr	-11380
っtaɴ	-11381
alsj	-11382
▁hɛŋ	-11383
szən	-11384
əˈdʒ	-11385
▁ewɾ	-11386
▁moʊ	-11387
▁dɤ	-11388
ampa	-11389
imat	-11390
stɪk	-11391
bɹu	-11392
ˌkw	-11393
teˈk	-11394
əspɹ	-11395
vjɛl	-11396
əlf	-11397
▁thɔ	-11398
ɔzum	-11399
ɑni	-11400
▁gəz	-11401
▁ʁɔm	-11402
jina	-11403
bɨm	-11404
jidu	-11405
avɔ	-11406
a̠p̚	-11407
stis	-11408
▁tɯɭ	-11409
ˌud	-11410
▁tad	-11411
omst	-11412
ˈdid	-11413
eɾs	-11414
jawa	-11415
▁ɡrɨ	-11416
nter	-11417
ɛi	-11418
mbu	-11419
pɾuv	-11420
▁ʑim	-11421
bɪld	-11422
seɾɯ	-11423
ukaɾ	-11424
▁ton	-11425
əðɝz	-11426
▁siw	-11427
jɐ̃	-11428
ulɐ	-11429
ɛlo	-11430
pˈɛr	-11431
▁oˈp	-11432
ɲat	-11433
xas	-11434
ɔdˌk	-11435
aɾik	-11436
▁leɣ	-11437
sˈum	-11438
▁khu	-11439
mɔs	-11440
thi	-11441
muk	-11442
pit	-11443
aʊɪŋ	-11444
uɡa̠	-11445
nɔm	-11446
zɪts	-11447
▁sur	-11448
ッtɕi	-11449
əˌh	-11450
ɑɫəd	-11451
▁wad	-11452
nar	-11453
ʂˈɑː	-11454
ɑŋ	-11455
ʊɹi	-11456
nʔ	-11457
ərv	-11458
ɪʃi	-11459
haɾe	-11460
▁deː	-11461
ɛɾp	-11462
ˌbɹ	-11463
▁ʃa	-11464
usˈa	-11465
stɾe	-11466
i˧˧ʐ	-11467
ndʒɝ	-11468
diːn	-11469
æmˈb	-11470
▁bɾĩ	-11471
▁fɛr	-11472
æɫi	-11473
ɛːɾ	-11474
▁gʁo	-11475
▁lœ̃	-11476
▁zaz	-11477
ɛɡuw	-11478
▁ʁən	-11479
▁ɐɾ	-11480
niku	-11481
▁aˈi	-11482
▁lek	-11483
▁ɡəɾ	-11484
ɾ̪ʌ	-11485
eɪkɝ	-11486
bʌ̹m	-11487
odai	-11488
ɛɫi	-11489
brɨ	-11490
yːp	-11491
josh	-11492
▁tɥi	-11493
ikyl	-11494
gem	-11495
nʊts	-11496
ɪktə	-11497
▁cam	-11498
ˈaa	-11499
▁zʋ	-11500
▁bɔɡ	-11501
▁ʔem	-11502
pɔsa	-11503
▁ˈga	-11504
jes	-11505
aɪˈk	-11506
ɔpri	-11507
▁cˌo	-11508
▁ˌim	-11509
ʋi	-11510
õs	-11511
d̪̚	-11512
sɯe	-11513
ɑɫvd	-11514
ɪon	-11515
ɛdɪd	-11516
▁ɹoː	-11517
▁psˌ	-11518
uʁs	-11519
itʃt	-11520
tael	-11521
ækˈt	-11522
ɸɯɕi	-11523
▁dɲi	-11524
un̪	-11525
ˈpət	-11526
gɑ	-11527
ʂna	-11528
ls	-11529
esko	-11530
eːʀt	-11531
ʌ̹e̞	-11532
▁fɾu	-11533
▁eʁ	-11534
rib	-11535
ʋɯm	-11536
▁ˈiɡ	-11537
khɐ	-11538
okup	-11539
▁vɛd	-11540
▁ˈob	-11541
jɛ̃n	-11542
app	-11543
ˌab	-11544
ʃəɫi	-11545
ˌfɪɹ	-11546
▁byʁ	-11547
eːmb	-11548
naɕi	-11549
vɛlt	-11550
ənˌl	-11551
imɔɹ	-11552
onɛn	-11553
▁nuɾ	-11554
▁ɡˌu	-11555
▁ˈpf	-11556
ofˌ	-11557
atw	-11558
itif	-11559
▁dɛɾ	-11560
▁əbɦ	-11561
ɻʌ	-11562
▁pɔɾ	-11563
▁ʁit	-11564
ɾuːf	-11565
ðɨɾ	-11566
ɑkɪŋ	-11567
nita	-11568
▁əʋ	-11569
mɲɛj	-11570
ɨʈː	-11571
bax	-11572
▁esf	-11573
ɔllo	-11574
ɑːɾɔ	-11575
pˌʃ	-11576
oɾno	-11577
asai	-11578
ʌl̪a	-11579
ikəm	-11580
əpiz	-11581
ɪmɪt	-11582
▁ʃal	-11583
っp	-11584
▁mʌɡ	-11585
▁yʁ	-11586
oːɾɐ	-11587
vel	-11588
ˈo͡ɪ	-11589
▁ɡab	-11590
pˈɛ	-11591
ɖʌɪ̯	-11592
fɛk	-11593
ɔɪəɫ	-11594
omam	-11595
ensi	-11596
ẽdeʁ	-11597
ɹɪp	-11598
shɯŋ	-11599
ɛɾˈg	-11600
d̪ʌn	-11601
▁wɛ	-11602
aɾtɐ	-11603
ˈea	-11604
kˈam	-11605
▁muɕ	-11606
stre	-11607
ny	-11608
max	-11609
ɔɹəɫ	-11610
na̠ɭ	-11611
ɭɭe̞	-11612
ˈafi	-11613
eːf	-11614
niɭ	-11615
tri	-11616
umat	-11617
ˈili	-11618
▁iɾa	-11619
ˈuat	-11620
por	-11621
liʒ	-11622
dʒɪŋ	-11623
ɑɫɪk	-11624
ɛɕmɨ	-11625
ˈɐr	-11626
ɔduf	-11627
maʒ	-11628
͡ʊl	-11629
sumo	-11630
hiː	-11631
dʑin	-11632
ɑːde	-11633
▁kɯɲ	-11634
ut̚	-11635
tɕim	-11636
uːzɑ	-11637
anim	-11638
nokɯ	-11639
▁imn	-11640
tʃɝz	-11641
ɕhiɡ	-11642
ɪdɫi	-11643
vɛɾp	-11644
tabi	-11645
aroʎ	-11646
ˈɾt	-11647
izɑ̃	-11648
t͡sɔ	-11649
▁mɑn	-11650
ˌɹum	-11651
▁ut̪	-11652
▁kʃ	-11653
dere	-11654
skɾi	-11655
ʌrk	-11656
ktˈi	-11657
bˈar	-11658
▁nul	-11659
ve̞	-11660
iteɾ	-11661
tuˈʔ	-11662
ɛɾʊŋ	-11663
hap	-11664
kɔx	-11665
eɡr	-11666
oreo	-11667
ɾju	-11668
▁kçi	-11669
ŋɡɐ	-11670
muɾi	-11671
ˈɾe	-11672
ˈðɾa	-11673
▁iʂ	-11674
ɹɪs	-11675
mino	-11676
▁kɐj	-11677
a̠d	-11678
adaɲ	-11679
punt	-11680
ɹɪn	-11681
oomo	-11682
ɨjnɛ	-11683
▁ʐaj	-11684
ohat	-11685
ɛɾə	-11686
anas	-11687
sato	-11688
ɾima	-11689
▁soɴ	-11690
kõː	-11691
ɛrp	-11692
elos	-11693
otoɾ	-11694
ændi	-11695
▁ɾ̪ʌ	-11696
ˌant	-11697
▁nɪˈ	-11698
oːɾʈ	-11699
ˈeːd	-11700
▁ˈjɑ	-11701
▁mˌu	-11702
ʊ̃	-11703
˧˧k	-11704
iɾa	-11705
ikat	-11706
ɛɾtɾ	-11707
ʃan	-11708
bɾ	-11709
uvna	-11710
mpə	-11711
odʑi	-11712
▁aŋk	-11713
wˌ	-11714
fɫ	-11715
nzɐ̯	-11716
vəny	-11717
vˈ	-11718
ɐv	-11719
ɔtɛ	-11720
ɛwɲ	-11721
meːn	-11722
ɑɹtɝ	-11723
▁ʃpe	-11724
ptʃɝ	-11725
▁gam	-11726
aze	-11727
ˈton	-11728
ɛɾkt	-11729
ɨrkɯ	-11730
ʊsst	-11731
ɦɑː	-11732
ˈikə	-11733
eːə	-11734
ɐju	-11735
ndɪŋ	-11736
upɝˌ	-11737
ɔɡji	-11738
▁neɲ	-11739
▁ɔʃp	-11740
uɾɐ	-11741
ɑzə	-11742
iɾi	-11743
▁meo	-11744
utas	-11745
▁kʂɨ	-11746
▁dv	-11747
▁oˈu	-11748
eɾsj	-11749
obɐ̯	-11750
ˈaka	-11751
uʐ	-11752
pʊɾ	-11753
▁ʒap	-11754
ˈɛrs	-11755
ʋʌ	-11756
gok	-11757
ɨsk	-11758
bjaɾ	-11759
wˈɜː	-11760
ɪɡən	-11761
e̞ɰi	-11762
▁ˈet	-11763
▁ˌə	-11764
ɛsus	-11765
ɛɹiə	-11766
▁jăŋ	-11767
olaɾ	-11768
ilj	-11769
lej	-11770
ɛpθ	-11771
▁ˈoh	-11772
ɔw˧˧	-11773
▁pœʁ	-11774
dˈo	-11775
vɔ̃	-11776
ɛˈn	-11777
▁ɕa	-11778
ikɯk	-11779
fʊŋ	-11780
ʌnʌm	-11781
jisɨ	-11782
steʁ	-11783
ẽːɳʈ	-11784
hər	-11785
arje	-11786
▁krə	-11787
▁ˈoj	-11788
vaʁ	-11789
ʏnf	-11790
▁pim	-11791
unus	-11792
▁ʁak	-11793
oːto	-11794
ˈdɾa	-11795
ino̞	-11796
ɑkət	-11797
ɡɯp̚	-11798
aw˦˨	-11799
oʊtɝ	-11800
ŋˈan	-11801
iðus	-11802
▁dej	-11803
▁ẽf	-11804
ʒist	-11805
ɳäː	-11806
ɕiid	-11807
pal	-11808
ʁdn̩	-11809
▁kir	-11810
æmən	-11811
ˌɛmb	-11812
olu	-11813
:n	-11814
ɐɾɐk	-11815
ɛŋən	-11816
ˈmeɾ	-11817
ʃm	-11818
gim	-11819
ɐən	-11820
anˌh	-11821
vala	-11822
ci	-11823
▁ʐe	-11824
▁pɨn	-11825
fji	-11826
ʌ̹ɰi	-11827
uɾa	-11828
mʌɪ̯	-11829
ɛ̝sh	-11830
▁jah	-11831
iniʁ	-11832
ɪɹoʊ	-11833
▁arx	-11834
ɾʊ	-11835
tʁol	-11836
▁suv	-11837
nɛ˧˧	-11838
allt	-11839
eria	-11840
ʌrkɯ	-11841
ozoɯ	-11842
uɫɪŋ	-11843
gei	-11844
nˈa	-11845
soɴ	-11846
oːme	-11847
ˈiŋi	-11848
stʂ	-11849
▁ɔpr	-11850
dʑit	-11851
ðim	-11852
ʋʌɪ̯	-11853
etɕi	-11854
onde	-11855
ndɹ	-11856
ŋən	-11857
inɡu	-11858
omod	-11859
dok	-11860
fɹəˈ	-11861
ɕ͈ɛ̝	-11862
ɪsz	-11863
mˌv	-11864
gako	-11865
iwdu	-11866
▁juː	-11867
▁ɡˌɛ	-11868
ɕhiŋ	-11869
iːts	-11870
▁jʊ	-11871
ʂx	-11872
aɾaɴ	-11873
bʊɾk	-11874
▁vɛs	-11875
ɪtɪz	-11876
ɑɫf	-11877
ɔʁɑ̃	-11878
ɡɹid	-11879
▁ʃin	-11880
ʁiː	-11881
▁kũ	-11882
d͡ʑɲ	-11883
sy	-11884
dˈɔr	-11885
entɾ	-11886
ntuh	-11887
oʊdʒ	-11888
fel	-11889
emit	-11890
esas	-11891
ɪmɪŋ	-11892
ɸɯka	-11893
▁fle	-11894
▁tɛɾ	-11895
dɝz	-11896
ɫɪn	-11897
ɔntʃ	-11898
ɔzi	-11899
bɛk	-11900
▁ʁuɐ	-11901
etam	-11902
βlis	-11903
▁pum	-11904
zei	-11905
▁pɔ̃	-11906
oʊnə	-11907
hama	-11908
äːɾɖ	-11909
ɪɫɝ	-11910
▁ʋə	-11911
oɾem	-11912
▁lɔɡ	-11913
ndək	-11914
aɲol	-11915
βo̞n	-11916
ɔɾf	-11917
daːk	-11918
▁hel	-11919
r̩t̪	-11920
now	-11921
ɛt̪	-11922
˧˧v	-11923
ʂɨma	-11924
ɾiw	-11925
zats	-11926
ɲist	-11927
uːɖ	-11928
iɾe̞	-11929
ッɕi	-11930
▁pɛt	-11931
ines	-11932
▁səŋ	-11933
ʊɫˈf	-11934
waʁe	-11935
ivˈi	-11936
bed	-11937
yte	-11938
skob	-11939
ɛŋl	-11940
bək	-11941
jɛne	-11942
ˈaah	-11943
▁zaɕ	-11944
▁ɑ̃g	-11945
▁ʔʌɳ	-11946
akuf	-11947
rava	-11948
ætɝn	-11949
eːkɐ	-11950
isaɴ	-11951
stɑk	-11952
ʌd̪i	-11953
▁ɑ̃ʒ	-11954
ɲit	-11955
itaʁ	-11956
e͡u	-11957
ɪxt	-11958
▁hˈ	-11959
ɹid	-11960
s͈ʌ̹	-11961
ʂɨmɨ	-11962
eto	-11963
ɝpɹ	-11964
otə	-11965
ʃɪps	-11966
ʁuv	-11967
izɐ	-11968
jav	-11969
ˌkɫ	-11970
ɔ˨˦	-11971
ɳɑː	-11972
▁sˌi	-11973
akɯk	-11974
paˈɲ	-11975
lˈu	-11976
imɐs	-11977
▁kɹˌ	-11978
sima	-11979
enn	-11980
▁ʔat	-11981
ŋkh	-11982
▁iːd	-11983
sɨv	-11984
ɡim	-11985
ɛktr	-11986
▁ˈmɑ	-11987
too	-11988
▁ɡoː	-11989
ɛtk	-11990
ɡiː	-11991
ɐɾeː	-11992
teb	-11993
itˈu	-11994
ˌhaʊ	-11995
pɔm	-11996
ɛtɐ	-11997
˧˧n	-11998
▁pʊɾ	-11999
stɛʁ	-12000
ɔɹɪd	-12001
bəs	-12002
zɛ̃	-12003
gaɰβ	-12004
leˈf	-12005
▁ɔrɡ	-12006
mˈat	-12007
nikɐ	-12008
ɾɯɴ	-12009
ˈɪdː	-12010
▁klˈ	-12011
haç	-12012
baw	-12013
ˈiz	-12014
ˌɛp	-12015
ɐ̃si	-12016
xeti	-12017
urɛ	-12018
mpˈl	-12019
pɾʊx	-12020
shɛ̝	-12021
ʌnri	-12022
esew	-12023
jɛŋk	-12024
ˌsɪd	-12025
ːo	-12026
ndes	-12027
taɲa	-12028
djal	-12029
sˌva	-12030
ʦiːn	-12031
▁nˈɛ	-12032
ɐ̃ʒ	-12033
kiɾɯ	-12034
soɾa	-12035
ɹaːt	-12036
▁unt	-12037
iˈɾ	-12038
dəl	-12039
ne̞	-12040
tʁət	-12041
ɔpɔl	-12042
ɛmpi	-12043
▁flu	-12044
▁っte	-12045
ˌeɪ	-12046
toni	-12047
ɾiβw	-12048
▁iɾm	-12049
ezɯ	-12050
ˈiv	-12051
eːmɐ	-12052
▁fod	-12053
pol	-12054
xtɪc	-12055
▁ɾɔ	-12056
keːʀ	-12057
əlje	-12058
ˌeər	-12059
▁vɨr	-12060
krɨ	-12061
ʃtɾi	-12062
ˈuɪs	-12063
gɪn	-12064
▁sad	-12065
mˈur	-12066
▁fid	-12067
ɛ̃ʐ	-12068
tɛr	-12069
▁ʁet	-12070
ɛsɑ̃	-12071
wɔvi	-12072
ɛkji	-12073
ʌɡʌm	-12074
mɯk	-12075
kono	-12076
e̞ː	-12077
masɯ	-12078
vidɐ	-12079
▁ʁa	-12080
meˈe	-12081
ɛfɝ	-12082
▁ɛme	-12083
ɡˈa	-12084
▁vɛk	-12085
jɛɕ	-12086
ˈoɲa	-12087
ˌfɫ	-12088
aʊnz	-12089
χtən	-12090
əmˌw	-12091
▁sɪˈ	-12092
tʃɪz	-12093
▁doʊ	-12094
ɑXt	-12095
deçi	-12096
eba	-12097
ˈaɲ	-12098
rend	-12099
ters	-12100
ɔsju	-12101
▁ust	-12102
eɪnɝ	-12103
▁ʃap	-12104
bjos	-12105
ɪndʒ	-12106
äːkh	-12107
uvən	-12108
ithi	-12109
aˈt	-12110
ɛkaj	-12111
xiðo	-12112
gen	-12113
axes	-12114
jɯme	-12115
▁aju	-12116
ɪɫə	-12117
ɛnda	-12118
ʏnft	-12119
dy	-12120
ˈɹɑ	-12121
ɦäːʋ	-12122
ˈɔra	-12123
▁huj	-12124
gom	-12125
jɔne	-12126
wər	-12127
emat	-12128
iten	-12129
▁der	-12130
ele	-12131
ɹəm	-12132
vɔju	-12133
▁fum	-12134
cː	-12135
ɛtr	-12136
ɾita	-12137
▁bɹˌ	-12138
iɾɐ	-12139
▁ˈɹɑ	-12140
▁ˈʔu	-12141
ɑɹə	-12142
axˌt	-12143
ɑtɪk	-12144
ʏt	-12145
uɾs	-12146
blɛ	-12147
aɪ̯ç	-12148
▁ẽvi	-12149
ŋkɪŋ	-12150
ɾiːp	-12151
▁bje	-12152
ʊld	-12153
itɑ̃	-12154
▁kõb	-12155
▁pav	-12156
bri	-12157
▁sõ	-12158
▁ɦõː	-12159
æɡz	-12160
gaɾɯ	-12161
gəˈʔ	-12162
▁ink	-12163
aɾia	-12164
ɡənt	-12165
▁vrɛ	-12166
▁ʂuk	-12167
loː	-12168
ũsj	-12169
rax	-12170
ilup	-12171
isis	-12172
aɪˌk	-12173
əʁɔ̃	-12174
sm	-12175
ɛɹɝ	-12176
▁ʔɯj	-12177
ɛbr	-12178
▁pɨr	-12179
ɤp˦˥	-12180
kwɑɫ	-12181
miɲu	-12182
st̪h	-12183
noga	-12184
▁ɹel	-12185
ætəs	-12186
iβiɾ	-12187
puw	-12188
tare	-12189
▁dub	-12190
ɛçən	-12191
▁zvɨ	-12192
əmˌb	-12193
▁hˌu	-12194
anxə	-12195
iətɝ	-12196
▁ski	-12197
tɾas	-12198
▁ˈɪɹ	-12199
allə	-12200
ctɪv	-12201
inɐs	-12202
adam	-12203
ɛːm	-12204
eɾai	-12205
ɡəm	-12206
ˈɑɳ	-12207
tili	-12208
ɛdʒt	-12209
ʈhɐ	-12210
juðu	-12211
▁pɛs	-12212
jose	-12213
▁maː	-12214
uɾʌ̹	-12215
ank	-12216
e:%	-12217
▁keð	-12218
ɦĩː	-12219
esaɾ	-12220
ˈeːi	-12221
uːə	-12222
iɔdo	-12223
▁bow	-12224
▁faʁ	-12225
ɑɹs	-12226
bˈoː	-12227
▁kut	-12228
jet	-12229
ɛɫə	-12230
onis	-12231
▁ˈxo	-12232
með	-12233
tɝm	-12234
ça	-12235
ˌɛɹi	-12236
ẽtas	-12237
▁hak	-12238
noɕa	-12239
ʌt̪	-12240
ɹɑsp	-12241
▁rɔɕ	-12242
bel	-12243
▁vaɪ	-12244
eɾka	-12245
oʊdi	-12246
oʊps	-12247
tuðu	-12248
ɹoːp	-12249
▁lɛɡ	-12250
in̪i	-12251
▁ful	-12252
ɪmɐ	-12253
ades	-12254
o̞th	-12255
tɐm	-12256
ahoɴ	-12257
kvu	-12258
timu	-12259
ʃtat	-12260
ksud	-12261
ds	-12262
ipl	-12263
anit	-12264
okol	-12265
ɲiku	-12266
▁nuk	-12267
timɐ	-12268
▁sɛz	-12269
fɔʐɨ	-12270
▁fst	-12271
▁plɛ	-12272
▁gol	-12273
pɨ	-12274
brɛ	-12275
nuːk	-12276
ʃtɾɐ	-12277
mint	-12278
otsɯ	-12279
tivɐ	-12280
ɑnoʊ	-12281
ɔnjo	-12282
▁ɡam	-12283
ˈðɾi	-12284
ural	-12285
▁hwe	-12286
▁ɑːʋ	-12287
utˈi	-12288
▁ɔdb	-12289
haik	-12290
ːn̪	-12291
e̞e̞	-12292
iˈbi	-12293
temɯ	-12294
▁jok	-12295
enot	-12296
ɛɾpɾ	-12297
ɔɾn	-12298
itœʁ	-12299
ksim	-12300
ulos	-12301
ɔtk	-12302
ˈɪtə	-12303
ron	-12304
eɪps	-12305
oluˈ	-12306
oaw	-12307
uʃʃ	-12308
▁aɾm	-12309
▁rəp	-12310
tið	-12311
ˌom	-12312
zbuk	-12313
ɑtɪʃ	-12314
əd̪ɦ	-12315
˧˧r	-12316
asaɴ	-12317
▁ɹˈu	-12318
eks	-12319
ɐ̃z	-12320
ɔ̃se	-12321
▁se̞	-12322
ːeː	-12323
oːze	-12324
▁vɛv	-12325
▁ɔɾð	-12326
ibɐ	-12327
ʐɔnɨ	-12328
mjɛʁ	-12329
teɾn	-12330
alts	-12331
ɾiβu	-12332
lp	-12333
▁ɫəˈ	-12334
eːʀz	-12335
kəˌh	-12336
eːɦ	-12337
opɾ	-12338
vede	-12339
▁ɡen	-12340
jɛɾ	-12341
ˈɪkə	-12342
shuɭ	-12343
ænju	-12344
▁mɪl	-12345
joɴ	-12346
▁ɤ̆	-12347
iβið	-12348
oʊtə	-12349
ʃtim	-12350
kaɲ	-12351
ɔɡ˧˧	-12352
edi	-12353
ˈsɝv	-12354
tɛl	-12355
mpus	-12356
mɨsw	-12357
nɯnt	-12358
khø̞	-12359
oʊʒɝ	-12360
ˈðia	-12361
əntr	-12362
▁noʊ	-12363
ɾɔø	-12364
▁rɛd	-12365
▁vam	-12366
ˈær	-12367
o̞ɕh	-12368
▁uɕ	-12369
ətɐ̯	-12370
ʒinɐ	-12371
otot	-12372
ʒwəɫ	-12373
▁fɔl	-12374
seɡw	-12375
eɾsa	-12376
o̞dɯ	-12377
▁buɾ	-12378
tuɣa	-12379
ðɐð	-12380
▁wɪθ	-12381
▁ada	-12382
wiʃ	-12383
stɛ	-12384
omae	-12385
ɑnət	-12386
ɔsɔb	-12387
ɨɾs	-12388
jɛrɔ	-12389
ʌɪ̯s	-12390
ˈoːd	-12391
ivɛr	-12392
p͈un	-12393
erat	-12394
oːnl	-12395
gajo	-12396
ɑːʈ	-12397
ɛɡɔr	-12398
▁seɴ	-12399
aʊzɝ	-12400
tʁɛʁ	-12401
▁atw	-12402
▁seʒ	-12403
tɾiː	-12404
osi	-12405
klyz	-12406
dɛj	-12407
aɾit	-12408
nɪts	-12409
weβa	-12410
ziˈt	-12411
ʂwɔɕ	-12412
▁n̪i	-12413
jj	-12414
anɛj	-12415
ɹd	-12416
ʃaʁ	-12417
iɕaj	-12418
publ	-12419
ˈɛhə	-12420
eˈsi	-12421
æntʃ	-12422
22	-12423
haem	-12424
ẽbɾu	-12425
▁fɐj	-12426
sjax	-12427
ʋɨl̪	-12428
saŋ	-12429
a̠ɭɡ	-12430
saðo	-12431
ɑvəɫ	-12432
▁syd	-12433
▁lex	-12434
urˈu	-12435
▁seː	-12436
▁ast	-12437
əle	-12438
ɯmb	-12439
っtei	-12440
nʌ̹	-12441
ʃta	-12442
▁pf	-12443
lɛnd	-12444
ɹɛst	-12445
iðaɾ	-12446
i͡uz	-12447
ɪʃɪz	-12448
▁bet	-12449
▁djø	-12450
ʂu	-12451
ɛzɛ	-12452
sənd	-12453
sɛpt	-12454
utos	-12455
ˌbr	-12456
ɔɾja	-12457
▁rɔl	-12458
aːɡ	-12459
bik	-12460
eɣɾ	-12461
ɨnr	-12462
eɾto	-12463
ot͡ʃ	-12464
ɛfər	-12465
▁ˈdɝ	-12466
▁bəʔ	-12467
▁lez	-12468
▁ʔɨɳ	-12469
ɛli	-12470
▁mɑk	-12471
▁vɹˌ	-12472
ˈma	-12473
ɐ̃dɐ	-12474
raj	-12475
enan	-12476
çiɾa	-12477
ɝˈæk	-12478
▁uzo	-12479
̯a	-12480
ɛrte	-12481
ˈood	-12482
opje	-12483
ɛnzo	-12484
▁lif	-12485
buʁ	-12486
bɯɾɯ	-12487
ekoɯ	-12488
koli	-12489
phiː	-12490
lɔk	-12491
vɝˌɫ	-12492
aːX	-12493
miʃ	-12494
isə	-12495
alim	-12496
▁ʁuʒ	-12497
dʀ	-12498
▁wu	-12499
eッto	-12500
waf	-12501
hˈap	-12502
ɑuːɐ	-12503
▁mɔɾ	-12504
▁nɔr	-12505
ɾəm	-12506
ʔax	-12507
d͡ʒj	-12508
▁ɡək	-12509
goai	-12510
ˌwɝd	-12511
eˈk	-12512
iːŋ	-12513
plə	-12514
▁blɔ	-12515
mɯpe	-12516
ɪntɛ	-12517
ˈɛal	-12518
ftw	-12519
teit	-12520
ɛszə	-12521
ŋgl	-12522
esɐ̃	-12523
sf	-12524
ləs	-12525
ɛnə	-12526
okuɾ	-12527
nˌʔ	-12528
ɡra	-12529
ˌer	-12530
eːʀv	-12531
otos	-12532
ɔɹə	-12533
ŋɡuŋ	-12534
ˌwɛɫ	-12535
▁ɑrt	-12536
ɛnv	-12537
ɛɡz	-12538
aʊ̯x	-12539
inin	-12540
▁sɐŋ	-12541
ˌɪn	-12542
ɨt͡	-12543
nat͡	-12544
bɰi	-12545
ɛʁt	-12546
ɫivd	-12547
ɾino	-12548
▁k͈ɯ	-12549
▁ˈmɝ	-12550
doʁ	-12551
odeɴ	-12552
mals	-12553
tilu	-12554
ɔɡɪŋ	-12555
izɔd	-12556
iːks	-12557
əzət	-12558
ˈɪʃə	-12559
ʏkə	-12560
▁mɪn	-12561
blo	-12562
▁trˌ	-12563
▁ɐmɨ	-12564
▁ʑɛl	-12565
ɫoʊd	-12566
▁hoɯ	-12567
▁ˈɹɔ	-12568
pɾim	-12569
ɲje̞	-12570
zum	-12571
ɔbɲɛ	-12572
ɡa̠ɭ	-12573
ɪt͡ʃ	-12574
asn	-12575
kˌu	-12576
ɑ͡ɪd	-12577
kɔvɨ	-12578
ˈleː	-12579
▁piɾ	-12580
ɔtu	-12581
pˌʃt	-12582
aɾeb	-12583
poʊz	-12584
ɑlʊŋ	-12585
▁tiz	-12586
jeɡ	-12587
ʌɡʌʋ	-12588
ɛziˈ	-12589
jaki	-12590
ɐɾɑː	-12591
ɛksi	-12592
ɛɾnt	-12593
oːj	-12594
yɾʊŋ	-12595
ˈʃl	-12596
▁ɑr	-12597
inth	-12598
əvɪŋ	-12599
ˈzaɪ	-12600
▁ˌsp	-12601
ĩs	-12602
ɾio	-12603
ɾɛː	-12604
ʃɝd	-12605
▁nop	-12606
ɡˈɛl	-12607
kɨr	-12608
uɾe	-12609
ɛɫɝ	-12610
enit	-12611
rad	-12612
▁pip	-12613
ˈɛlt	-12614
mɛː	-12615
ʋäːɾ	-12616
atɛʁ	-12617
jɔnɛ	-12618
mpəs	-12619
dʑiɴ	-12620
gɛnd	-12621
keɕi	-12622
▁ɡlo	-12623
kaʂ	-12624
hˈeː	-12625
ʃh	-12626
ɔdi	-12627
ime̞	-12628
ʃĩ	-12629
▁ask	-12630
cɪ	-12631
ərb	-12632
ɛjɛ	-12633
isid	-12634
▁tai	-12635
aman	-12636
uɡi	-12637
▁ran	-12638
ɴto	-12639
ofˌt	-12640
ˈzɪç	-12641
ɯɭː	-12642
tˈeː	-12643
▁ˌɛp	-12644
ɾɛç	-12645
▁ʃɔk	-12646
xat	-12647
ɡht	-12648
oʊmə	-12649
ːˈəl	-12650
jax	-12651
idoɯ	-12652
pʁɑ̃	-12653
▁myʁ	-12654
ɑtəɫ	-12655
uɾe̞	-12656
ɪnɐ̯	-12657
mɝ	-12658
▁æŋ	-12659
axˌɾ	-12660
˧˧h	-12661
aʊɝd	-12662
ɯjoɯ	-12663
▁ord	-12664
▁tfa	-12665
▁ˌaɪ	-12666
ʒw	-12667
jinɛ	-12668
sˈɛn	-12669
set	-12670
ɨnar	-12671
sɯi	-12672
uːʈ	-12673
ˈaki	-12674
ˈalt	-12675
əɾk	-12676
ʈːɾa	-12677
▁fɔɹ	-12678
ˈpoʊ	-12679
ʊŋə	-12680
s˧˧	-12681
itti	-12682
ʊɹɫi	-12683
βlem	-12684
▁top	-12685
apom	-12686
omet	-12687
▁gal	-12688
osp	-12689
▁krɛ	-12690
iab	-12691
narj	-12692
ɑtʃt	-12693
ɛdmj	-12694
▁sɔɫ	-12695
awɛj	-12696
ɭɭɛ̝	-12697
ˈarm	-12698
▁piˈ	-12699
▁ʁed	-12700
uːɾɳ	-12701
ɛʁte	-12702
ɫivz	-12703
▁ɔsp	-12704
awɔ̃	-12705
tsi̯	-12706
ɦˈɑː	-12707
kons	-12708
əkt̪	-12709
ɪtst	-12710
▁ɐpɐ	-12711
bul	-12712
ˈɪo	-12713
ɛtta	-12714
nɔr	-12715
aɪɝˌ	-12716
rɨst	-12717
ˈort	-12718
▁ekw	-12719
ʔɛnt	-12720
▁ˈsə	-12721
ɪkɝ	-12722
mula	-12723
ɛɾle	-12724
▁kˌu	-12725
eŋ	-12726
xes	-12727
ɯɖʌn	-12728
ˌj	-12729
orat	-12730
oɾei	-12731
ul̪ɐ	-12732
ɪpp	-12733
eːst	-12734
i͡ut	-12735
▁kiɾ	-12736
▁oʎ	-12737
imɯn	-12738
oʊkɝ	-12739
ɨvi	-12740
▁nɑ	-12741
exa	-12742
jip	-12743
kend	-12744
ɛzɝ	-12745
vjam	-12746
▁war	-12747
fin	-12748
bəˈd	-12749
ɨjʌʋ	-12750
l˧˧	-12751
niɸɯ	-12752
ɪpps	-12753
əməs	-12754
fˈi	-12755
ˈnɑɫ	-12756
▁ɛ̃p	-12757
jɑ̃t	-12758
kiai	-12759
▁sob	-12760
tuɾu	-12761
ʃikt	-12762
amat	-12763
▁mae	-12764
ɡɾɐ	-12765
ɪlf	-12766
oɾas	-12767
unɛk	-12768
ɛrna	-12769
ɛɾge	-12770
tʃis	-12771
ʈhäː	-12772
ˈitj	-12773
æsɪŋ	-12774
ɡish	-12775
ɾʌ̹b	-12776
▁vɨɕ	-12777
gy	-12778
eɾβ	-12779
t̪ɾə	-12780
▁fuj	-12781
▁kç	-12782
ity	-12783
arlo	-12784
ˈɪts	-12785
jjɔn	-12786
paɲe	-12787
uəɫi	-12788
ɛve	-12789
ɪkw	-12790
ɾaxə	-12791
▁vzr	-12792
ɛmt	-12793
əɾs̪	-12794
▁wˈɛ	-12795
ɑiːl	-12796
ɹiɪŋ	-12797
pɨɾ	-12798
▁rɛv	-12799
œnt	-12800
ɔsɨ	-12801
phiŋ	-12802
ʊsz	-12803
ɛkt͡	-12804
▁spɛ	-12805
bon	-12806
kem	-12807
▁kiz	-12808
nap	-12809
iɾɯn	-12810
ːə	-12811
ball	-12812
ðju	-12813
ntər	-12814
▁kuʃ	-12815
▁kœ̃	-12816
fiɾɐ	-12817
▁ˈni	-12818
ked	-12819
ɪct	-12820
▁ẽv	-12821
▁zɛv	-12822
kɯɾi	-12823
ksə	-12824
stɪŋ	-12825
ʏp	-12826
l̪i	-12827
ɪmz	-12828
asɯg	-12829
take	-12830
ˈivə	-12831
▁mim	-12832
ɾeβ	-12833
seʎu	-12834
evo	-12835
ɔpf	-12836
▁sɔp	-12837
lˈam	-12838
iːɡ	-12839
rɑː	-12840
artɛ	-12841
ɛɹət	-12842
teʒe	-12843
▁kˈe	-12844
baʁ	-12845
kwil	-12846
əŋɡɝ	-12847
▁dɛb	-12848
orr	-12849
ijoɯ	-12850
▁fyt	-12851
jabl	-12852
▁aʁm	-12853
aɾtn	-12854
lind	-12855
▁ixo	-12856
dokɯ	-12857
ɑɾt	-12858
foˈɾ	-12859
mbol	-12860
saðu	-12861
▁ʔʌɭ	-12862
fro	-12863
ʊntˈ	-12864
fak	-12865
a̠ɾɯ	-12866
ɔvja	-12867
▁ɹoʊ	-12868
tɨx	-12869
ɛːd	-12870
ɾid	-12871
iɾse	-12872
▁ɡi	-12873
▁bə̃	-12874
▁ime	-12875
▁ɔka	-12876
jm	-12877
▁ɕim	-12878
uˈe	-12879
kake	-12880
ɔvar	-12881
sɛ˧˧	-12882
ənˌt	-12883
ɛzɪd	-12884
ẽdʒi	-12885
ɡud	-12886
▁ˈep	-12887
xet	-12888
ʊnʃ	-12889
us˧˧	-12890
͡ʊto	-12891
vuj	-12892
ɛmbɐ	-12893
▁vaː	-12894
sap	-12895
ɛndɛ	-12896
▁mɯk	-12897
ˈoːɡ	-12898
ott͡	-12899
▁bˌo	-12900
▁gəd	-12901
▁gəp	-12902
t̪ɾ	-12903
ʒeʁ	-12904
tada	-12905
ˈeɪs	-12906
▁spa	-12907
fˈɾ	-12908
liɣ	-12909
ˈoko	-12910
əə	-12911
raz	-12912
ŋe̞	-12913
xluk	-12914
ˈdʒi	-12915
▁uɾβ	-12916
josa	-12917
ɛrɛm	-12918
▁ʒyʁ	-12919
avɐ	-12920
esoɯ	-12921
ɨkːɯ	-12922
ɔøft	-12923
ijo	-12924
koɕi	-12925
▁lad	-12926
von	-12927
kiki	-12928
əɡəɾ	-12929
ˈush	-12930
artn	-12931
lɛɡa	-12932
mbul	-12933
sult	-12934
ɔwa	-12935
ihas	-12936
upos	-12937
ɾeb	-12938
tate	-12939
æptɝ	-12940
▁ˈvv	-12941
ˈodo	-12942
▁mɑt	-12943
gz	-12944
bjam	-12945
dˈua	-12946
isu	-12947
wɨx	-12948
saka	-12949
ɹˈɪc	-12950
▁o̞ɭ	-12951
feʁe	-12952
ajɐ	-12953
lev	-12954
spl	-12955
ænɪʃ	-12956
ʊkˌm	-12957
βenˈ	-12958
kso	-12959
imen	-12960
zˌp	-12961
ɹɪks	-12962
ɑˈp	-12963
ɑnfɝ	-12964
ɨkji	-12965
bot	-12966
əˈkɹ	-12967
iɾaɾ	-12968
nisɯ	-12969
ɹiˌb	-12970
rare	-12971
gyʁ	-12972
▁ăŋ	-12973
iʃt	-12974
ɔnə	-12975
sexo	-12976
wire	-12977
ɛsˈz	-12978
ɹuvd	-12979
ːʌɾ̪	-12980
▁aʃa	-12981
nɨʒ	-12982
utɔr	-12983
tɹ	-12984
sieɪ	-12985
dɥiʁ	-12986
ʏɾt	-12987
nnɯ	-12988
rət	-12989
ˈolə	-12990
pˌʃl	-12991
bju	-12992
ɡaz	-12993
tiny	-12994
ʊɾs	-12995
▁a̠i	-12996
▁piʁ	-12997
ˈeə	-12998
ɐl̪ɐ	-12999
ˈoin	-13000
osim	-13001
ɹaɪk	-13002
dej	-13003
ɕhuɾ	-13004
ẽsu	-13005
ɕtə	-13006
ʏst	-13007
˧˧j	-13008
kˈɛs	-13009
ɛpts	-13010
▁teʁ	-13011
oɾai	-13012
ɔzna	-13013
høː	-13014
ɔxt	-13015
o̞t̚	-13016
ɑɹdɝ	-13017
ʂɛbu	-13018
▁lək	-13019
ẽsɐʃ	-13020
ibɯɭ	-13021
ɔtɝz	-13022
pɐs	-13023
ɨska	-13024
mɑː	-13025
imɐj	-13026
ɔlɛt	-13027
ˈour	-13028
ɫən	-13029
oɯka	-13030
æmɪŋ	-13031
▁ˈhœ	-13032
gaʒ	-13033
ctis	-13034
▁ɾiː	-13035
amst	-13036
▁emɐ	-13037
ˈed	-13038
▁sʈ	-13039
ɾano	-13040
ulɛ	-13041
▁uf	-13042
▁diɣ	-13043
▁dɛt	-13044
▁fib	-13045
ɔɫs	-13046
vˌju	-13047
▁aˈt	-13048
ɪɫvɝ	-13049
▁ded	-13050
▁s̪k	-13051
ɛse	-13052
ˈβe	-13053
kast	-13054
▁kˌi	-13055
psi	-13056
ˌkɔm	-13057
ɛnju	-13058
▁beb	-13059
ɔtɝˌ	-13060
ɾito	-13061
taba	-13062
utoɾ	-13063
ɔɡra	-13064
dˈu	-13065
seje	-13066
ɯkx	-13067
ʃʊts	-13068
kuʎ	-13069
uɡji	-13070
ɾiːk	-13071
ʌɖʌ	-13072
▁dɐj	-13073
plɛ	-13074
▁tɥ	-13075
oð	-13076
axˌf	-13077
duct	-13078
▁myl	-13079
▁ˈur	-13080
lɛk	-13081
ɔrje	-13082
əɾiː	-13083
ɔɾkt	-13084
ɔvaʐ	-13085
ol̪	-13086
sɛɡi	-13087
ɭɕhi	-13088
ljin	-13089
evy	-13090
ʊbɦ	-13091
▁ɖɔ	-13092
iŋap	-13093
tˈua	-13094
ʌɾ̪s	-13095
jiɲɛ	-13096
maen	-13097
zjɛm	-13098
▁alf	-13099
▁kok	-13100
lət	-13101
muj	-13102
rɯm	-13103
▁tɹˌ	-13104
▁ʋäː	-13105
▁ˈɡɑ	-13106
ɾena	-13107
oʊˈ	-13108
xaɾ	-13109
fkji	-13110
meː	-13111
ɡəst	-13112
▁bɦi	-13113
əsti	-13114
ɡʌ̹m	-13115
gəʀ	-13116
enˌɾ	-13117
ɛnjə	-13118
ɛçɪç	-13119
▁laβ	-13120
kla	-13121
ɛŋt	-13122
atˈu	-13123
kuno	-13124
nɔlɔ	-13125
oɾeɴ	-13126
▁ɲaŋ	-13127
iton	-13128
ituˈ	-13129
itə	-13130
iðe	-13131
ɛpl	-13132
▁zb	-13133
▁ʔʌr	-13134
petʃ	-13135
▁ˈde	-13136
ɫoʊb	-13137
uluh	-13138
ˈawi	-13139
▁liɣ	-13140
kɯɾ	-13141
oʎɐ	-13142
ɾa̠ŋ	-13143
ˈuni	-13144
▁ɲɛs	-13145
ʌxt	-13146
aiba	-13147
ateg	-13148
oɾej	-13149
▁sun	-13150
l̪əj	-13151
ɛspɛ	-13152
ɭʌɪ̯	-13153
con	-13154
pɐm	-13155
aɾtf	-13156
ɡɪnz	-13157
ikb	-13158
ːer	-13159
æpɪŋ	-13160
ˌpɹ	-13161
aŋko	-13162
tɛkt	-13163
ɾaʁ	-13164
ːʌl̪	-13165
uu	-13166
bʊɾt	-13167
▁ˈɪʁ	-13168
opr	-13169
ˈusə	-13170
▁ˈkʊ	-13171
niok	-13172
ɾeɣa	-13173
esp	-13174
▁dʒɝ	-13175
dɨɕ	-13176
enˌʃ	-13177
ɛːk	-13178
itsi	-13179
tˈam	-13180
ɔte	-13181
alik	-13182
ɔʃʃ	-13183
mpti	-13184
▁iɾɯ	-13185
ONS	-13186
ˈmun	-13187
▁bwe	-13188
rɛ˧˧	-13189
æɡˈn	-13190
˧˧c	-13191
oboɯ	-13192
ˈkɛn	-13193
ˈlas	-13194
ˈɪma	-13195
ʎes	-13196
itaɫ	-13197
▁mʊ̃	-13198
▁ɹeɡ	-13199
kid	-13200
n̪i	-13201
amaz	-13202
jesa	-13203
mjar	-13204
ʊˈɹ	-13205
ŋɡak	-13206
ɔmjɛ	-13207
bɹ	-13208
asse	-13209
edes	-13210
t͡ʂa	-13211
aj˧˨	-13212
izɔ̃	-13213
stsl	-13214
t̪oː	-13215
▁kyʁ	-13216
AC	-13217
ukt	-13218
ˈei	-13219
▁ɑɹ	-13220
UNAC	-13221
oʊˈh	-13222
saxe	-13223
asik	-13224
▁emf	-13225
▁sɨm	-13226
ʃɑ̃	-13227
▁ɾa	-13228
▁lɛʁ	-13229
CO	-13230
UNT	-13231
▁kO	-13232
esed	-13233
ɪɫmz	-13234
iʃiz	-13235
▁be̞	-13236
onin	-13237
ɔsuf	-13238
ɔlu	-13239
▁fø	-13240
fɔɹm	-13241
ntar	-13242
▁ɡɛʁ	-13243
AN	-13244
ANT	-13245
sjɐ	-13246
▁cɛ	-13247
ED	-13248
giɴ	-13249
spr	-13250
ætɝi	-13251
▁ˌɪɫ	-13252
bd	-13253
aːp	-13254
▁ux	-13255
EDF	-13256
kʂɐ	-13257
pˌv	-13258
haai	-13259
▁mah	-13260
sad	-13261
CONS	-13262
▁dɔw	-13263
▁new	-13264
OR	-13265
ɔɪŋ	-13266
ɯta	-13267
uˈɛl	-13268
ɛstʁ	-13269
ɰβaɴ	-13270
tˌf	-13271
uːˌf	-13272
iv˧˧	-13273
zafi	-13274
▁ˈɔd	-13275
ɛɾɾa	-13276
▁ˌɛɫ	-13277
akto	-13278
itah	-13279
kɐɾ	-13280
ĩtɨ	-13281
enok	-13282
prof	-13283
ˈpit	-13284
shuɾ	-13285
ɡm	-13286
▁vʑ	-13287
▁saɾ	-13288
uɫd	-13289
▁ʃo	-13290
uːɾʋ	-13291
ɦi	-13292
o̞b	-13293
ʂnɔ̃	-13294
ɝk	-13295
itis	-13296
ezo	-13297
bjɛt	-13298
o̞ɰi	-13299
ɛkom	-13300
ɛ̝e̞	-13301
ðoɾa	-13302
ɪɹbi	-13303
ɹeɪɫ	-13304
vœl	-13305
ilji	-13306
▁ŋak	-13307
▁ɐbɐ	-13308
ksp	-13309
ɛpɝ	-13310
adˈe	-13311
aɪˈt	-13312
ʊpp	-13313
▁pɾõ	-13314
▁ʂan	-13315
ɯked	-13316
▁ə̃	-13317
ɛɹəp	-13318
ˈva	-13319
ˌet	-13320
jɑːɾ	-13321
ɲɛɡɔ	-13322
ˌoʊz	-13323
▁a˧˨	-13324
▁ĩvɨ	-13325
ɪnan	-13326
ˈəlf	-13327
▁vɛt	-13328
irm	-13329
▁opg	-13330
ɑmz	-13331
ɔɪ̯ɐ	-13332
▁mũd	-13333
ɫə	-13334
ɾʊk	-13335
iðɝ	-13336
ɛdo	-13337
ʂar	-13338
▁ilm	-13339
nɪk	-13340
ɔxen	-13341
ˈoli	-13342
nz	-13343
ɔsk	-13344
mp˧˧	-13345
ʏçɐ̯	-13346
ikɫi	-13347
imul	-13348
▁eˈm	-13349
ikɝ	-13350
apas	-13351
stɪˌ	-13352
təny	-13353
æsts	-13354
ɪɾçə	-13355
▁oɴ	-13356
pʁiz	-13357
▁ʁud	-13358
▁ˈɑd	-13359
atɛ	-13360
okas	-13361
əkɪŋ	-13362
▁fom	-13363
ba͡ʊ	-13364
ˌɫæb	-13365
seʁ	-13366
plˈa	-13367
▁het	-13368
ozeɴ	-13369
▁mɛs	-13370
dal	-13371
ɪtˌ	-13372
sˈɛr	-13373
co	-13374
saˈ	-13375
əte	-13376
vju	-13377
ɔŋk	-13378
fiz	-13379
ˈaɫ	-13380
▁rɨ	-13381
sˈud	-13382
ziɲɐ	-13383
ɛnɛ	-13384
ðja	-13385
cces	-13386
▁con	-13387
ɖa	-13388
▁ʂk	-13389
ɛ̃s	-13390
anˌɾ	-13391
siʎʎ	-13392
▁ʼɔʁ	-13393
▁bɑː	-13394
▁ˈɪʃ	-13395
xn	-13396
asid	-13397
ɑɹdi	-13398
ɛ̝ɰi	-13399
leo	-13400
t͡S	-13401
▁ɐj	-13402
ɔʁik	-13403
əˈst	-13404
ɛjɐʃ	-13405
pːoː	-13406
iɫd	-13407
oʊə	-13408
ŋɰi	-13409
ðusi	-13410
jobi	-13411
mˈin	-13412
▁ɾeg	-13413
imɯ	-13414
stej	-13415
ɔntɾ	-13416
əsˌp	-13417
ald	-13418
isɯn	-13419
kwɛɹ	-13420
lɔnd	-13421
ud̪ɦ	-13422
ɨjɨn	-13423
pone	-13424
ʂɔnɛ	-13425
▁iβu	-13426
▁ɣˌ	-13427
ˌind	-13428
▁ˈʃɹ	-13429
odə	-13430
ɫɔŋ	-13431
vers	-13432
ɯmat	-13433
IN	-13434
ɛno	-13435
oon	-13436
ɑmɝs	-13437
omm	-13438
awɨm	-13439
ɾɯka	-13440
toɾe	-13441
▁vra	-13442
▁ʁaʁ	-13443
▁ʊ̃m	-13444
ッkɯn	-13445
ɐjs	-13446
keɪd	-13447
ɭʎim	-13448
ˈʃae	-13449
▁djo	-13450
▁ʔɛŋ	-13451
ɹæk	-13452
nɔf	-13453
▁sɛw	-13454
oʊɡə	-13455
zɛɾn	-13456
vɪɹ	-13457
ski	-13458
ejɾɐ	-13459
əməm	-13460
▁ʂɨ	-13461
pret	-13462
itim	-13463
osˌʃ	-13464
ˈold	-13465
▁krˌ	-13466
etz	-13467
skr	-13468
aɾl	-13469
bˈur	-13470
il˧˧	-13471
ɕiɡw	-13472
zˌɫ	-13473
ɝˈdʒ	-13474
▁dɛr	-13475
ækɹ	-13476
k͈u	-13477
pɑz	-13478
t̪u	-13479
ɪɡd	-13480
▁ŋɯ	-13481
tera	-13482
▁stɨ	-13483
bom	-13484
hid	-13485
zɔɹt	-13486
ɛvɔd	-13487
isɑ̃	-13488
ˌɪte	-13489
▁ɡej	-13490
is̪	-13491
ɔmɲ	-13492
dˈar	-13493
uːd̪	-13494
æbɝˌ	-13495
əˌnu	-13496
ɪd̪ɦ	-13497
▁tik	-13498
gaai	-13499
ɛrne	-13500
ẽdɐʃ	-13501
udnɔ	-13502
っten	-13503
axa	-13504
ʂɑː	-13505
tegʁ	-13506
▁ˈpa	-13507
wäː	-13508
ɛle	-13509
ˈoks	-13510
ˈste	-13511
▁bab	-13512
seɡ	-13513
loːs	-13514
▁tel	-13515
up̚	-13516
fiku	-13517
ɯŋsh	-13518
dʒd	-13519
kɐs	-13520
▁dia	-13521
dˈiː	-13522
▁ɛsk	-13523
ikl	-13524
jadu	-13525
taɾɯ	-13526
äːph	-13527
ɛɡən	-13528
32	-13529
ateɾ	-13530
idʌ̹	-13531
pɐɲi	-13532
oːən	-13533
ʂɛɲu	-13534
▁äːʋ	-13535
off	-13536
a̠md	-13537
jɔna	-13538
klaɾ	-13539
ɴdem	-13540
▁dˌu	-13541
ɔsp	-13542
vole	-13543
orɡ	-13544
ɛsɪz	-13545
asɔ̃	-13546
noto	-13547
▁buf	-13548
ooi	-13549
ːʌm	-13550
▁s˧˧	-13551
aeç	-13552
▁ʃof	-13553
ɑ̃de	-13554
əɫnɝ	-13555
uðis	-13556
vɪɾt	-13557
ɹits	-13558
▁dɯŋ	-13559
umun	-13560
44	-13561
▁ĩd	-13562
ˈɛɲa	-13563
dəŋ	-13564
▁tɔm	-13565
ll	-13566
eky	-13567
fja	-13568
esup	-13569
▁tɔɾ	-13570
oɯɴ	-13571
▁iʁ	-13572
ændɝ	-13573
▁zaʐ	-13574
fts	-13575
suɫ	-13576
sɨʃ	-13577
daki	-13578
ilm	-13579
akˈt	-13580
turo	-13581
ˌtsə	-13582
otam	-13583
olen	-13584
olɪt	-13585
ɕime	-13586
sɛ̃	-13587
cent	-13588
iənt	-13589
ŋɡəɫ	-13590
ɡih	-13591
aɾam	-13592
▁hib	-13593
ɥiʁ	-13594
tsoː	-13595
▁tẽt	-13596
tip	-13597
ɔɾtə	-13598
▁kɨɖ	-13599
ˈlo	-13600
ozus	-13601
bo̞ɭ	-13602
ʌɾ̪i	-13603
▁bɦɐ	-13604
▁lyn	-13605
▁u˧˧	-13606
▁ɡɪɾ	-13607
suh	-13608
ɥal	-13609
▁ɡɛ	-13610
etat	-13611
o̞bi	-13612
əbəɾ	-13613
eɪzɝ	-13614
ilan	-13615
tˌst	-13616
ɫəˈm	-13617
▁sɔr	-13618
kyl	-13619
ɝˈɑʒ	-13620
▁opn	-13621
ipr	-13622
səɫ	-13623
ʐaj	-13624
▁çst	-13625
ɔvɐ	-13626
ˈæɫ	-13627
baɪ̯	-13628
▁sɛɡ	-13629
▁ʔeː	-13630
vʏɾ	-13631
moʊt	-13632
ntik	-13633
▁nez	-13634
bjɐ	-13635
ˈðjo	-13636
aw˨˦	-13637
ɔd͡z	-13638
ɔvɔl	-13639
▁ɡɐj	-13640
juzd	-13641
uʃəɫ	-13642
ɹoʊɫ	-13643
ɾɐmɐ	-13644
iʋ	-13645
βɐʎ	-13646
▁xɛr	-13647
ʂnɔɕ	-13648
ɔjɝ	-13649
et͡ʃ	-13650
ɑɫɝˌ	-13651
odˈu	-13652
ɽɦ	-13653
ikɐ̯	-13654
äːeː	-13655
ɾɯba	-13656
▁ʐuj	-13657
▁zu	-13658
ˈæŋz	-13659
▁max	-13660
▁xɛm	-13661
fʏk	-13662
▁non	-13663
s`	-13664
sjø	-13665
aɾɯp	-13666
ikxɯ	-13667
ofˌn	-13668
ɔønd	-13669
dˈə	-13670
fɾu	-13671
ɔmɐ	-13672
əmɪn	-13673
ˈema	-13674
▁fɐv	-13675
▁ʔɪɾ	-13676
iːjɐ	-13677
ɨpːʌ	-13678
ʊɹəɫ	-13679
▁ˌɛd	-13680
ˈsɝ	-13681
▁ɡəv	-13682
ɾv	-13683
ɔses	-13684
▁sis	-13685
▁iɴ	-13686
feɪs	-13687
gɛns	-13688
izaʒ	-13689
stum	-13690
inf	-13691
rɨʋ	-13692
ɑtoɾ	-13693
eɪkt	-13694
ʐɛɲu	-13695
i͡ən	-13696
ˌɛsu	-13697
▁tun	-13698
ɾij	-13699
▁ˌi	-13700
peː	-13701
ˌɛi̯	-13702
nof	-13703
▁ˌʊ	-13704
bilm	-13705
iːnd	-13706
ʝen	-13707
kɔʐɨ	-13708
ɔlle	-13709
əˈtɪ	-13710
▁jut	-13711
▁viɐ	-13712
▁xiə	-13713
ˈɛv	-13714
atuj	-13715
▁nɛm	-13716
▁taɪ	-13717
▁ʁɨp	-13718
ɔkɔj	-13719
omaɴ	-13720
sˈab	-13721
uram	-13722
ɔvɲɛ	-13723
ɾaeə	-13724
a̠jo	-13725
kɯɾɯ	-13726
ɐ̃tɐ	-13727
ɛ̝ŋm	-13728
▁kẽː	-13729
▁vat	-13730
stɾɐ	-13731
ɯkːa	-13732
▁ɔɡl	-13733
▁ʋɪɾ	-13734
eɪpt	-13735
ti˧˧	-13736
ɲɛnt	-13737
ĩɡu	-13738
əld	-13739
en̪ɐ	-13740
t̪õː	-13741
ˈtan	-13742
ˌint	-13743
▁huk	-13744
▁ˈuk	-13745
odut	-13746
otid	-13747
dɐʃ	-13748
eðeɾ	-13749
alls	-13750
toɸɯ	-13751
▁ləb	-13752
▁vel	-13753
▁äːɡ	-13754
ʃulə	-13755
ikɐm	-13756
nsə	-13757
atax	-13758
uɕhi	-13759
▁ɕɯɯ	-13760
aɾs	-13761
urɡ	-13762
oɾez	-13763
▁ˌæd	-13764
ksɪz	-13765
umus	-13766
əˈpɹ	-13767
ɛːgə	-13768
▁nok	-13769
iɾma	-13770
sjen	-13771
ɾase	-13772
▁ʔiˈ	-13773
sək	-13774
ahab	-13775
kuˈ	-13776
kikɯ	-13777
ɐɾɐs	-13778
▁atʁ	-13779
ˌti	-13780
bˈut	-13781
staˈ	-13782
ɑ̃dɛ	-13783
▁aɣo	-13784
stst	-13785
bia	-13786
gʁɛ	-13787
tny	-13788
ɪˈd	-13789
▁vɨz	-13790
▁ɾʌ̹	-13791
ɔʂ	-13792
bɛʁ	-13793
▁ɑk	-13794
ɪmən	-13795
▁iɾu	-13796
dʑɯ	-13797
ɑrk	-13798
ɔnz	-13799
ɻɯd̪	-13800
ʐɛm	-13801
ulˈi	-13802
əˌkɹ	-13803
ʊʈ	-13804
avɾa	-13805
▁pɔʃ	-13806
jɔt	-13807
skõ	-13808
wen	-13809
noot	-13810
ɭʎju	-13811
▁jiw	-13812
kuβ	-13813
tsen	-13814
ɑːʈː	-13815
ɯɾom	-13816
▁gid	-13817
nia	-13818
ta˧˧	-13819
zus	-13820
iɭʎ	-13821
ojs	-13822
ʝju	-13823
ar˧˧	-13824
ˈɛi̯	-13825
▁nɛs	-13826
▁rep	-13827
oʊˈt	-13828
▁bɾe	-13829
▁kyn	-13830
ɔɾɾ	-13831
▁bav	-13832
fur	-13833
wɛɹ	-13834
a̠ɕh	-13835
eːe	-13836
lih	-13837
ʐi˧˧	-13838
ˈitə	-13839
ak˧˧	-13840
alte	-13841
odʊk	-13842
vɪnn	-13843
ʊz	-13844
ɫəˈɡ	-13845
ɲɛjɛ	-13846
akˈa	-13847
gaʁd	-13848
▁vet	-13849
ɛlp	-13850
ɯt̪ː	-13851
▁vɨx	-13852
umɪŋ	-13853
ʒa	-13854
▁ʂt	-13855
guno	-13856
rˈɑː	-13857
ɔlk	-13858
vejs	-13859
ɹˈɪk	-13860
ʔɛnd	-13861
▁deɾ	-13862
mˌʃt	-13863
ˈerʦ	-13864
ikɑ	-13865
tiŋg	-13866
ˈeɪk	-13867
kop	-13868
urn	-13869
bliɡ	-13870
iːvə	-13871
▁ɔst	-13872
▁ˌfɫ	-13873
ˌeən	-13874
▁gəl	-13875
▁ɡəh	-13876
▁ɲɛx	-13877
dɹ	-13878
imae	-13879
ɔvaɲ	-13880
▁jel	-13881
ɛ̝ɾ	-13882
ʂɨw	-13883
▁zɛs	-13884
pim	-13885
maʁʃ	-13886
pɔ˧˧	-13887
▁nem	-13888
giːn	-13889
ɾema	-13890
pɑ̃	-13891
aŋeb	-13892
ɛtɐm	-13893
ulp	-13894
oniɴ	-13895
o̞ŋi	-13896
ænˈs	-13897
ɹɪkt	-13898
sˈe	-13899
t͡St	-13900
ɛksu	-13901
ːʌn	-13902
ä̃ːɳ	-13903
əsɝz	-13904
ˈɪʃe	-13905
っtan	-13906
uzi	-13907
ˈutə	-13908
▁arm	-13909
dʏɾ	-13910
▁wo	-13911
ɛʂ	-13912
ʃiː	-13913
aʁɛj	-13914
gaʒe	-13915
ɛ̝mi	-13916
▁wh	-13917
ktɪŋ	-13918
omei	-13919
▁zov	-13920
oai	-13921
çim	-13922
ændə	-13923
ɪdee	-13924
▁vru	-13925
▁ɑ̃p	-13926
▁ʃɔp	-13927
▁ˈps	-13928
ˈoh	-13929
s͈ɯ	-13930
afft	-13931
ɐ̃sa	-13932
əpɝz	-13933
ɯŋɡ	-13934
na͡ɪ	-13935
ˈome	-13936
dʁɛ	-13937
ɾʏk	-13938
ɾaiɴ	-13939
ˈɛrk	-13940
ˈɪp	-13941
▁au	-13942
anɨm	-13943
▁bap	-13944
▁gʁa	-13945
ænsi	-13946
ɹˈɪs	-13947
ɑdoʊ	-13948
daɾe	-13949
tujɛ	-13950
▁dɛm	-13951
▁nɯŋ	-13952
kare	-13953
fit	-13954
tro	-13955
aɾɯn	-13956
korr	-13957
ɹəsi	-13958
bei	-13959
tao	-13960
ɾiɕ	-13961
ɔkɔɕ	-13962
ɪlft	-13963
ˈokə	-13964
▁ʋɛː	-13965
wn	-13966
apia	-13967
pʌd̪	-13968
utɪd	-13969
▁zaw	-13970
ˈiðo	-13971
▁ʃow	-13972
ekw	-13973
▁dad	-13974
gɪnn	-13975
ˌecɪ	-13976
pˈo	-13977
ˌes	-13978
aɪst	-13979
kɾɨv	-13980
laðu	-13981
ʑd͡ʑ	-13982
▁lip	-13983
arti	-13984
elen	-13985
ogɯɾ	-13986
pˈas	-13987
eɾð	-13988
tɨku	-13989
umu	-13990
ɪɹɝ	-13991
▁ef	-13992
olus	-13993
ðuse	-13994
▁bɛr	-13995
tuŋ	-13996
ɹəz	-13997
iɾit	-13998
hajo	-13999
umen	-14000
akji	-14001
ɑnsɝ	-14002
ʊŋsp	-14003
▁fˈe	-14004
▁ˌθ	-14005
▁ʃtʁ	-14006
▁ˈæθ	-14007
uðo	-14008
enˌl	-14009
oːə	-14010
▁tuɡ	-14011
pɛr	-14012
leta	-14013
▁abd	-14014
oɾti	-14015
ɑːkɐ	-14016
▁ˌsɝ	-14017
ɔmu	-14018
gəlz	-14019
rɔpa	-14020
ɔɹðɝ	-14021
fum	-14022
æmɝ	-14023
ɨva	-14024
lˈaː	-14025
nənt	-14026
ɑɫəm	-14027
ɾaŋk	-14028
iːeː	-14029
utto	-14030
ˈano	-14031
gate	-14032
kwiz	-14033
əbs	-14034
pekt	-14035
ˈmøː	-14036
▁www	-14037
ʊʧ	-14038
atas	-14039
bo̞ŋ	-14040
soko	-14041
ˈult	-14042
akem	-14043
anes	-14044
aɾtu	-14045
ɑɡoʊ	-14046
ɛva	-14047
atoɯ	-14048
jɛvu	-14049
iro	-14050
jend	-14051
▁vɹˈ	-14052
win	-14053
ramu	-14054
ɔbal	-14055
ʌ̹ŋɲ	-14056
dɝd	-14057
ɔld	-14058
ɴda	-14059
ʁɔ	-14060
ɪˌst	-14061
ɹək	-14062
xeto	-14063
nəˌ	-14064
ッse	-14065
enus	-14066
harɡ	-14067
waɲa	-14068
ɾ̪ɨj	-14069
ʌ̹th	-14070
▁ˈɛh	-14071
ʋʌm	-14072
uske	-14073
▁vɨʃ	-14074
ɔʁmɛ	-14075
▁ɡɐɲ	-14076
rjo	-14077
ˈʔu	-14078
a̠ŋʝ	-14079
kɯte	-14080
ɔzɪŋ	-14081
▁iɡw	-14082
joʝ	-14083
moj	-14084
vɛr	-14085
ɾɪç	-14086
ədət	-14087
ɛɾlɑ	-14088
▁rɔv	-14089
eɲɲ	-14090
ɛçə	-14091
▁jˌo	-14092
▁mɔv	-14093
inon	-14094
mpor	-14095
ˈatχ	-14096
ˌeci	-14097
bo̞m	-14098
ijɯn	-14099
ʌɖɨɡ	-14100
ˈlon	-14101
ˈɾɪn	-14102
eˈ	-14103
ʃɛ̃	-14104
ɔmi	-14105
ardo	-14106
œʁøz	-14107
ɛɹəɫ	-14108
▁ie̞	-14109
▁ˈac	-14110
oʊɡ	-14111
ˌɑp	-14112
tesi	-14113
uːˌz	-14114
▁nɑ̃	-14115
▁omo	-14116
▁zrɛ	-14117
▁ˌup	-14118
ɛɡar	-14119
tf	-14120
ɛgə	-14121
ɲsk	-14122
▁tew	-14123
▁soː	-14124
ɑɾəs	-14125
ːr	-14126
ces	-14127
œji	-14128
ɲiʂ	-14129
ˈfæk	-14130
▁dɛd	-14131
ɛɡɹ	-14132
erti	-14133
mjɛʂ	-14134
ɾaof	-14135
ɝˌb	-14136
▁iɲ	-14137
▁ˈçɾ	-14138
▁rux	-14139
əɡr	-14140
ɛlf	-14141
▁ˈʒ	-14142
skin	-14143
ɪpl	-14144
ɪɾmɑ	-14145
ɐmẽt	-14146
mut	-14147
ɕhɥ	-14148
ɔɪnd	-14149
▁tsh	-14150
▁voɫ	-14151
insh	-14152
ʒwɛ̃	-14153
zɪɡ	-14154
ʃəˈn	-14155
ʃɝɝz	-14156
fɝz	-14157
unz	-14158
ʋʌn	-14159
ˈpɝ	-14160
mˈan	-14161
ɑdən	-14162
ɔɪɝ	-14163
aito	-14164
▁vrɔ	-14165
ʝas	-14166
mem	-14167
mjo	-14168
ɔɾa	-14169
ɲij	-14170
ˈib	-14171
uɾɰi	-14172
▁spɔ	-14173
sko	-14174
▁aŋ	-14175
akul	-14176
ndɯn	-14177
ndˈe	-14178
ɔfɛs	-14179
ʦaːm	-14180
▁fˈu	-14181
aŋka	-14182
aɾme	-14183
zˈɔr	-14184
βɐʎɐ	-14185
aːrv	-14186
ŋkar	-14187
ɔst͡	-14188
ʃinz	-14189
niç	-14190
θən	-14191
ismu	-14192
ɯmɯn	-14193
▁ɐ̃d	-14194
iɡo̞	-14195
ɐβ	-14196
kly	-14197
atʁ	-14198
▁ush	-14199
ɹaɪv	-14200
fˈɔr	-14201
toçi	-14202
t͡ʃj	-14203
siʃt	-14204
▁ʁiv	-14205
ɡː	-14206
d̪ɑː	-14207
kˌpɫ	-14208
ɔbji	-14209
ɔʃtɐ	-14210
ɦa̠ɡ	-14211
ksɛ	-14212
ɯŋm	-14213
rˈos	-14214
nˌg	-14215
bɛɾk	-14216
ɑːʋɐ	-14217
▁fit	-14218
▁maz	-14219
ɪʃɝ	-14220
lˈen	-14221
ɫiɡz	-14222
ŋɡiː	-14223
kek	-14224
sɯg	-14225
iβam	-14226
ːʌɭ	-14227
alaz	-14228
stɐ̯	-14229
ˈɾʃt	-14230
izm	-14231
wos	-14232
vert	-14233
ʃəns	-14234
itiv	-14235
a̠sh	-14236
ˈɪli	-14237
▁d˧˧	-14238
ovas	-14239
ravɛ	-14240
▁iˌv	-14241
▁kɐr	-14242
ʊɹd	-14243
taːl	-14244
ŋkiː	-14245
ẽːɳɖ	-14246
▁pɐɦ	-14247
ɲis	-14248
mbar	-14249
ɛ̝ɕh	-14250
▁biʂ	-14251
jaɲɛ	-14252
əsˌt	-14253
ɪttl	-14254
▁cˈe	-14255
▁ɲat	-14256
uro	-14257
da̠ɭ	-14258
ŋkxɯ	-14259
ɛpte	-14260
▁ɲɔ̃	-14261
bənə	-14262
jət̪	-14263
äːɾʈ	-14264
ɛkɔn	-14265
▁ge	-14266
ˈesə	-14267
ˈzɝv	-14268
ɔrtu	-14269
ɛjnɨ	-14270
nog	-14271
rab	-14272
ɔ̃ʐ	-14273
jaðu	-14274
ɻɨl̪	-14275
▁nɔø	-14276
kœ̃	-14277
ˈaw	-14278
atɥi	-14279
pɫɪk	-14280
stɛr	-14281
ɛm˦˨	-14282
▁gəb	-14283
sɨt	-14284
ɛvs	-14285
▁bʊ	-14286
▁dɨr	-14287
unu	-14288
ˌɛf	-14289
orso	-14290
▁ʔɯn	-14291
▁fok	-14292
aːnv	-14293
opul	-14294
tʁɛn	-14295
ukal	-14296
▁meʎ	-14297
▁ɒ	-14298
tete	-14299
ɔlɛʁ	-14300
eːnt	-14301
tast	-14302
vjiw	-14303
gəs	-14304
skɫ	-14305
ərɡ	-14306
sɯno	-14307
▁kiɭ	-14308
oɾom	-14309
əmiz	-14310
ɲuma	-14311
ˈɔro	-14312
ɯma	-14313
dɔva	-14314
dʑik	-14315
ʃk	-14316
rɛbb	-14317
▁sɨn	-14318
ˈɛ˧˧	-14319
ɝdɝ	-14320
haba	-14321
aɾla	-14322
bɦɑː	-14323
elta	-14324
omas	-14325
▁bɛʁ	-14326
▁hɐt	-14327
ag	-14328
ˈaːd	-14329
ʃɝəɫ	-14330
nˈo	-14331
ujo	-14332
joɾm	-14333
emɯ	-14334
upas	-14335
jɛx	-14336
ɪfft	-14337
▁jɛŋ	-14338
anea	-14339
ɦɪt̪	-14340
ɔ:	-14341
seɪ	-14342
ɲiw	-14343
eɣɾa	-14344
təˌm	-14345
äːbɦ	-14346
ˈzæm	-14347
ɪɖ	-14348
ɱ̩	-14349
ɔrn	-14350
kyʁ	-14351
ral	-14352
udə	-14353
põsɐ	-14354
jori	-14355
suːf	-14356
el̪	-14357
t̚p͈	-14358
ɹaːs	-14359
▁mək	-14360
joð	-14361
ukt͡	-14362
ɛɾnɐ	-14363
ɾɛːt	-14364
▁aɛɾ	-14365
utse	-14366
ɴdak	-14367
da˧˧	-14368
iita	-14369
jɐm	-14370
law	-14371
uɡɔ	-14372
ntɝd	-14373
taɪɝ	-14374
ˈmɛɹ	-14375
gəˈg	-14376
sesɯ	-14377
ɛːs̪	-14378
ɹɑps	-14379
əˈh	-14380
ɪtu	-14381
ɪsˈz	-14382
ɪvɝz	-14383
ˈanə	-14384
▁tɨp	-14385
ʔoː	-14386
ɯna̠	-14387
ʌnɨ	-14388
ʏɾg	-14389
▁ʂɛ	-14390
▁ʁɨl	-14391
sew	-14392
sete	-14393
ɛkav	-14394
▁uŋk	-14395
bɔh	-14396
oːɽ	-14397
ɾiʒ	-14398
suw	-14399
▁aɣa	-14400
jɾu	-14401
ukh	-14402
teɾi	-14403
t͈ʌ̹	-14404
▁rɛj	-14405
ɨtɨv	-14406
ɔɪɝz	-14407
▁haɲ	-14408
▁ʂe	-14409
jalo	-14410
ɾ̪ɑː	-14411
kɔf	-14412
nɯŋ	-14413
ɛnɐ	-14414
ɯnim	-14415
▁rək	-14416
▁ʔɑm	-14417
jɔm	-14418
itʃa	-14419
jawɔ	-14420
ɨjoː	-14421
ˈfel	-14422
▁nɪv	-14423
ɑɫi	-14424
əzɑ̃	-14425
▁ˈdæ	-14426
ndos	-14427
ʊnˌt	-14428
▁aɾɣ	-14429
▁mɨʎ	-14430
wit	-14431
izaʁ	-14432
vest	-14433
ɛktɾ	-14434
▁aʁʃ	-14435
▁mɯɡ	-14436
spe	-14437
sare	-14438
ˈeet	-14439
▁rɨz	-14440
laʒ	-14441
ɪŋɝ	-14442
jäːp	-14443
kola	-14444
ɔɾts	-14445
rp	-14446
erp	-14447
ʃaɾ	-14448
tent	-14449
▁ekl	-14450
▁səɲ	-14451
eːrd	-14452
uvɲɛ	-14453
ɹiː	-14454
bidʑ	-14455
taːt	-14456
ˈβjo	-14457
▁pud	-14458
aɾn	-14459
fɪn	-14460
ode	-14461
▁jan	-14462
▁ẽfɾ	-14463
khʌ̹	-14464
▁dər	-14465
eçt	-14466
ka˧˧	-14467
ɛnnɛ	-14468
▁lˌɛ	-14469
▁təv	-14470
cˈo	-14471
spi	-14472
phʌ̹	-14473
yːlɐ	-14474
▁dih	-14475
bɛr	-14476
ŋɪŋ	-14477
vəns	-14478
ɪnɝz	-14479
▁boɾ	-14480
ʒen	-14481
aˈɾa	-14482
shɯɾ	-14483
▁kʊm	-14484
▁ˈx	-14485
aɪbz	-14486
ˈuld	-14487
eɾɪn	-14488
ksil	-14489
okop	-14490
ɝˌɫ	-14491
æntə	-14492
ɾend	-14493
ˈɪxt	-14494
fʊɾt	-14495
aɾɾ	-14496
assi	-14497
ibad	-14498
ˈgal	-14499
▁auð	-14500
▁ˌɪɹ	-14501
ɫeɪt	-14502
▁gəs	-14503
▁rɛf	-14504
boh	-14505
dja	-14506
idɐs	-14507
siʎo	-14508
ɔʁde	-14509
ɛsji	-14510
▁kʁa	-14511
teo	-14512
jɛro	-14513
mpɐɾ	-14514
ˈiŋa	-14515
ɔɹɝ	-14516
ɨnɨ	-14517
ˈka	-14518
sɝd	-14519
ɔøts	-14520
œp	-14521
▁sr	-14522
▁fro	-14523
ˈtia	-14524
əny	-14525
▁kɥ	-14526
pjis	-14527
▁äːj	-14528
ˈtu	-14529
mbɝ	-14530
aŋz	-14531
əɡʒ	-14532
▁dʐ	-14533
jɛɡ	-14534
unə	-14535
əɡd	-14536
okt	-14537
▁aβl	-14538
▁ɪˈd	-14539
▁ʃtʀ	-14540
weɪz	-14541
ˈləm	-14542
zɪk	-14543
ɡer	-14544
▁jus	-14545
anse	-14546
dənz	-14547
▁maɣ	-14548
ʊɹz	-14549
okan	-14550
tiʃ	-14551
iːnɑ	-14552
pɾɨs	-14553
ɛːɐˈ	-14554
ɨka	-14555
jimɨ	-14556
ŋgwa	-14557
▁ʃˈv	-14558
drid	-14559
ɡaːl	-14560
っkɯɾ	-14561
ɨʈːʌ	-14562
▁krɔ	-14563
aɾd	-14564
mpa	-14565
mər	-14566
təˌf	-14567
ˈbɛɹ	-14568
dɔv	-14569
ə̃mm	-14570
ɑːv	-14571
▁pəp	-14572
▁við	-14573
dˈɛk	-14574
ɛlɐs	-14575
▁etʃ	-14576
▁keɴ	-14577
ɴgɯ	-14578
onjo	-14579
some	-14580
ɑˈɹ	-14581
ˈks	-14582
kund	-14583
stur	-14584
ɾiːn	-14585
▁ʃvø	-14586
▁ʈiː	-14587
▁ˌaɡ	-14588
stuf	-14589
ˌjuz	-14590
plo	-14591
ɡˈal	-14592
▁joɡ	-14593
▁lɐj	-14594
ˈɾð	-14595
▁ɔɹ	-14596
fnɪs	-14597
pɾum	-14598
ˈɛmə	-14599
ʌʈ	-14600
▁ɪt	-14601
falt	-14602
hˈub	-14603
siðɨ	-14604
uːɾɐ	-14605
ɛrra	-14606
ɹɪst	-14607
fax	-14608
ʂɛp	-14609
ʃiʁ	-14610
ɹe͡ɪ	-14611
▁dɛf	-14612
▁ˈko	-14613
sɨβ	-14614
ork	-14615
zaɲ	-14616
nike	-14617
ðiðo	-14618
mœ	-14619
sɯto	-14620
ʒik	-14621
ɛftə	-14622
ɑːme	-14623
ɔkən	-14624
▁fɛɾ	-14625
▁ʁɛɣ	-14626
ɔpɔd	-14627
▁hah	-14628
▁mɨɡ	-14629
▁bɪ	-14630
da͡ɪ	-14631
▁are	-14632
kr̩	-14633
ɾɪŋ	-14634
▁pœ	-14635
niˌb	-14636
nobɯ	-14637
▁klɐ	-14638
▁mai	-14639
adaj	-14640
ɹɑpt	-14641
ɹəp	-14642
ooɕi	-14643
▁fax	-14644
hˌa	-14645
ipɫi	-14646
itəm	-14647
ndok	-14648
ˈosə	-14649
ibər	-14650
ɔrɡa	-14651
ˈmæn	-14652
▁pom	-14653
▁ʈoj	-14654
▁ɪ	-14655
ofˌɾ	-14656
▁ˈri	-14657
bow	-14658
ʊnta	-14659
▁ɡat	-14660
hənt	-14661
ɹɔŋɝ	-14662
ɾət̪	-14663
▁kɔx	-14664
ðeo	-14665
ɔwu	-14666
ʂɛx	-14667
moɾi	-14668
tato	-14669
▁ˌiv	-14670
oʊɫt	-14671
oʊˌs	-14672
▁jaz	-14673
▁naβ	-14674
ɛjnɛ	-14675
ɛɹɪs	-14676
▁jɯɯ	-14677
zia	-14678
tsɑl	-14679
ɻʌɪ̯	-14680
axˌh	-14681
saeç	-14682
paɲi	-14683
▁ˈhɝ	-14684
stim	-14685
ʃˈɑp	-14686
▁iβa	-14687
fly	-14688
onik	-14689
▁gas	-14690
θs	-14691
ɑlt	-14692
ˌaj	-14693
tˈul	-14694
ɛɾsp	-14695
deka	-14696
upəd	-14697
▁liʒ	-14698
nəˌf	-14699
wa̠ŋ	-14700
ipe	-14701
bav	-14702
haɕ	-14703
ɛɦɛɾ	-14704
▁ɡɔd	-14705
taɣ	-14706
▁ie	-14707
jɝz	-14708
esus	-14709
jeɾe	-14710
▁lɔm	-14711
▁tẽd	-14712
vɪɫ	-14713
espe	-14714
ɔøçt	-14715
əmək	-14716
ɛttr	-14717
▁tri	-14718
ˌual	-14719
▁aɾa	-14720
əpɝ	-14721
aːns	-14722
ɪtɐ̯	-14723
▁hɑː	-14724
kəɫ	-14725
ɲaj	-14726
aɪpɝ	-14727
aːt̪	-14728
ˈuɪ	-14729
iskə	-14730
nɑmə	-14731
▁tir	-14732
lejs	-14733
nioɯ	-14734
ɪnəm	-14735
▁zeɴ	-14736
ɛrni	-14737
▁lɔs	-14738
▁nˌe	-14739
▁ɪl̪	-14740
zɨk	-14741
ɛkɝˌ	-14742
ʊntɐ	-14743
▁pih	-14744
ðɐs	-14745
itiz	-14746
taʎa	-14747
▁blø	-14748
wɨf	-14749
▁ẽti	-14750
ɔʁm	-14751
ʌnr	-14752
ˌdi	-14753
kɔst	-14754
ɛ̃dʁ	-14755
▁zɪn	-14756
ora	-14757
ɔns	-14758
əs̪ʋ	-14759
▁fim	-14760
tab	-14761
aːnb	-14762
o̞ni	-14763
▁ken	-14764
nətə	-14765
mɯɾa	-14766
ˈɛni	-14767
ɑkɝ	-14768
ntn̩	-14769
tæɫ	-14770
ɣuɾ	-14771
ɔŋɡu	-14772
ɨɾ̪ʌ	-14773
ɾaeˈ	-14774
▁oːɾ	-14775
viɫd	-14776
ɔsɪz	-14777
▁tos	-14778
plis	-14779
tˌk	-14780
uɫɣ	-14781
a̠ni	-14782
ykas	-14783
ɡˈɛm	-14784
ˈuta	-14785
▁ˌɑɹ	-14786
viʁ	-14787
zon	-14788
ɡom	-14789
ɾeˈg	-14790
▁tuʃ	-14791
aɾej	-14792
iphɯ	-14793
like	-14794
ʏndə	-14795
eʁo	-14796
yːn	-14797
uste	-14798
vɛɾf	-14799
deɸɯ	-14800
ɛ̝in	-14801
ˈtub	-14802
nini	-14803
osiˈ	-14804
osˈɛ	-14805
▁atĩ	-14806
ɔlto	-14807
▁taɲ	-14808
ɛki	-14809
uɡjɛ	-14810
ɛ̃st	-14811
▁ʋʌɭ	-14812
opon	-14813
əˌkw	-14814
▁ʁoz	-14815
dʒis	-14816
inˌw	-14817
uˈan	-14818
ɔh	-14819
bbj	-14820
liŋ	-14821
ẽpe	-14822
▁ɡə	-14823
enih	-14824
ibeɴ	-14825
ʏlt	-14826
βiˈ	-14827
enaɾ	-14828
▁lud	-14829
͡ʊh	-14830
▁sɪn	-14831
baŋk	-14832
jˈuː	-14833
ˈams	-14834
▁abu	-14835
ɪph	-14836
reze	-14837
fir	-14838
▁fur	-14839
▁stˈ	-14840
zɛ	-14841
jub	-14842
aːrʃ	-14843
ũːn̪	-14844
ʌ̹ʝi	-14845
ɡlɛ	-14846
ɡadu	-14847
ʂɛɲi	-14848
▁oɾe	-14849
ẽm	-14850
ɛnu	-14851
ɹæɕt	-14852
ðɝd	-14853
anuf	-14854
▁vut	-14855
tɫi	-14856
ɔdɛ	-14857
niɕo	-14858
osos	-14859
gɯɾa	-14860
iːɾɐ	-14861
tego	-14862
ˈpos	-14863
iðes	-14864
ːnst	-14865
▁ˈlœ	-14866
ːe	-14867
res	-14868
spɪɹ	-14869
into	-14870
ˈsto	-14871
▁naʁ	-14872
ikx	-14873
rɔn	-14874
ɹɪt	-14875
zʊxt	-14876
ɡat	-14877
ɾiɭ	-14878
buni	-14879
bɦäː	-14880
ikɝz	-14881
jɐnɐ	-14882
ˈiːp	-14883
zɝvz	-14884
ˈfaɪ	-14885
kæn	-14886
zaɾ	-14887
▁lɪ	-14888
eːlɐ	-14889
kioj	-14890
tuj	-14891
mphɯ	-14892
oled	-14893
▁vɨv	-14894
paʁt	-14895
ˈoɡo	-14896
▁ɲip	-14897
kɪn	-14898
ɝˌm	-14899
wærk	-14900
▁lˌo	-14901
err	-14902
itɛɾ	-14903
onaɾ	-14904
nei	-14905
use	-14906
ut̪	-14907
iŋgo	-14908
ɫdˌw	-14909
▁ɡuʃ	-14910
aβɾa	-14911
jɛ̃v	-14912
omis	-14913
onən	-14914
ɔvas	-14915
ɲɲif	-14916
ɹust	-14917
▁ata	-14918
▁waʑ	-14919
ɛjl	-14920
ɡon	-14921
ɪmmo	-14922
▁vzm	-14923
jemb	-14924
lɛŋɡ	-14925
ˈɛlj	-14926
▁œy̯	-14927
ʔa	-14928
ɑːi	-14929
βɾɨ	-14930
esai	-14931
ɾə̃m	-14932
nk	-14933
fəl	-14934
ntuŋ	-14935
oʊɫə	-14936
▁bid	-14937
▁ɹˈæ	-14938
ðiɾ	-14939
ɛləf	-14940
▁goʃ	-14941
▁pʁo	-14942
okum	-14943
əɾd̪	-14944
ɨɾaɾ	-14945
▁ɖäː	-14946
ʃʃa	-14947
ˌis	-14948
▁akk	-14949
▁həh	-14950
eッ	-14951
ɾeki	-14952
▁jɛz	-14953
▁ve̞	-14954
ɫɪt	-14955
ʃop	-14956
ẽda	-14957
ɯɭːa	-14958
blɛt	-14959
td͡ʒ	-14960
▁ˈhɛ	-14961
rɔj	-14962
ɡuɡ	-14963
▁ɡäː	-14964
▁ˈnɝ	-14965
zak	-14966
zamt	-14967
oɭ	-14968
iːbɐ	-14969
hæf	-14970
ɪɾm	-14971
ɛnom	-14972
sɛr	-14973
▁ɔtɔ	-14974
spɔ	-14975
▁mur	-14976
▁sux	-14977
▁ɡol	-14978
õt	-14979
aviʎ	-14980
aɾbə	-14981
iɾɰi	-14982
vaɪd	-14983
▁hɔt	-14984
duh	-14985
mpət	-14986
oria	-14987
ərp	-14988
bʌɾ̪	-14989
ĩtɨʃ	-14990
▁pɯɡ	-14991
▁zl	-14992
ɑ̃bʁ	-14993
ˌfɛɹ	-14994
ʏçə	-14995
ɑ̃te	-14996
▁ɣaw	-14997
ɾɐ̃ʒ	-14998
▁edi	-14999
oʊˌm	-15000
ˈhɪɹ	-15001
aɣ	-15002
ofˌf	-15003
stad	-15004
lase	-15005
ˈɛən	-15006
deˌ	-15007
o̞e̞	-15008
ɐɾɐʋ	-15009
ʒj	-15010
miɾɯ	-15011
kɯɴ	-15012
ɪˈtʃ	-15013
▁ɛdɨ	-15014
nɔw	-15015
eːoː	-15016
joŋi	-15017
koɾe	-15018
▁ʒɔʁ	-15019
oɴn	-15020
ʊsˈz	-15021
ˈɪco	-15022
ʁø	-15023
hol	-15024
vaef	-15025
ɛndi	-15026
▁xas	-15027
arχ	-15028
ward	-15029
ʌɾ̪a	-15030
ʌ̹bi	-15031
▁kus	-15032
βiɾ	-15033
atəm	-15034
ɐjeː	-15035
ˈout	-15036
▁tɛç	-15037
anja	-15038
dete	-15039
imam	-15040
oɯɾi	-15041
▁ˈao	-15042
jɔnɨ	-15043
kɪs̪	-15044
oˈɾ	-15045
iːnt	-15046
▁seˈ	-15047
▁ala	-15048
▁bɔs	-15049
▁paŋ	-15050
jɛɲu	-15051
ðɝɪŋ	-15052
mˈɪ	-15053
stel	-15054
wadu	-15055
▁əˌv	-15056
itor	-15057
çisa	-15058
ˈɪlm	-15059
itst	-15060
sɔr	-15061
ɯŋi	-15062
▁dɝ	-15063
▁ŋo	-15064
ɾans	-15065
▁kað	-15066
oɰβ	-15067
sˈaŋ	-15068
tɕiɴ	-15069
ʁabl	-15070
▁pɔx	-15071
piɾ	-15072
itət	-15073
ɾaos	-15074
▁tɔn	-15075
duw	-15076
tsp	-15077
wajs	-15078
▁ˈmv	-15079
juɝ	-15080
dadu	-15081
ɨʈːɯ	-15082
rɛz	-15083
leˈk	-15084
ˈsɝt	-15085
▁mos	-15086
▁ʁɔk	-15087
avɛɫ	-15088
moi	-15089
num	-15090
rem	-15091
jaɾɯ	-15092
▁kɯɖ	-15093
ɪð	-15094
ɖˈio	-15095
foʁ	-15096
m˨˦	-15097
▁aɲ	-15098
▁ˈji	-15099
eɾim	-15100
▁ʃif	-15101
tɛk	-15102
aɾin	-15103
ua͡ɪ	-15104
▁lil	-15105
ˈac	-15106
ɕ͈a̠	-15107
ɛɾˈl	-15108
ˌtəp	-15109
▁lɔp	-15110
biən	-15111
latt	-15112
▁veʒ	-15113
amik	-15114
naɾa	-15115
rɔb	-15116
ha̠i	-15117
kt͡s	-15118
nogo	-15119
sn	-15120
▁ɦũ	-15121
zaiɴ	-15122
▁zaː	-15123
sia	-15124
atuf	-15125
astɐ	-15126
aβoɾ	-15127
▁ʁaf	-15128
▁ẽʒɐ	-15129
əɫs	-15130
▁ee	-15131
juts	-15132
ɔbɐ	-15133
▁bɯ	-15134
aʊdɝ	-15135
isan	-15136
ũːm	-15137
esse	-15138
piŋ	-15139
ɑːr	-15140
ɣle	-15141
ɹənz	-15142
buɭ	-15143
ʃes	-15144
bˈɛl	-15145
ɛɾkl	-15146
oːɦ	-15147
oɾiɴ	-15148
tuɾi	-15149
▁rɛm	-15150
akk	-15151
plɐ	-15152
ʐɨw	-15153
ænˌd	-15154
▁ɾək	-15155
▁ʋɨm	-15156
bɾɐ	-15157
niɾi	-15158
ʒias	-15159
▁taʃ	-15160
itr	-15161
zim	-15162
aviɡ	-15163
əɫɛs	-15164
▁bok	-15165
mim	-15166
ʌɖi	-15167
ea	-15168
ɔsɔv	-15169
▁br̩	-15170
▁moɯ	-15171
ɑɹv	-15172
▁sc	-15173
spon	-15174
ʈhɑː	-15175
ʊkt̪	-15176
▁tɔk	-15177
idik	-15178
▁ɛmp	-15179
ŋ˧˨	-15180
ŋɡul	-15181
əmɝi	-15182
n̪m	-15183
ˈβo	-15184
ɛndɨ	-15185
ly	-15186
akas	-15187
ɨɡʌɻ	-15188
▁noβ	-15189
kˌɛ	-15190
jəkʃ	-15191
øːzə	-15192
umn	-15193
▁tes	-15194
▁ʔeɳ	-15195
noɕ	-15196
tex	-15197
nder	-15198
iˈap	-15199
t̪ɾɐ	-15200
vaes	-15201
▁ɖeː	-15202
ype	-15203
əmps	-15204
ɛlst	-15205
ɡax	-15206
ɡaʐ	-15207
ɛnaŋ	-15208
ʦˈi	-15209
eβok	-15210
ʂtat	-15211
▁bla	-15212
▁ˈɜː	-15213
tɔ̃	-15214
ɾek	-15215
esɯg	-15216
tɾɔø	-15217
una̠	-15218
ɕiɰβ	-15219
ɡɦ	-15220
aneo	-15221
indo	-15222
usi	-15223
ɕɛŋɡ	-15224
ʐɔna	-15225
ˈsɛn	-15226
kjɝ	-15227
áːɽ	-15228
ləŋk	-15229
ˌɪv	-15230
eska	-15231
▁ʋɐɾ	-15232
pət	-15233
astɾ	-15234
itei	-15235
ɛʁtu	-15236
ʦəlf	-15237
awm	-15238
eos	-15239
▁viw	-15240
jəs	-15241
ɕiː	-15242
ikir	-15243
mata	-15244
▁ˈæŋ	-15245
ɛɣɐ	-15246
ˈene	-15247
▁ɲɛv	-15248
simo	-15249
ˈekt	-15250
▁leː	-15251
ɛnət	-15252
▁fiɡ	-15253
btu	-15254
k͈ɯn	-15255
ʏɾts	-15256
▁mə̃	-15257
ook	-15258
zɪç	-15259
kˈur	-15260
▁ˌav	-15261
aram	-15262
fleː	-15263
leza	-15264
raxt	-15265
▁kəj	-15266
ˈou	-15267
▁hɔm	-15268
▁ɔph	-15269
▁ˈiː	-15270
▁ˈnæ	-15271
ikot	-15272
kɯsa	-15273
maɕi	-15274
rɛi	-15275
aɾkə	-15276
eːbe	-15277
pɨɾj	-15278
▁biˈ	-15279
ʈp	-15280
atal	-15281
avda	-15282
bˈiː	-15283
mart	-15284
▁miʃ	-15285
▁ˌob	-15286
ɲə	-15287
uki	-15288
ɑkə	-15289
staʁ	-15290
ɐjʃɨ	-15291
ɛfa	-15292
jizɨ	-15293
ndr	-15294
▁pʊ	-15295
aʊ̯ɐ	-15296
pɾeˈ	-15297
äːõː	-15298
ˈɛma	-15299
▁buʁ	-15300
ɡis	-15301
inaw	-15302
utɛs	-15303
ʃtal	-15304
ʐɛ˧˧	-15305
▁wɔr	-15306
ˌə	-15307
zna	-15308
ɾix	-15309
maʁt	-15310
rɛsu	-15311
▁kɔk	-15312
▁pru	-15313
▁ŋˈɛ	-15314
ɾtʃ	-15315
ɔlɐs	-15316
ˈzɪb	-15317
▁ʔɨs	-15318
akt͡	-15319
itul	-15320
mɛl	-15321
amaɴ	-15322
fɛst	-15323
lɛkt	-15324
ɾɯde	-15325
ˈɪns	-15326
▁ari	-15327
ʒmẽ	-15328
k͈ɯm	-15329
nook	-15330
unɰi	-15331
ʂɐɳɐ	-15332
ɛjʃ	-15333
ɡwɐ	-15334
ahah	-15335
oʊˈɫ	-15336
sylt	-15337
ˈɛws	-15338
▁pɯɾ	-15339
egɛn	-15340
ɹoːl	-15341
▁kje	-15342
buj	-15343
t͈ɯ	-15344
iseɴ	-15345
otoɴ	-15346
ɾaso	-15347
▁vˈo	-15348
▁ʒak	-15349
seɲ	-15350
vˌe	-15351
kˌsp	-15352
ɯmah	-15353
ˈɔ	-15354
ɫɝz	-15355
▁ʁɔ	-15356
ofˌv	-15357
adʒ	-15358
eɾed	-15359
ɨjeː	-15360
udɯ	-15361
tʃʊɹ	-15362
adon	-15363
l̪əb	-15364
okat	-15365
▁xɔl	-15366
reðe	-15367
dd	-15368
ln	-15369
arən	-15370
ɕhju	-15371
ʂɛbɨ	-15372
ˈund	-15373
ˌand	-15374
vɛks	-15375
æfɪŋ	-15376
ɑːɾi	-15377
iːʈ	-15378
▁dI	-15379
n̪aː	-15380
omje	-15381
stɛ̃	-15382
▁mek	-15383
▁ɣəm	-15384
øɾ	-15385
gəˈf	-15386
hˈan	-15387
noɕo	-15388
unaɫ	-15389
ˈeoː	-15390
oom	-15391
ibɥe	-15392
pmɑ̃	-15393
ənəs	-15394
ˈɛmu	-15395
ɪs̪ʈ	-15396
s͈e̞	-15397
wəɫi	-15398
▁ɛkk	-15399
pət̪	-15400
ẽtow	-15401
vok	-15402
vˈer	-15403
▁omi	-15404
ɑɹmz	-15405
ŋgo	-15406
ʂʈɐ	-15407
enˌv	-15408
vano	-15409
ɫɪm	-15410
ɾiz	-15411
sɥ	-15412
ʁew	-15413
attɔ	-15414
ɹˈec	-15415
ɾɐjn	-15416
ɫt	-15417
moɾ	-15418
nˈɛ	-15419
ɡɔr	-15420
ɪmb	-15421
staw	-15422
▁jwa	-15423
xeɾo	-15424
▁tɛ̃	-15425
▁ˌol	-15426
bˌu	-15427
ɑnˈt	-15428
ətɹi	-15429
ɡari	-15430
ɸɯaɴ	-15431
ˈisə	-15432
nod	-15433
ˈɔt	-15434
bloɡ	-15435
disf	-15436
▁tue	-15437
atiˈ	-15438
ˈe˧˧	-15439
ˈlɪn	-15440
taβ	-15441
xel	-15442
abɔr	-15443
ʝes	-15444
ˈpiˈ	-15445
▁mˈe	-15446
vae	-15447
ɔste	-15448
kɔɾ	-15449
ˈɪf	-15450
▁joɯ	-15451
sχ	-15452
ɛja	-15453
mbah	-15454
ʌʋʌn	-15455
ˈbaɪ	-15456
▁fxɔ	-15457
mɔɹ	-15458
ipən	-15459
pɫək	-15460
eɹ	-15461
idap	-15462
ətˈi	-15463
ɛdɨt	-15464
ʂɛdw	-15465
pok	-15466
ɔ̃ʒe	-15467
▁eɾm	-15468
▁rax	-15469
▁vˈa	-15470
iɾm	-15471
nlo	-15472
itɐs	-15473
▁dɾa	-15474
▁sok	-15475
▁ˌæb	-15476
▁ɔdv	-15477
ɛ˨˦	-15478
ibɯɴ	-15479
ohai	-15480
tɾon	-15481
βɐðu	-15482
ˌtu	-15483
pˈɑ	-15484
▁miˈ	-15485
▁nan	-15486
▁vaw	-15487
ɛnsp	-15488
ˈwən	-15489
▁ɪnm	-15490
aッ	-15491
ɛtɾ	-15492
almẽ	-15493
▁tol	-15494
▁ʂăw	-15495
ɑˈf	-15496
ˈɛum	-15497
▁bh	-15498
ɔdaf	-15499
▁dɔk	-15500
▁rut	-15501
isei	-15502
naba	-15503
jaʁ	-15504
fect	-15505
ɔjɝz	-15506
ɔkɔl	-15507
▁lub	-15508
iˈa	-15509
anal	-15510
aʁje	-15511
fɹɛʃ	-15512
▁gaz	-15513
▁suː	-15514
ozoɴ	-15515
ŋkɾ	-15516
▁bɐɾ	-15517
kɔɕ	-15518
paːl	-15519
▁tuɐ	-15520
daxt	-15521
id˧˧	-15522
mɨɕl	-15523
laː	-15524
vil	-15525
aðam	-15526
ma̠ŋ	-15527
ulɐs	-15528
vast	-15529
ðiɣu	-15530
ɛ̝ŋi	-15531
bɪt	-15532
▁ũs	-15533
tekt	-15534
ˈiɔr	-15535
mɑn	-15536
uːɡ	-15537
ŋɡaŋ	-15538
▁jos	-15539
▁poˈ	-15540
kja	-15541
ras	-15542
kluˈ	-15543
ɛɾna	-15544
▁sɔn	-15545
stʃ	-15546
ɹiɝ	-15547
▁dɾ	-15548
▁asa	-15549
deʁ	-15550
did	-15551
sea	-15552
ɑxt	-15553
teˈg	-15554
ɔsɛn	-15555
ɾɯni	-15556
ɔve	-15557
ɔzn	-15558
game	-15559
əˌst	-15560
gɾe	-15561
ɛtte	-15562
ɪcht	-15563
ˈiak	-15564
eva	-15565
ɛjm	-15566
ɾɪʃ	-15567
ɛnɪŋ	-15568
fsu	-15569
pərt	-15570
erik	-15571
ʔaen	-15572
Ik	-15573
▁deʃ	-15574
▁unj	-15575
▁ˈdw	-15576
atan	-15577
ɪɫti	-15578
▁ʒuw	-15579
▁ˈes	-15580
ŋɡɹ	-15581
ɕiʂ	-15582
araŋ	-15583
hil̪	-15584
fan	-15585
asɯn	-15586
▁ˈos	-15587
ɔvi	-15588
utẽs	-15589
ənɑ̃	-15590
ˈɛan	-15591
▁ˈif	-15592
eɾt	-15593
lint	-15594
zɑɫv	-15595
ɔvɨv	-15596
ˈkal	-15597
▁ˈaː	-15598
atɾ	-15599
ɯko	-15600
atak	-15601
e̞ʌ̹	-15602
kond	-15603
p͈ɯn	-15604
▁it͡	-15605
▁tis	-15606
▁ˈɾə	-15607
nʌɾ̪	-15608
taɫ	-15609
ˌil	-15610
ikaw	-15611
ɹind	-15612
oɡo	-15613
paɴ	-15614
ja̠m	-15615
ʈheː	-15616
▁isl	-15617
iβe	-15618
deko	-15619
dˈoa	-15620
faʐa	-15621
isje	-15622
▁bɔt	-15623
▁ɰis	-15624
odes	-15625
æɡən	-15626
ˈiʃ	-15627
phɯɭ	-15628
tosɯ	-15629
▁mir	-15630
▁riw	-15631
ulɲɛ	-15632
ˈiɾɐ	-15633
▁naː	-15634
ɾʈ	-15635
æɫəs	-15636
ɕizɯ	-15637
edət	-15638
mˈoː	-15639
▁χˈɛ	-15640
ɛɕɛ	-15641
ɹˈu	-15642
atai	-15643
otən	-15644
tire	-15645
ɪnɪk	-15646
əɖ	-15647
fje	-15648
ˈih	-15649
əmpt	-15650
saj	-15651
▁ʂɔf	-15652
noh	-15653
bɪts	-15654
ɹoʊz	-15655
▁ny	-15656
skʁi	-15657
▁ˈsæ	-15658
ĩɡi	-15659
gəˈm	-15660
iɾɯɴ	-15661
ˌɛst	-15662
▁ŋw	-15663
ɔdɛm	-15664
ɔθ	-15665
andf	-15666
peto	-15667
▁ros	-15668
diʁ	-15669
tʃe	-15670
atuʃ	-15671
ɔrto	-15672
atom	-15673
vɔɹs	-15674
alf	-15675
eram	-15676
prəs	-15677
haɰβ	-15678
▁dɔj	-15679
ˈii	-15680
aʊtʃ	-15681
itaɴ	-15682
ɕiim	-15683
▁alp	-15684
▁ˌac	-15685
kab	-15686
aw˩˧	-15687
onai	-15688
ʊɾˈt	-15689
báː	-15690
joɾo	-15691
mɛɾk	-15692
ɕimi	-15693
▁sɨp	-15694
iked	-15695
iðam	-15696
leks	-15697
t̪ɪk	-15698
ɫəts	-15699
dɯm	-15700
jor	-15701
mpeɾ	-15702
sabl	-15703
▁vok	-15704
▁vɔb	-15705
▁ɡʐɛ	-15706
ˌɛd	-15707
ndur	-15708
ɪtn	-15709
▁lyt	-15710
▁kei	-15711
▁mej	-15712
utə	-15713
ntri	-15714
▁təɡ	-15715
▁ulu	-15716
ɸɯmi	-15717
ʃuto	-15718
▁uʃʃ	-15719
▁θ	-15720
▁fə	-15721
otai	-15722
stəs	-15723
sɪdʒ	-15724
ˈoon	-15725
▁teɲ	-15726
dˈeː	-15727
▁dət	-15728
▁ɡel	-15729
juəs	-15730
əˌʔ	-15731
idɯɭ	-15732
kuˈt	-15733
▁lɪx	-15734
▁ʊd̪	-15735
ozɯ	-15736
moɕi	-15737
oseð	-15738
ˈkju	-15739
ɛʂɨ	-15740
neːɾ	-15741
In	-15742
vio	-15743
▁hə	-15744
▁ky	-15745
ɔpɔn	-15746
ənˌd	-15747
▁saː	-15748
▁sed	-15749
ũd	-15750
bɑn	-15751
ɔlx	-15752
taða	-15753
ɪmpɫ	-15754
low	-15755
unj	-15756
▁ɹəˈ	-15757
▁ɹɪs	-15758
mɪk	-15759
ibus	-15760
ɝvəs	-15761
ʏs	-15762
tode	-15763
cə	-15764
eːva	-15765
o̞ɭɭ	-15766
ɪɦäː	-15767
ˈaju	-15768
▁ɔke	-15769
ldə	-15770
əɡə	-15771
ba̠ɾ	-15772
d͡zi	-15773
iɴsɯ	-15774
mpəl	-15775
ɪŋɡɝ	-15776
▁pʌɡ	-15777
▁pˌu	-15778
orid	-15779
ækst	-15780
ɛnɪs	-15781
ˈels	-15782
▁wˈu	-15783
past	-15784
▁bip	-15785
biz	-15786
pja	-15787
pˈis	-15788
ɾikɐ	-15789
̚d̪ɦ	-15790
aɾɐ	-15791
vɛ̃	-15792
ɛʃt	-15793
abˈu	-15794
sujɛ	-15795
ŋɡɹi	-15796
ɛʁtɐ	-15797
ɝsɪŋ	-15798
ˈɑnk	-15799
ˈət	-15800
ovej	-15801
oʊzi	-15802
24	-15803
dərs	-15804
aɾɯz	-15805
etʃo	-15806
iəɫz	-15807
si˧˧	-15808
ɾiɰi	-15809
▁ʂɤj	-15810
vɪnd	-15811
▁ɕiɕ	-15812
əne	-15813
zẽtʃ	-15814
ˈɛlə	-15815
▁ɡud	-15816
dɐn	-15817
ɔt͡	-15818
kula	-15819
laen	-15820
jaɕ	-15821
umd	-15822
▁ɲik	-15823
▁ʈam	-15824
əɾʋ	-15825
▁ilu	-15826
▁ɔdd	-15827
▁ʃɛn	-15828
onn	-15829
pju	-15830
ɛrɔv	-15831
sɐʃ	-15832
bˈab	-15833
ʌl̪ː	-15834
ark	-15835
vin	-15836
aŋkə	-15837
aŋkˈ	-15838
ɛɾkə	-15839
▁teɴ	-15840
pɑː	-15841
adɛm	-15842
aːlə	-15843
jumɝ	-15844
tuːm	-15845
▁vɪɾ	-15846
▁əv	-15847
▁pyʁ	-15848
ɔɾu	-15849
ɯŋɡa	-15850
aːtʃ	-15851
bʊx	-15852
æbɹ	-15853
ɦɔm	-15854
ɯkɯn	-15855
▁dio	-15856
▁təp	-15857
gœʁ	-15858
hˈal	-15859
ɛh	-15860
eɪˌ	-15861
deaɾ	-15862
dɐ̯	-15863
ɪnk	-15864
ɛmɨs	-15865
βent	-15866
ɡujo	-15867
ɾaez	-15868
jutʃ	-15869
ltən	-15870
ˌhal	-15871
͡ʊdi	-15872
fra	-15873
oːt̪	-15874
tʁal	-15875
ˈeːp	-15876
f˧˧	-15877
▁ʂc	-15878
iɯki	-15879
ɔbnɛ	-15880
▁iʁe	-15881
▁dʊ	-15882
əŋst	-15883
ˈumə	-15884
utu	-15885
baːr	-15886
usɪz	-15887
▁baɪ	-15888
kaw	-15889
ʝos	-15890
flɛk	-15891
inus	-15892
ɔɹtʃ	-15893
ɔsu	-15894
ɲˈi	-15895
oːks	-15896
sumu	-15897
ɡɔdɨ	-15898
▁ʈom	-15899
ˈzɝ	-15900
pˌɛŋ	-15901
ˈɪmə	-15902
▁zˈa	-15903
ɛɾi	-15904
mˈak	-15905
abˈe	-15906
awaɲ	-15907
ima̠	-15908
nasɯ	-15909
tʁəp	-15910
ˌhɛd	-15911
▁ɲis	-15912
ibo	-15913
ɔmo	-15914
jjɛr	-15915
nˈam	-15916
tekɯ	-15917
tiˈm	-15918
ɐliz	-15919
ˌbɝ	-15920
jɐn	-15921
ɕɯɴ	-15922
nɯno	-15923
ɰβan	-15924
ˈvɝt	-15925
▁viʒ	-15926
bɯk	-15927
pes	-15928
zek	-15929
ʊmp	-15930
ɛktu	-15931
ɛ̃n̪	-15932
ˈord	-15933
▁hɔx	-15934
ɯb	-15935
iɴg	-15936
kiv	-15937
ovan	-15938
oːkɐ	-15939
sana	-15940
ɑfən	-15941
dað	-15942
ʊɾz	-15943
dəˌn	-15944
ətˈa	-15945
ɹætʃ	-15946
ɹˈes	-15947
ʁin	-15948
isai	-15949
nərd	-15950
toɾɐ	-15951
ɔfil	-15952
uˈl	-15953
gʁes	-15954
lkjɛ	-15955
ntiː	-15956
nɔnt	-15957
shud	-15958
ækəɫ	-15959
ɑtik	-15960
a̠b	-15961
seo	-15962
ɛɣu	-15963
akoɴ	-15964
ap˧˧	-15965
oːn̪	-15966
ulaw	-15967
ɣɔ˧˧	-15968
ˈeem	-15969
▁ʔɔɾ	-15970
xin	-15971
zat	-15972
iːrd	-15973
kɹut	-15974
ˈeke	-15975
idɛ	-15976
andɨ	-15977
ərsx	-15978
▁afr	-15979
▁aun	-15980
▁ʈɤ̆	-15981
dow	-15982
mət	-15983
nɔl	-15984
▁nɨ	-15985
▁ʁɐ	-15986
ʋä̃ː	-15987
▁fɾo	-15988
ɔrw	-15989
ɳɖa	-15990
ˌɛŋ	-15991
ɔøkt	-15992
ɛɾtu	-15993
▁liz	-15994
biət	-15995
idam	-15996
mers	-15997
oven	-15998
▁mẽb	-15999
kʃ	-16000
ikər	-16001
sɨɾv	-16002
wʌ̹ɭ	-16003
ẽdew	-16004
▁pɔk	-16005
▁ˈaz	-16006
akɯm	-16007
apja	-16008
jona	-16009
sano	-16010
ŋar	-16011
iɕɛj	-16012
kɯto	-16013
▁ɑːp	-16014
▁ˌat	-16015
tuw	-16016
yzə	-16017
alli	-16018
baik	-16019
jato	-16020
pɑgə	-16021
ɛɫək	-16022
▁bor	-16023
▁vaz	-16024
eiɴ	-16025
aɪəm	-16026
oldu	-16027
ʂɲik	-16028
ɐʈ	-16029
ill	-16030
uziˌ	-16031
ɹˈæk	-16032
▁kəɡ	-16033
ret	-16034
ved	-16035
andy	-16036
kurs	-16037
pɯɾɯ	-16038
ˈous	-16039
gap	-16040
ædz	-16041
▁lj	-16042
▁bʁa	-16043
vɔɕ	-16044
bjɛ̃	-16045
stoɾ	-16046
ˌvɪɫ	-16047
▁ren	-16048
▁ɐ̃t	-16049
hœɾ	-16050
mɐɲu	-16051
pɹəɫ	-16052
▁ɖiː	-16053
▁ɾei	-16054
▁ʋiɕ	-16055
ʌʋʌ	-16056
ɛdja	-16057
ˌaha	-16058
l̪ʌɡ	-16059
okim	-16060
ɛɹˌh	-16061
▁kø̞	-16062
▁vin	-16063
aɾf	-16064
▁bix	-16065
▁saf	-16066
ɐ̃k	-16067
dono	-16068
ɪtˌʔ	-16069
▁utʁ	-16070
▁ĩkõ	-16071
əbɝ	-16072
oːte	-16073
səˌɫ	-16074
əɾäː	-16075
ɨɾɐ̃	-16076
βiða	-16077
▁ɕɐɾ	-16078
ˌɾʏ	-16079
iˈan	-16080
ntal	-16081
uɾos	-16082
▁xrɔ	-16083
▁zlɛ	-16084
▁ɡəm	-16085
tum	-16086
ɛnl	-16087
ʃɝɝ	-16088
ˈɛro	-16089
▁dˌo	-16090
▁leg	-16091
ɛɫv	-16092
ataʁ	-16093
ɐjʒɐ	-16094
ɔlkt	-16095
ɾiːd	-16096
ˌist	-16097
etː	-16098
ʏçt	-16099
▁vẽ	-16100
iəmz	-16101
naen	-16102
usta	-16103
ɔømə	-16104
▁oɕi	-16105
nej	-16106
nˌf	-16107
▁od	-16108
debe	-16109
itɐ̃	-16110
opɔz	-16111
ɛɾfl	-16112
ɪdni	-16113
ˈeo	-16114
▁ɕũ	-16115
okɯk	-16116
tomi	-16117
ʃɪnə	-16118
▁ɕit	-16119
▁ɛ̃t	-16120
▁ʁot	-16121
eːo	-16122
vaɲu	-16123
nae	-16124
ˈbr	-16125
oʊˈf	-16126
▁eːʈ	-16127
▁pɨɖ	-16128
gəm	-16129
ozən	-16130
tɾae	-16131
ɛsve	-16132
aseɾ	-16133
janɛ	-16134
port	-16135
ˈaɡs	-16136
▁ɔre	-16137
ˈʃp	-16138
asɯm	-16139
aːts	-16140
esaɴ	-16141
▁thɤ	-16142
▁ɪˈɹ	-16143
▁ʃuv	-16144
koɾo	-16145
ymɑ̃	-16146
ɔ̃ʐɨ	-16147
ɛʃtu	-16148
ˈʃpɾ	-16149
ˈəd	-16150
erf	-16151
uln	-16152
▁ˈəɡ	-16153
ɛkw	-16154
hame	-16155
oːdə	-16156
▁ɛɡz	-16157
ɫɪs	-16158
▁hab	-16159
ɥiɡi	-16160
ʂɨna	-16161
▁toː	-16162
fjit	-16163
noie	-16164
ɪɾph	-16165
rɛa	-16166
ojɯ	-16167
tose	-16168
ʌl̪ʌ	-16169
ʃə̃ɳ	-16170
ˈsɛk	-16171
▁lop	-16172
▁əˌp	-16173
kute	-16174
watɨ	-16175
ɹɑks	-16176
▁deɴ	-16177
na̰	-16178
ataɴ	-16179
ɹiʃ	-16180
daɯɴ	-16181
iɾim	-16182
▁ɛsa	-16183
unɝ	-16184
ips͈	-16185
▁ət̪	-16186
▁ˈnɾ	-16187
çˈu	-16188
kˈuː	-16189
mija	-16190
ɔbɔ̃	-16191
ɔrse	-16192
deh	-16193
dio	-16194
▁ɔʁe	-16195
▁ɔɲi	-16196
ˈey	-16197
anˈt	-16198
ndiv	-16199
ˈnʃt	-16200
e̞in	-16201
tezi	-16202
tuːd	-16203
ˈaɪˈ	-16204
▁bɔk	-16205
▁mor	-16206
kuŋ	-16207
eɾβa	-16208
əlˈɛ	-16209
koe	-16210
kːɯ	-16211
eɾam	-16212
jane	-16213
ʃɪçt	-16214
dˈal	-16215
adra	-16216
əjäː	-16217
▁ɡon	-16218
On	-16219
bɛst	-16220
eːɡə	-16221
ndaˈ	-16222
skɑm	-16223
miŋ	-16224
bant	-16225
eɲas	-16226
ˈudə	-16227
▁emo	-16228
▁ɥil	-16229
ild	-16230
ɫɛb	-16231
▁jat	-16232
aty	-16233
χən	-16234
▁ɫu	-16235
babl	-16236
phiɭ	-16237
ɔɡɔ̃	-16238
ˈoup	-16239
uβ	-16240
iman	-16241
ˈɪke	-16242
ʂa˧˧	-16243
▁kɨɾ	-16244
isf	-16245
buɰi	-16246
hɐbi	-16247
ujɛʂ	-16248
upus	-16249
ˌeat	-16250
▁hom	-16251
bijɯ	-16252
ekit	-16253
jaða	-16254
ɛkɐ̯	-16255
ɪɫtɝ	-16256
ˈsiz	-16257
bini	-16258
ɛfɔn	-16259
ˈell	-16260
ˈenə	-16261
▁ʋɨɖ	-16262
dʒɛ	-16263
eːle	-16264
▁sɔf	-16265
ɹy	-16266
yːʀ	-16267
ʁɛt	-16268
ˈmɪ	-16269
tˈɛl	-16270
wˈɑr	-16271
ʈiɾɐ	-16272
▁raj	-16273
▁ɔpu	-16274
kn	-16275
za˧˧	-16276
っtɕi	-16277
äːʈ	-16278
pʌ	-16279
zv	-16280
ʏft	-16281
imoʊ	-16282
ˈmœ	-16283
ˌuː	-16284
noɾe	-16285
o̞ŋm	-16286
æsəɫ	-16287
ʊxʊŋ	-16288
jəɾ	-16289
vaʒ	-16290
ɹɔd	-16291
oʊnɝ	-16292
ˈlaŋ	-16293
ˈvaɾ	-16294
▁lˌu	-16295
ŋkʂɛ	-16296
ɪkˈt	-16297
ɛmɝ	-16298
ɦuː	-16299
wɔɡi	-16300
ækˈs	-16301
˧˧w	-16302
avew	-16303
ɛrat	-16304
ˌtɐ̯	-16305
▁ato	-16306
▁bɛɦ	-16307
▁ʃɐ̃	-16308
It	-16309
ros	-16310
mazɯ	-16311
ofu	-16312
ɕimɨ	-16313
ˈɪnt	-16314
ˌdɔɹ	-16315
ɔɾʃ	-16316
ɕiit	-16317
▁ˈoɾ	-16318
pːɑː	-16319
uʃ˧˧	-16320
▁ana	-16321
oit	-16322
vəs	-16323
ɔr˧˧	-16324
ɛrsa	-16325
ɑpɝ	-16326
ɔti	-16327
lˈiː	-16328
sˈal	-16329
ʃəˌn	-16330
ˈɔɹd	-16331
oXt	-16332
ʁim	-16333
ăm˦˨	-16334
ɑ̃ʃe	-16335
▁hɛp	-16336
bɔ̃	-16337
vuːr	-16338
ˈuna	-16339
▁bõs	-16340
▁col	-16341
ʌn̪	-16342
prov	-16343
sɯgi	-16344
ˌleː	-16345
▁nis	-16346
vaj	-16347
zn̩	-16348
ɣɛ˧˧	-16349
ɪndɝ	-16350
ɪtsə	-16351
ɹɑmə	-16352
▁ɔdm	-16353
aden	-16354
ɡraf	-16355
zz	-16356
k͈ɯ	-16357
ɣɾi	-16358
amɔv	-16359
elas	-16360
erlo	-16361
mail	-16362
dʁa	-16363
ɨnu	-16364
ːni	-16365
eluʃ	-16366
nima	-16367
ɛ˧˧ʐ	-16368
ɨviz	-16369
▁əs	-16370
d̪ɨj	-16371
plus	-16372
ptən	-16373
▁jap	-16374
53	-16375
ɹɪʃ	-16376
ˈɾal	-16377
▁isy	-16378
▁nɯɭ	-16379
jt	-16380
ũj̃	-16381
əlt	-16382
ˈaə	-16383
keta	-16384
meta	-16385
ɳʈəɾ	-16386
▁beo	-16387
ˈopj	-16388
joz	-16389
▁nɯ	-16390
opər	-16391
ɲɛɕɛ	-16392
ˈowo	-16393
▁nɛ̃	-16394
▁sɪm	-16395
kˌf	-16396
ɐɾa	-16397
ɡuh	-16398
eːph	-16399
eɪŋ	-16400
ʂɛm	-16401
▁ɲu	-16402
siɡn	-16403
ɛvɲa	-16404
emon	-16405
eːkʈ	-16406
ˈɛˈs	-16407
▁gən	-16408
mɑk	-16409
ˈse	-16410
ɛʃəs	-16411
ʊkis	-16412
ʌ̹sh	-16413
▁biʎ	-16414
▁lɔj	-16415
injo	-16416
zeçi	-16417
ɲjuɭ	-16418
ʊɖ	-16419
kːa	-16420
ɾəp	-16421
▁muw	-16422
ttr	-16423
ɑɾɑ	-16424
alit	-16425
oorz	-16426
ɔ:˨˩	-16427
▁pɪ	-16428
d̪ɯm	-16429
ikeː	-16430
▁ɕlu	-16431
wka	-16432
ɔfɔ̃	-16433
ˈiɡ	-16434
ɣaða	-16435
nn	-16436
stn̩	-16437
ɔtʃi	-16438
▁ʔoː	-16439
ikk	-16440
oba	-16441
fɾut	-16442
ɛrja	-16443
ˈipl	-16444
taj	-16445
teʒ	-16446
ˈect	-16447
▁sˌa	-16448
nob	-16449
øːə	-16450
œne	-16451
ɑːze	-16452
alʃ	-16453
ekom	-16454
stʂɛ	-16455
unal	-16456
zɝvd	-16457
ɨnʌm	-16458
ɔny	-16459
ɔpt	-16460
mpur	-16461
tʃˈm	-16462
ˈumi	-16463
oʊkt	-16464
ɔɾgə	-16465
ɾiko	-16466
▁phu	-16467
zik	-16468
̪ɯɭ	-16469
ɐɾbɐ	-16470
oɡr	-16471
laʁe	-16472
uden	-16473
▁vɔt	-16474
ɔpɐ	-16475
deɛf	-16476
kɔlɛ	-16477
ɾm	-16478
buɾ	-16479
fet	-16480
lɑm	-16481
mbr	-16482
mir	-16483
kool	-16484
stˈe	-16485
βela	-16486
▁reɡ	-16487
asm	-16488
ɔto	-16489
hˈil	-16490
ikom	-16491
ikoɴ	-16492
wat͡	-16493
ɦin̪	-16494
rt	-16495
laj	-16496
ɡuʃ	-16497
ɦjũ	-16498
ʐɔn	-16499
vere	-16500
ˈuːd	-16501
ɪss	-16502
saŋk	-16503
▁ɣak	-16504
aht	-16505
ɕɛɲ	-16506
ɛɾɐ	-16507
▁ɾo	-16508
nosa	-16509
ɡˈaː	-16510
▁lĩp	-16511
wɨm	-16512
akak	-16513
uɡˈi	-16514
ɔsso	-16515
▁nei	-16516
ɯka	-16517
ɲal	-16518
ʂɛk	-16519
aɾjɐ	-16520
a̠nm	-16521
ləks	-16522
unak	-16523
▁beʎ	-16524
zuw	-16525
aɾɯi	-16526
imən	-16527
prod	-16528
▁keˈ	-16529
▁ɛ̃f	-16530
bem	-16531
aʁja	-16532
niˌt	-16533
ɕ͈in	-16534
ɡˈar	-16535
▁waw	-16536
▁ɑːb	-16537
▁ʋɨs	-16538
zɝd	-16539
ɛvɝð	-16540
▁ewɐ	-16541
▁jˈɛ	-16542
▁œʁø	-16543
aje	-16544
antw	-16545
ifis	-16546
▁ɲɛk	-16547
arat	-16548
arla	-16549
nnah	-16550
ɹeft	-16551
ɦu	-16552
̪ː	-16553
ɪɡz	-16554
ˌum	-16555
ɔtuf	-16556
ˈius	-16557
ˈɾið	-16558
▁ɐt̪	-16559
kɯi	-16560
ɔ̃p	-16561
̪d̪a	-16562
▁băj	-16563
ɛg	-16564
wɔ̃	-16565
ɑɹʃ	-16566
▁ɛz	-16567
d͡ʒl	-16568
mjɛx	-16569
çija	-16570
sːi	-16571
yːzə	-16572
ʊŋsk	-16573
eʁs	-16574
n̪ij	-16575
ɯnom	-16576
▁lɔb	-16577
ɛɡr	-16578
anon	-16579
bavɨ	-16580
hʌ̹b	-16581
iaɡn	-16582
ˈɛki	-16583
ˈɪcː	-16584
eːʂ	-16585
dˈas	-16586
vɔly	-16587
vɝt	-16588
ʌlp	-16589
erst	-16590
uːˌn	-16591
ɡapˌ	-16592
▁vɑɾ	-16593
ɕɛl	-16594
atər	-16595
stow	-16596
tudu	-16597
umuv	-16598
waðo	-16599
▁ʁɨv	-16600
is˧˧	-16601
iβal	-16602
knis	-16603
ɹiət	-16604
ʋəl̪	-16605
ˌiŋ	-16606
▁wɝ	-16607
ðiɣo	-16608
▁ɣ˧˧	-16609
▁ʔaɾ	-16610
ɑbə	-16611
ɾɐɳɐ	-16612
▁kji	-16613
▁kɹe	-16614
▁ɑ̃d	-16615
sət	-16616
əˌdʒ	-16617
ɲɔnɛ	-16618
ɔfs	-16619
leze	-16620
phø̞	-16621
boɐ	-16622
eːˌʃ	-16623
▁dwe	-16624
▁mɛk	-16625
▁uɫ	-16626
▁eli	-16627
▁ɣˌe	-16628
uˈat	-16629
ɑɹkɝ	-16630
▁spɹ	-16631
ʈsi	-16632
▁doː	-16633
bid	-16634
bəŋk	-16635
eːrɯ	-16636
ɑɹoʊ	-16637
ˈapə	-16638
▁won	-16639
aβa	-16640
ɛmɛs	-16641
ɡamb	-16642
ˌzæm	-16643
▁ɛ̃s	-16644
utɐ	-16645
æbz	-16646
ʌjʌm	-16647
ˈsas	-16648
itt	-16649
oɯi	-16650
sɯː	-16651
burɡ	-16652
ndra	-16653
▁iːt	-16654
▁kɯd	-16655
▁kʁy	-16656
▁un̪	-16657
▁ʁɛs	-16658
▁ʃpa	-16659
kiɕ	-16660
iːzo	-16661
▁aiɾ	-16662
▁ɡoɾ	-16663
ɔrmɨ	-16664
ˈzɔɹ	-16665
▁aɾi	-16666
▁rɛp	-16667
bjək	-16668
d̪ɦu	-16669
iteʁ	-16670
tjɛ̃	-16671
ɨʃti	-16672
ʈːɨj	-16673
▁vap	-16674
▁ɔts	-16675
▁oi	-16676
iles	-16677
▁ʂeo	-16678
joっt	-16679
jəɫə	-16680
ktiː	-16681
ɹɪŋz	-16682
ˈimə	-16683
mju	-16684
ʊt̪	-16685
bjit	-16686
dˈeə	-16687
œts	-16688
ajɯɯ	-16689
alaɾ	-16690
▁ɾɛs	-16691
skw	-16692
gliz	-16693
▁leβ	-16694
jʌ̹ɡ	-16695
mona	-16696
ɯnok	-16697
▁ati	-16698
jisu	-16699
ˈtæɫ	-16700
ˈɪnk	-16701
ˌent	-16702
▁gwa	-16703
erl	-16704
ɨt̪	-16705
kulu	-16706
ɨɡʌm	-16707
ɪzni	-16708
ɹiɝz	-16709
▁fœj	-16710
deta	-16711
ndje	-16712
▁fud	-16713
ɣaˈ	-16714
ohoɴ	-16715
oorb	-16716
thɯɾ	-16717
ɡɾas	-16718
▁sɔk	-16719
ˈpu	-16720
lɛpu	-16721
ɑːŋɡ	-16722
aɾɯo	-16723
əvɝi	-16724
ˈaɲi	-16725
▁ʃɪʋ	-16726
sem	-16727
ɾɐm	-16728
andə	-16729
awuf	-16730
kˈar	-16731
əfɝd	-16732
pd	-16733
sb	-16734
api	-16735
nt̪	-16736
ɑːh	-16737
is̪ɐ	-16738
ivam	-16739
kˌɛl	-16740
taðɐ	-16741
ɔŋˌs	-16742
ɾeto	-16743
ˈdjo	-16744
▁err	-16745
▁kow	-16746
dw	-16747
miɲ	-16748
▁vœ	-16749
▁ʈw	-16750
t̪ːi	-16751
ət̪ɾ	-16752
ɾɯɕi	-16753
▁rot	-16754
ʋː	-16755
miɕ	-16756
ba͡ɪ	-16757
i̯oː	-16758
ˈaɡo	-16759
▁ʔyb	-16760
ɛde	-16761
ˈdu	-16762
βɾa	-16763
jäːj	-16764
ərw	-16765
ʒiw	-16766
emɐ̯	-16767
moki	-16768
ntiˈ	-16769
▁it̪	-16770
▁jem	-16771
bəb	-16772
ɡam	-16773
eɾis	-16774
nip̚	-16775
nona	-16776
ʀˈeː	-16777
▁luɡ	-16778
daɡ	-16779
kəs	-16780
uːʔ	-16781
fjji	-16782
ɲoɾ	-16783
ɾikɯ	-16784
ʂɔnɨ	-16785
ziɲu	-16786
ɛndɐ	-16787
ɪŋɐ̯	-16788
ˈkɔɹ	-16789
skah	-16790
ɾeba	-16791
mosf	-16792
wɪtʃ	-16793
ɪʈiː	-16794
ˈgan	-16795
▁boj	-16796
raː	-16797
əfɝz	-16798
ɪnal	-16799
▁uza	-16800
▁ʋʌɖ	-16801
piʁ	-16802
osiˌ	-16803
œstə	-16804
ɛɾja	-16805
ˈelt	-16806
▁ẽdɨ	-16807
ɛɾde	-16808
bio	-16809
sɛw	-16810
ylə	-16811
labl	-16812
ɫˌfɹ	-16813
ʃtɐ̃	-16814
ɽə	-16815
▁isj	-16816
ɝˌp	-16817
d̪õː	-16818
unɯɭ	-16819
ˌeəm	-16820
▁dux	-16821
oɯna	-16822
ɥie̞	-16823
ɨjnɨ	-16824
ʂava	-16825
ʈˈeː	-16826
▁tez	-16827
▁twu	-16828
aɪvd	-16829
äːoː	-16830
ʐɛɡɔ	-16831
▁ʀ	-16832
▁dɪ	-16833
eɾaʁ	-16834
tern	-16835
ɲɲal	-16836
ˈɛrə	-16837
▁jad	-16838
iny	-16839
naw	-16840
vje	-16841
ɛdɐ	-16842
ɐβɨl	-16843
ɛʁsi	-16844
pəɫ	-16845
vɑl	-16846
ækɝ	-16847
ɫit	-16848
etge	-16849
jʃow	-16850
pɯɾo	-16851
ˈikh	-16852
ˈisa	-16853
b˧˧	-16854
imis	-16855
jete	-16856
tani	-16857
ɔlɡə	-16858
ɛnsˌ	-16859
▁s̪p	-16860
niv	-16861
▁jɐ	-16862
jizm	-16863
ˈtif	-16864
uːˌʃ	-16865
biɾ	-16866
fɐj	-16867
sɛn	-16868
ɕɑː	-16869
ɸɯɾ	-16870
βok	-16871
▁ɔŋ	-16872
joju	-16873
puk	-16874
osˌk	-16875
ɛkɹi	-16876
ɲʌɾ̪	-16877
ofə	-16878
enam	-16879
pɛʁb	-16880
ɪniə	-16881
amad	-16882
dn̩	-16883
rux	-16884
hoːɽ	-16885
bˌah	-16886
ˈmɪs	-16887
ˈɪŋk	-16888
▁ɡas	-16889
loɡ	-16890
βam	-16891
imaʒ	-16892
xjas	-16893
ɑɹɫi	-16894
ɛɫvz	-16895
▁awz	-16896
▁b˧˧	-16897
anka	-16898
e̞ɡi	-16899
mœʁ	-16900
mɐn	-16901
ɛnp	-16902
iliβ	-16903
ises	-16904
p˧˧t	-16905
ˈiru	-16906
ˈɛət	-16907
▁ẽkɐ	-16908
suj	-16909
ɔɾs	-16910
enom	-16911
iðeɾ	-16912
ontɾ	-16913
ɔfsk	-16914
ɛnˈd	-16915
ɛ̝t̚	-16916
beʁ	-16917
etoɯ	-16918
jamẽ	-16919
ʌɾ̪ɨ	-16920
▁d͡ʐ	-16921
▁zɡr	-16922
▁ʒuʃ	-16923
oho	-16924
vaɾ	-16925
isəs	-16926
seɾa	-16927
ədˈi	-16928
▁ʂal	-16929
▁ˈɔk	-16930
ɑːge	-16931
▁ʒad	-16932
bos	-16933
kani	-16934
▁tɨɕ	-16935
akti	-16936
olog	-16937
wuɡu	-16938
▁bir	-16939
▁bom	-16940
▁niv	-16941
lɛi	-16942
ɳʌʋ	-16943
awan	-16944
myːt	-16945
osam	-16946
ə̃mw	-16947
ɪtʃt	-16948
lI	-16949
eɾk	-16950
ɝˌɡ	-16951
nali	-16952
olˈɛ	-16953
oˈse	-16954
äːɪʈ	-16955
ɐɾɐj	-16956
axas	-16957
klus	-16958
ntek	-16959
ntim	-16960
osˌn	-16961
▁kɔw	-16962
▁ɡow	-16963
ɸɯk	-16964
ʦˈə	-16965
▁ʁi	-16966
gʊŋs	-16967
inaʁ	-16968
a̠i	-16969
rɔs	-16970
upe	-16971
ɛd͡ʑ	-16972
nol	-16973
noo	-16974
sɐm	-16975
ːnt	-16976
iˈpi	-16977
lɛɾn	-16978
▁awm	-16979
▁iðo	-16980
aɪə	-16981
ɪçk	-16982
ɹɪb	-16983
ɹɪɡ	-16984
əɽək	-16985
ɣɾam	-16986
▁dax	-16987
▁jen	-16988
▁nje	-16989
▁ˌɐ	-16990
aŋel	-16991
izam	-16992
ʁiʒe	-16993
iːə	-16994
▁ĩpl	-16995
hop	-16996
jɛv	-16997
kiɾ	-16998
eviz	-16999
asɐ	-17000
moɯ	-17001
ɣe	-17002
ɝzi	-17003
ˈɫi	-17004
ʊʃɪŋ	-17005
▁aˈɾ	-17006
▁fji	-17007
▁tɔʁ	-17008
naz	-17009
▁sb	-17010
asto	-17011
aːrt	-17012
hˈon	-17013
n̪ɪk	-17014
um˦˨	-17015
ɔɾˈt	-17016
▁vjø	-17017
amet	-17018
osɯi	-17019
ɾəl̪	-17020
ʏçtl	-17021
jõ	-17022
ɡuɾ	-17023
koʎʎ	-17024
md͡ʑ	-17025
adɛk	-17026
a͡ɪr	-17027
nomɯ	-17028
siʎa	-17029
ɛfin	-17030
▁ĩpe	-17031
ˈers	-17032
kɔɲ	-17033
ume	-17034
ɔmɛ	-17035
ɨɾt	-17036
ntiŋ	-17037
tawt	-17038
▁ape	-17039
▁gək	-17040
▁vor	-17041
oɛ	-17042
æzəm	-17043
kuː	-17044
ɛnɾ	-17045
mind	-17046
mˈal	-17047
ɛlts	-17048
ˈeus	-17049
aʊdz	-17050
dʒɪt	-17051
l̪pɐ	-17052
uˈal	-17053
vˈɛr	-17054
ɔɹˌk	-17055
ɾspɾ	-17056
ˈeum	-17057
ˈviɫ	-17058
▁bai	-17059
▁fes	-17060
taip	-17061
▁rab	-17062
ɑst	-17063
akst	-17064
ˈkeɾ	-17065
aduf	-17066
̯n	-17067
ˈiɳ	-17068
ˌem	-17069
▁tõ	-17070
cept	-17071
e̞ɾi	-17072
ækət	-17073
ɛsnɛ	-17074
▁ˌaː	-17075
arnɛ	-17076
▁mʌɳ	-17077
exo	-17078
ɡow	-17079
tɨst	-17080
ɔlgə	-17081
əntˌ	-17082
ˈɔrp	-17083
▁kɛt	-17084
bakɯ	-17085
deke	-17086
kulo	-17087
tuto	-17088
ŋkəɫ	-17089
ɔzɐs	-17090
fɔɾt	-17091
▁fɾi	-17092
dese	-17093
ikae	-17094
ˈtjo	-17095
▁ʒwa	-17096
tˈa	-17097
ˈfju	-17098
▁fən	-17099
olən	-17100
tɛmb	-17101
ɨʎ	-17102
mpɹ	-17103
▁zɔ	-17104
ɡoʊʃ	-17105
▁aeɾ	-17106
▁etu	-17107
ɛrf	-17108
diˈa	-17109
oːtː	-17110
rut͡	-17111
ŋknɛ	-17112
▁jɛʑ	-17113
e̞d	-17114
eːta	-17115
sɪɡn	-17116
ˈvak	-17117
idə	-17118
əbr	-17119
iɾaっ	-17120
fɫɛk	-17121
ijoɾ	-17122
vɝti	-17123
ɪɾd̪	-17124
▁tæk	-17125
aχ	-17126
ɾst	-17127
une̞	-17128
ʀə͡ʊ	-17129
▁mɛl	-17130
nɑ	-17131
adek	-17132
usas	-17133
ˌfaɪ	-17134
▁rea	-17135
▁tiʁ	-17136
▁ɡaɡ	-17137
tyʁ	-17138
vɔn	-17139
likɐ	-17140
zʊnt	-17141
ɪfɪc	-17142
▁aeʁ	-17143
▁koi	-17144
phɯɾ	-17145
▁nit	-17146
21	-17147
ɡwe	-17148
▁hˌʊ	-17149
▁ˈfa	-17150
mw	-17151
bue̞	-17152
skom	-17153
ɛɲɑ̃	-17154
ˈomɛ	-17155
ʁiz	-17156
isaʒ	-17157
jɛdɨ	-17158
ɐʋɑː	-17159
ɛɾbr	-17160
ˈdɹɔ	-17161
ˈzɔɾ	-17162
umɐ	-17163
alɛʑ	-17164
phuŋ	-17165
seme	-17166
vəˌk	-17167
っkak	-17168
awd	-17169
oˈp	-17170
sɪŋ	-17171
ɑːw	-17172
ɨkɛ	-17173
ɔvɔd	-17174
haɯ	-17175
basɯ	-17176
kjɛj	-17177
oxən	-17178
əzɛn	-17179
ɪdˈɪ	-17180
▁ʋʌɡ	-17181
fid	-17182
inɑ	-17183
lum	-17184
pːɨn	-17185
vɑXt	-17186
ˌeen	-17187
▁sɨr	-17188
bej	-17189
ˌɪd	-17190
▁ɔlɛ	-17191
▁ʃəb	-17192
−22	-17193
noni	-17194
ɛlɲɛ	-17195
ɾeˈ	-17196
ʃʃi	-17197
o̞ju	-17198
ʌd̪ɨ	-17199
ɡəb	-17200
ʐɨf	-17201
ʒim	-17202
eɾɑt	-17203
ptas	-17204
t͈ɯɭ	-17205
ɛ˧˧ʂ	-17206
isko	-17207
okam	-17208
oɾeo	-17209
ˈəɕ	-17210
joŋɡ	-17211
ˌiɔr	-17212
▁ɹaː	-17213
ilos	-17214
nemɯ	-17215
itw	-17216
ndɪk	-17217
ɣũ	-17218
ɕoː	-17219
kˌom	-17220
tano	-17221
zi˧˧	-17222
▁zba	-17223
fiw	-17224
anˌn	-17225
atʊŋ	-17226
exjo	-17227
ʃɪkt	-17228
▁ɡɔw	-17229
▁ʔes	-17230
ˈmo	-17231
▁tĩ	-17232
▁tɝ	-17233
umul	-17234
ɛɹoʊ	-17235
ˈulə	-17236
ams	-17237
ɦʌ̹	-17238
fœɾd	-17239
ozɔf	-17240
ɛsj	-17241
ˌit	-17242
ɑɡɝz	-17243
ɛkʃu	-17244
æsk	-17245
͡ɪʀ	-17246
əɫɝd	-17247
▁web	-17248
emə	-17249
uɡa	-17250
aɾðĩ	-17251
nioi	-17252
s̪əɾ	-17253
▁pʌɭ	-17254
iʎa	-17255
osis	-17256
ˌtid	-17257
▁rɛt	-17258
▁ɾɛ̝	-17259
dʒɪk	-17260
puɾɐ	-17261
ɔmɛn	-17262
ɛpən	-17263
ˈɔŋə	-17264
▁ɲɛb	-17265
by	-17266
fli	-17267
pɛɾ	-17268
haie	-17269
lʊss	-17270
ypeʁ	-17271
əuːɐ	-17272
anʔ	-17273
ɐbu	-17274
ɲɛɕ	-17275
asei	-17276
ibɯn	-17277
vəˌ	-17278
ɕiɡ	-17279
jiwa	-17280
ɝniz	-17281
▁tˌɛ	-17282
vɝz	-17283
ˌɛb	-17284
ad˧˧	-17285
isɯg	-17286
lˈɛŋ	-17287
ŋkus	-17288
ife	-17289
▁mn	-17290
mbo̞	-17291
nəɫi	-17292
ˌul	-17293
teɾj	-17294
uːnt	-17295
ɛvət	-17296
lɔ	-17297
dʑa	-17298
ɨɾ̪i	-17299
▁hol	-17300
nig	-17301
isəm	-17302
ra͡ɪ	-17303
ˈnɛs	-17304
ˈtɾa	-17305
▁pl̪	-17306
▁ˈʃʏ	-17307
puz	-17308
anɛt	-17309
dura	-17310
ɔnto	-17311
ʃtin	-17312
ʒiʃt	-17313
▁əph	-17314
ˈopt	-17315
aʊəɫ	-17316
fike	-17317
lɛɲɛ	-17318
sɯta	-17319
ɾiai	-17320
▁bɨm	-17321
▁taɴ	-17322
▁ɔˈθ	-17323
ɲtʃ	-17324
ʒje	-17325
eʒa	-17326
sɪz	-17327
æsp	-17328
dena	-17329
eɪdɝ	-17330
nɔɕi	-17331
ʌl̪ʋ	-17332
▁ɔbu	-17333
ivɛ	-17334
äːɽ	-17335
ijam	-17336
ʃɛŋk	-17337
ˈeid	-17338
ænk	-17339
ɪmə	-17340
t̪hi	-17341
urɨx	-17342
əɡəɦ	-17343
▁ɔbl	-17344
▁ʁəd	-17345
ʃɾ	-17346
ɾaɫ	-17347
lɑˈt	-17348
ɫɛbɹ	-17349
avd	-17350
arli	-17351
dita	-17352
espo	-17353
kini	-17354
oːɖɯ	-17355
taeg	-17356
taッɸ	-17357
ɑɾts	-17358
▁sti	-17359
▁ʎeβ	-17360
▁ˈaɾ	-17361
ŋɡäː	-17362
ˈɪty	-17363
▁iɾo	-17364
▁nɑn	-17365
▁ɤ̆w	-17366
ɡʌm	-17367
▁uɭ	-17368
imɪŋ	-17369
ipal	-17370
jəˌw	-17371
send	-17372
spɪt	-17373
ɛɾən	-17374
ɔkjɛ	-17375
▁zeː	-17376
▁ˈem	-17377
oe	-17378
fart	-17379
ozof	-17380
▁ekʁ	-17381
▁kja	-17382
▁ɐkɐ	-17383
baf	-17384
lea	-17385
oʊˈk	-17386
ɛŋst	-17387
ɹoːn	-17388
bɔn	-17389
mpən	-17390
▁bio	-17391
de̞ɭ	-17392
ɛrnɛ	-17393
vzɡl	-17394
▁dˌɛ	-17395
toŋ	-17396
▁miʁ	-17397
kk	-17398
dəs	-17399
sɯɴ	-17400
urs	-17401
vɐ̯	-17402
oftɾ	-17403
æfts	-17404
æpɪd	-17405
ɔɾks	-17406
ˈilu	-17407
ˈzʊx	-17408
aʊɫ	-17409
eɪʦ	-17410
pɫɔ	-17411
ɔvs	-17412
ɔ̃ː	-17413
βun	-17414
kole	-17415
▁aɾe	-17416
opo	-17417
ajɔm	-17418
jata	-17419
ubɔv	-17420
ɨɣaɾ	-17421
▁koɖ	-17422
▁tːe	-17423
ɔʑ	-17424
ɡb	-17425
ˌot	-17426
dˈak	-17427
hone	-17428
oɾme	-17429
ɯkxɯ	-17430
sˈɛa	-17431
uɾam	-17432
vœlk	-17433
zənt	-17434
ɹɛtʃ	-17435
ˈiʃe	-17436
▁ʒud	-17437
deɕ	-17438
inn	-17439
uɪʃ	-17440
ːli	-17441
ɡˈol	-17442
▁ˈbw	-17443
avɨ	-17444
ofo	-17445
ntoʊ	-17446
ændʒ	-17447
ɔkɔ̃	-17448
ɪ̃ŋk	-17449
ɫifs	-17450
ˌɛim	-17451
ɐni	-17452
wuɡa	-17453
ɨnku	-17454
ɨɾ̪a	-17455
▁kaˈ	-17456
bɪn	-17457
inm	-17458
ˌsw	-17459
ɛlus	-17460
▁haɴ	-17461
▁juɾ	-17462
kaf	-17463
obo	-17464
d̪ʌʋ	-17465
keːn	-17466
xtʊŋ	-17467
ɛspe	-17468
bˈit	-17469
osˈʔ	-17470
oɾek	-17471
sape	-17472
ˈtiz	-17473
▁raf	-17474
▁sɛɲ	-17475
▁tɾu	-17476
enaʒ	-17477
ɔstɛ	-17478
▁ɕɑː	-17479
jaッ	-17480
ɔjʃ	-17481
domo	-17482
tut͡	-17483
umiɾ	-17484
▁jek	-17485
biɴ	-17486
koʁ	-17487
dˈee	-17488
orre	-17489
ˈɑːp	-17490
▁ʋɨʂ	-17491
sɫ	-17492
tẽs	-17493
fəˌs	-17494
sxəɡ	-17495
ˌont	-17496
▁ˈæʃ	-17497
t̪m	-17498
ɛʃ˧˧	-17499
ɡənz	-17500
▁ɰiɡ	-17501
æɡd	-17502
jija	-17503
wa̠m	-17504
▁haɪ	-17505
pˌf	-17506
eːrl	-17507
ha̠ɡ	-17508
ɾɛ̝n	-17509
pˌl	-17510
maðo	-17511
oɾid	-17512
▁fez	-17513
pe:	-17514
ɛsə	-17515
ɪtː	-17516
̪ɯm	-17517
dˈpɹ	-17518
wkji	-17519
ɡɾes	-17520
▁kr̩	-17521
ʋə	-17522
həm	-17523
ɛmz	-17524
eðoɾ	-17525
uːrt	-17526
ɐ̃da	-17527
ɡət̪	-17528
ɪdɪŋ	-17529
ɾaev	-17530
ʃpan	-17531
mɔsp	-17532
ndɯɾ	-17533
▁ʐɯk	-17534
ardi	-17535
ɔstɨ	-17536
ʃtɐm	-17537
ˌɾɑː	-17538
▁naɾ	-17539
aɫ	-17540
deg	-17541
ɹət	-17542
æmps	-17543
a̠j	-17544
okk	-17545
ilid	-17546
ɕisa	-17547
ɡo̞n	-17548
▁ˈʃu	-17549
sɪp	-17550
ɨvɨ	-17551
aheɴ	-17552
akən	-17553
seˈp	-17554
umən	-17555
ˈɛːn	-17556
nyː	-17557
sl̩	-17558
ɣɾɐ	-17559
uɫɹi	-17560
▁xap	-17561
zeç	-17562
▁ʈɔ	-17563
anʐɨ	-17564
axˌb	-17565
ɡɔda	-17566
laɡ	-17567
biˈə	-17568
blij	-17569
ijas	-17570
nami	-17571
ŋɡah	-17572
aːʒ	-17573
ibi	-17574
prˌ	-17575
ʊɾf	-17576
dejo	-17577
ɯtam	-17578
ˈkɑn	-17579
kər	-17580
awɨx	-17581
liːf	-17582
vœʁ	-17583
ɑˌn	-17584
kuna	-17585
ɑmˌb	-17586
ɫaɪz	-17587
ˈest	-17588
▁fɨʃ	-17589
▁lɔn	-17590
▁vøl	-17591
▁ɔʐɛ	-17592
vek	-17593
ɪte	-17594
anam	-17595
deɾi	-17596
ɑɹmə	-17597
▁emi	-17598
ktɝ	-17599
atɛm	-17600
ikɔl	-17601
ɛɡɔɕ	-17602
ʋəs̪	-17603
▁vˈu	-17604
mø	-17605
ʃpɾ	-17606
aɪɹi	-17607
ːɨl̪	-17608
▁bəj	-17609
▁ʋɨɻ	-17610
:d	-17611
bljo	-17612
jɛt͡	-17613
ɑpiz	-17614
ʊkən	-17615
▁ʂaf	-17616
sd	-17617
ser	-17618
oɯiɯ	-17619
thim	-17620
ərlˈ	-17621
▁ipɔ	-17622
ッpɯn	-17623
ləm	-17624
anif	-17625
ʋɪt̪	-17626
ækɝz	-17627
ɡɹɛt	-17628
dʒə	-17629
ɛpɛ	-17630
arik	-17631
isɯm	-17632
onɑ	-17633
eɪvi	-17634
wˈeə	-17635
ˈɪɹz	-17636
▁rɛŋ	-17637
yːd	-17638
asja	-17639
daɲɛ	-17640
voli	-17641
zɨka	-17642
ʃɾae	-17643
ˈato	-17644
ʏ̯	-17645
͡ʊn	-17646
haɾɯ	-17647
impl	-17648
miɡu	-17649
opea	-17650
▁kɔj	-17651
▁ˈbɔ	-17652
axo	-17653
wˈɛr	-17654
▁phɔ	-17655
▁tiɲ	-17656
▁ʋɪɡ	-17657
▁ˌæt	-17658
dag	-17659
mɐ̃	-17660
haok	-17661
ivən	-17662
sipl	-17663
ʈˈaː	-17664
o̞d	-17665
ʌɖɯ	-17666
ozaɴ	-17667
▁ɾɐj	-17668
▁ʦˈo	-17669
▁ˈix	-17670
xeta	-17671
▁ɹˈɪ	-17672
lav	-17673
ukk	-17674
asˈɛ	-17675
æɫət	-17676
æɕt	-17677
dego	-17678
ðeis	-17679
ɫɪŋz	-17680
ɾesu	-17681
ʃteː	-17682
ɾɨ	-17683
▁O	-17684
atɔɾ	-17685
ɛf˧˧	-17686
ˈath	-17687
▁wid	-17688
matu	-17689
ovok	-17690
ɑbən	-17691
▁pəʈ	-17692
hag	-17693
sɛm	-17694
ffuz	-17695
ɔɹnd	-17696
ˈidə	-17697
▁hɝˈ	-17698
uin	-17699
teoɾ	-17700
ˈɑɳk	-17701
adw	-17702
ars	-17703
rʌʋ	-17704
leˈv	-17705
wˈɔr	-17706
ʃhɥi	-17707
ˈɛŋɡ	-17708
▁huv	-17709
ebɯ	-17710
kamp	-17711
ɹiˌs	-17712
ˈann	-17713
ikuw	-17714
▁biŋ	-17715
erʦe	-17716
gint	-17717
makɯ	-17718
strɨ	-17719
▁epʁ	-17720
aːz	-17721
gɯiɴ	-17722
vant	-17723
ɨzji	-17724
joiɭ	-17725
sˈɛl	-17726
ʂʈh	-17727
unta	-17728
ɡˈiə	-17729
ɪnˈt	-17730
▁trɨ	-17731
oɾk	-17732
ɲɐs	-17733
▁ɡj	-17734
▁jav	-17735
taʐ	-17736
rɛmo	-17737
▁o̞m	-17738
▁ʈɪp	-17739
▁ʔoɾ	-17740
ɾz	-17741
pjun	-17742
ɑnɪs	-17743
ɾiɡu	-17744
▁eɾi	-17745
▁feɾ	-17746
tː	-17747
olə	-17748
ɕio	-17749
▁vd	-17750
emuʃ	-17751
ɔŋɡa	-17752
uri	-17753
ɛʐɛ	-17754
axɐ̯	-17755
bɪdʒ	-17756
ndiˈ	-17757
ɔtnɛ	-17758
anʐ	-17759
itː	-17760
momi	-17761
plom	-17762
rata	-17763
͈a̠ɭ	-17764
▁atl	-17765
▁mɤj	-17766
▁ə̃m	-17767
▁ʁef	-17768
aʒe	-17769
n̪jə	-17770
oːst	-17771
uɡɰi	-17772
xtət	-17773
ɛnɲɛ	-17774
ˈpæn	-17775
▁ɑːɦ	-17776
eʒu	-17777
aboɾ	-17778
oort	-17779
pito	-17780
▁ʋɨʋ	-17781
▁ɛv	-17782
ˌkɑn	-17783
▁rɔm	-17784
xɨ	-17785
øt	-17786
inak	-17787
nime	-17788
▁ĩʃp	-17789
əɾm	-17790
dˈɛs	-17791
ˈiːf	-17792
eʁi	-17793
▁nø	-17794
▁nil	-17795
fɨɾ	-17796
oha	-17797
͈ɛ̝	-17798
kɾit	-17799
utɹi	-17800
ɹˈia	-17801
ˌeek	-17802
▁năj	-17803
▁rəɡ	-17804
dɲɛ	-17805
lɛn	-17806
p͈ɯ	-17807
ɫɛɹ	-17808
ˈəʀ	-17809
esim	-17810
ɔpɔʁ	-17811
▁tɛs	-17812
▁ɑːs	-17813
▁ʒɐ̃	-17814
kia	-17815
ɡɐn	-17816
asax	-17817
inan	-17818
nʊŋs	-17819
ɛtˈz	-17820
mud	-17821
entə	-17822
iɾʌ̹	-17823
lend	-17824
ɨt͡s	-17825
▁fkr	-17826
▁zi	-17827
neɾi	-17828
ʃmak	-17829
ˈærk	-17830
▁aɾɯ	-17831
vɔx	-17832
ɸɯe	-17833
ɹɛt	-17834
ˌɪs	-17835
iːs̪	-17836
ən˧˨	-17837
▁ʃi	-17838
bɔks	-17839
ˈɪa	-17840
▁ʁo	-17841
ameɾ	-17842
anna	-17843
eɲɲo	-17844
oɾeɾ	-17845
▁mɯə	-17846
ʂɔn	-17847
▁bˌɛ	-17848
▁xam	-17849
▁ʃat	-17850
dət	-17851
mɛr	-17852
ˌpi	-17853
aɾto	-17854
ɾʊfs	-17855
▁ʒon	-17856
t`	-17857
blj	-17858
armi	-17859
lato	-17860
ulˈu	-17861
ɹæst	-17862
ʏszə	-17863
ˈkɔɫ	-17864
enim	-17865
kwen	-17866
seɾβ	-17867
▁tuk	-17868
ɾɔo	-17869
ilap	-17870
iɡoʊ	-17871
sɔɹd	-17872
ʌ̹nʝ	-17873
puɾ	-17874
ッdo	-17875
ɛʃʃe	-17876
ʌ̹ŋd	-17877
▁lɔl	-17878
▁mɛɾ	-17879
ðɾa	-17880
ɐl̪	-17881
adan	-17882
asˈu	-17883
enˈɪ	-17884
ærkx	-17885
ˈpeɪ	-17886
gaɕo	-17887
iʎʎe	-17888
n̪jɐ	-17889
osˌɾ	-17890
ɛɾʃø	-17891
kand	-17892
n̪ə̃	-17893
sɛnt	-17894
ɔnɛs	-17895
ɛdʒd	-17896
ɪffə	-17897
▁ʁus	-17898
fˌ	-17899
ʌsː	-17900
cort	-17901
ɛnnə	-17902
▁rox	-17903
▁siˈ	-17904
▁ʈäː	-17905
ber	-17906
zla	-17907
ɔfit	-17908
ɯɾin	-17909
ˈjud	-17910
▁kʌn	-17911
etɐ	-17912
っpa	-17913
iˈoʊ	-17914
ki˧˧	-17915
ʂɐkɐ	-17916
andr	-17917
▁s̪m	-17918
cˈɪ	-17919
onse	-17920
ˈziː	-17921
kaɾi	-17922
ˈpɫi	-17923
ˈzɔ̃	-17924
▁h˧˧	-17925
ɛru	-17926
▁xɛ	-17927
irka	-17928
əstɝ	-17929
▁n̥	-17930
ezia	-17931
stɪn	-17932
toɾa	-17933
βeɾa	-17934
▁nɪˌ	-17935
▁ʔiː	-17936
rɔd	-17937
vɪɾ	-17938
ɑtɪd	-17939
ˈalf	-17940
ˈɹɑn	-17941
▁ʁid	-17942
yg	-17943
juʂ	-17944
tiɡ	-17945
ləɪn	-17946
ɹə͡ʊ	-17947
ʦəi	-17948
ɡɾia	-17949
▁ise	-17950
nˌ	-17951
upɐ	-17952
ɛpɾ	-17953
sɯga	-17954
ɡũta	-17955
ˈetə	-17956
▁nɛw	-17957
▁ʁam	-17958
ʦin	-17959
faˈk	-17960
ks͈u	-17961
pɐɲa	-17962
vɪˈt	-17963
ɛbru	-17964
ˌɛŋɡ	-17965
▁ˈov	-17966
ɹiˈ	-17967
imet	-17968
kənd	-17969
uɲ	-17970
saʝ	-17971
deto	-17972
fɑɾt	-17973
ˈida	-17974
roh	-17975
̯sɐ	-17976
aost	-17977
cˈom	-17978
ijɯɯ	-17979
ʋət̪	-17980
pɾɐ	-17981
te̞	-17982
vɛʃ	-17983
ɡɑt	-17984
esən	-17985
klin	-17986
ystʁ	-17987
ɛrtɛ	-17988
ˈðem	-17989
▁pɐɽ	-17990
▁ˌom	-17991
tɔ	-17992
arɛ	-17993
▁fɛj	-17994
▁ina	-17995
▁kəw	-17996
daf	-17997
ɕiz	-17998
eɪsi	-17999
eʁjo	-18000
ijaɾ	-18001
itən	-18002
ˈars	-18003
atku	-18004
ˈwɛɫ	-18005
▁bɑ̃	-18006
▁krɨ	-18007
▁nyl	-18008
aɾp	-18009
tɨm	-18010
ɔ̃b	-18011
ッgɯ	-18012
t̚kh	-18013
▁deˈ	-18014
▁ʐɔw	-18015
ɨna	-18016
βit	-18017
iətə	-18018
javj	-18019
ozis	-18020
▁leb	-18021
ɡiʃ	-18022
iːkh	-18023
sɛbi	-18024
ɔɾmi	-18025
ɛɹɪt	-18026
▁ʃoː	-18027
izə	-18028
ˈɛh	-18029
▁ex	-18030
eɾme	-18031
inad	-18032
isar	-18033
lusi	-18034
ˈɾʊm	-18035
ˌnem	-18036
st̪ɐ	-18037
vɪnt	-18038
▁trɛ	-18039
sn̩	-18040
uŋs	-18041
ɖäː	-18042
bwa̠	-18043
eɴga	-18044
iːmɑ	-18045
ɡˈam	-18046
▁bɯɴ	-18047
dɑ̃	-18048
ɡuɭ	-18049
akˈi	-18050
alam	-18051
xˈer	-18052
ʈhək	-18053
▁lət	-18054
▁nœv	-18055
▁ɪt̪	-18056
tiˈ	-18057
͡ɪb	-18058
amaˈ	-18059
ileɾ	-18060
im˦˨	-18061
ravj	-18062
taʎe	-18063
gɔn	-18064
onə	-18065
▁pɫ	-18066
ntuz	-18067
o̞t͡	-18068
onto	-18069
ship	-18070
ˌeel	-18071
ˌɛks	-18072
æθs	-18073
ɾnə	-18074
▁fos	-18075
ask	-18076
meɴ	-18077
abˈa	-18078
kyle	-18079
▁fɐ̃	-18080
▁rej	-18081
▁xul	-18082
▁ˌis	-18083
jare	-18084
əl̪p	-18085
ɾie̞	-18086
aʂ	-18087
▁ʋi	-18088
adaɴ	-18089
ˈale	-18090
▁nel	-18091
bɦɐ	-18092
axtə	-18093
iɡur	-18094
miɲa	-18095
ofˌl	-18096
teːn	-18097
əməɾ	-18098
oç	-18099
ɖˈi	-18100
etan	-18101
kɔju	-18102
rɨpː	-18103
stsɾ	-18104
taen	-18105
usɝ	-18106
▁ẽm	-18107
brɛj	-18108
comt	-18109
ibe̞	-18110
uvnɨ	-18111
ɐjoː	-18112
▁bˌə	-18113
▁muʁ	-18114
iɲɐ	-18115
▁eg	-18116
ɔdɲɛ	-18117
ɹɑxt	-18118
taz	-18119
ʑən	-18120
mənd	-18121
onst	-18122
sept	-18123
ɡɔdɛ	-18124
ʃiːl	-18125
▁iɾe	-18126
▁kɹu	-18127
▁ʐaŋ	-18128
eːlə	-18129
mplə	-18130
mˈer	-18131
nvɔl	-18132
ʊɾək	-18133
diˈ	-18134
brɨm	-18135
nˈiː	-18136
ɹeː	-18137
none	-18138
ˈsəɫ	-18139
ɪbl	-18140
dˈat	-18141
ja̠n	-18142
ərˈu	-18143
arda	-18144
eɪˌs	-18145
iːns	-18146
pliʁ	-18147
zəɪn	-18148
ɾasu	-18149
ʂkɔl	-18150
ːɪŋ	-18151
deɾɯ	-18152
idal	-18153
okok	-18154
o̞ɯɭ	-18155
pɹɛs	-18156
▁suz	-18157
oːnd	-18158
t͡ʃr	-18159
uẽj̃	-18160
ɔlta	-18161
ɪɡˌn	-18162
ɾina	-18163
ɛsɛm	-18164
っpaɾ	-18165
ɐɾmɐ	-18166
ɔpte	-18167
▁kəʈ	-18168
lˈɑː	-18169
ɪtˌk	-18170
elβe	-18171
sa͡ɪ	-18172
sɔl	-18173
idem	-18174
siɡu	-18175
æpəɫ	-18176
vɛt	-18177
▁dɤk	-18178
▁ɐph	-18179
œt	-18180
pɛt	-18181
▁ɕɲ	-18182
itud	-18183
unes	-18184
wˈær	-18185
alas	-18186
jozu	-18187
lika	-18188
ɾə̃ɳ	-18189
ˈɾɪg	-18190
ʊb	-18191
apa	-18192
tiw	-18193
vak	-18194
enˌt	-18195
voʊt	-18196
ɾits	-18197
aɪˌ	-18198
əntɝ	-18199
ld˧˧	-18200
uvɛk	-18201
▁ˌil	-18202
waɲ	-18203
itur	-18204
ɕiai	-18205
ɯnaɴ	-18206
▁duɡ	-18207
▁vɔk	-18208
oɾɯ	-18209
pej	-18210
apɛw	-18211
aɾta	-18212
▁kyl	-18213
▁rəd	-18214
▁ʔid	-18215
duʃ	-18216
atɛɡ	-18217
aɾaj	-18218
bid̪	-18219
kçiŋ	-18220
test	-18221
tɾat	-18222
ʂxɲi	-18223
▁bɪɡ	-18224
kow	-18225
ɯɭɡ	-18226
aɾle	-18227
ɹˌaː	-18228
mẽt	-18229
nɨj	-18230
ʒɛk	-18231
nɨd̪	-18232
ɹaɪt	-18233
ˈoot	-18234
▁suw	-18235
Is	-18236
lad	-18237
ˈnu	-18238
onim	-18239
teka	-18240
ɡit	-18241
dʒik	-18242
inɐʃ	-18243
ɯmam	-18244
▁bɔj	-18245
▁muɫ	-18246
▁ŋˈo	-18247
atro	-18248
boks	-18249
ktɝz	-18250
pɯɾa	-18251
ɛjsk	-18252
▁oːp	-18253
▁vˈe	-18254
øːs	-18255
ɡev	-18256
ʂɨɲ	-18257
ʌɡʌ	-18258
▁æb	-18259
▁bɐɲ	-18260
inɝ	-18261
spa	-18262
ɾkt	-18263
▁vib	-18264
▁ɡət	-18265
▁ʁiʁ	-18266
▁ˈbʊ	-18267
ˌɑː	-18268
iʊm	-18269
erta	-18270
səˈɫ	-18271
umo̞	-18272
ɛpɝˌ	-18273
▁ɾɪp	-18274
jɛw	-18275
enˈh	-18276
jɔ̃s	-18277
oːˈo	-18278
pare	-18279
ɾukt	-18280
▁ʁul	-18281
▁ʔʌs	-18282
aŋˌ	-18283
rus	-18284
uːg	-18285
bəˌt	-18286
▁mei	-18287
anx	-18288
okoe	-18289
ɪdˌn	-18290
ʁeɑ̃	-18291
kuh	-18292
ædoʊ	-18293
ɪllə	-18294
ˈuɪd	-18295
▁dɾɔ	-18296
onu	-18297
ɔɹf	-18298
ˈfe	-18299
daga	-18300
deai	-18301
lɛ˧˧	-18302
▁ɔdn	-18303
ʃn̩	-18304
ahaɴ	-18305
aɽən	-18306
mɛːs	-18307
omoˈ	-18308
▁edu	-18309
βla	-18310
ksɛs	-18311
otɔr	-18312
st˧˧	-18313
uðos	-18314
æʃɪz	-18315
ɑːkː	-18316
ɪʋäː	-18317
ˈiun	-18318
ˌdɾʏ	-18319
βljo	-18320
diɾ	-18321
jʊɹi	-18322
vɝˌn	-18323
ɫj	-18324
ipo	-18325
ɔja	-18326
ɔɹni	-18327
▁rəf	-18328
ira	-18329
ajɔr	-18330
awab	-18331
d̪oː	-18332
[...]
